{
  "version": "1.0",
  "truncation": null,
  "padding": null,
  "added_tokens": [
    {
      "id": 0,
      "content": "<pad>",
      "single_word": false,
      "lstrip": false,
      "rstrip": false,
      "normalized": false,
      "special": true
    },
    {
      "id": 1,
      "content": "<sos>",
      "single_word": false,
      "lstrip": false,
      "rstrip": false,
      "normalized": false,
      "special": true
    },
    {
      "id": 2,
      "content": "<eos>",
      "single_word": false,
      "lstrip": false,
      "rstrip": false,
      "normalized": false,
      "special": true
    },
    {
      "id": 3,
      "content": "<unk>",
      "single_word": false,
      "lstrip": false,
      "rstrip": false,
      "normalized": false,
      "special": true
    }
  ],
  "normalizer": null,
  "pre_tokenizer": {
    "type": "Whitespace"
  },
  "post_processor": null,
  "decoder": null,
  "model": {
    "type": "BPE",
    "dropout": null,
    "unk_token": "<unk>",
    "continuing_subword_prefix": null,
    "end_of_word_suffix": null,
    "fuse_unk": false,
    "byte_fallback": false,
    "ignore_merges": false,
    "vocab": {
      "<pad>": 0,
      "<sos>": 1,
      "<eos>": 2,
      "<unk>": 3,
      "!": 4,
      "'": 5,
      "(": 6,
      ")": 7,
      ",": 8,
      "-": 9,
      ".": 10,
      "1": 11,
      "2": 12,
      "7": 13,
      ":": 14,
      ";": 15,
      "?": 16,
      "A": 17,
      "B": 18,
      "C": 19,
      "D": 20,
      "E": 21,
      "F": 22,
      "G": 23,
      "H": 24,
      "I": 25,
      "J": 26,
      "K": 27,
      "L": 28,
      "M": 29,
      "N": 30,
      "O": 31,
      "P": 32,
      "Q": 33,
      "R": 34,
      "S": 35,
      "T": 36,
      "U": 37,
      "V": 38,
      "W": 39,
      "X": 40,
      "Y": 41,
      "Z": 42,
      "_": 43,
      "a": 44,
      "b": 45,
      "c": 46,
      "d": 47,
      "e": 48,
      "f": 49,
      "g": 50,
      "h": 51,
      "i": 52,
      "j": 53,
      "k": 54,
      "l": 55,
      "m": 56,
      "n": 57,
      "o": 58,
      "p": 59,
      "q": 60,
      "r": 61,
      "s": 62,
      "t": 63,
      "u": 64,
      "v": 65,
      "w": 66,
      "x": 67,
      "y": 68,
      "z": 69,
      "~": 70,
      "«": 71,
      "·": 72,
      "»": 73,
      "É": 74,
      "Í": 75,
      "Ó": 76,
      "á": 77,
      "â": 78,
      "ç": 79,
      "é": 80,
      "í": 81,
      "ó": 82,
      "ú": 83,
      "ü": 84,
      "…": 85,
      "es": 86,
      "en": 87,
      "er": 88,
      "la": 89,
      "de": 90,
      "ar": 91,
      "qu": 92,
      "an": 93,
      "el": 94,
      "un": 95,
      "al": 96,
      "re": 97,
      "or": 98,
      "at": 99,
      "in": 100,
      "om": 101,
      "que": 102,
      "ia": 103,
      "ca": 104,
      "ent": 105,
      "on": 106,
      "se": 107,
      "gu": 108,
      "os": 109,
      "av": 110,
      "per": 111,
      "és": 112,
      "am": 113,
      "ra": 114,
      "no": 115,
      "est": 116,
      "di": 117,
      "it": 118,
      "ix": 119,
      "ot": 120,
      "una": 121,
      "ll": 122,
      "da": 123,
      "va": 124,
      "ant": 125,
      "eu": 126,
      "ol": 127,
      "pr": 128,
      "les": 129,
      "des": 130,
      "em": 131,
      "Tom": 132,
      "com": 133,
      "ir": 134,
      "sa": 135,
      "amb": 136,
      "et": 137,
      "ur": 138,
      "as": 139,
      "gué": 140,
      "era": 141,
      "ci": 142,
      "ob": 143,
      "ell": 144,
      "tr": 145,
      "tot": 146,
      "els": 147,
      "hav": 148,
      "del": 149,
      "si": 150,
      "ava": 151,
      "aqu": 152,
      "ga": 153,
      "cap": 154,
      "is": 155,
      "ha": 156,
      "ma": 157,
      "par": 158,
      "ta": 159,
      "hi": 160,
      "con": 161,
      "po": 162,
      "més": 163,
      "ho": 164,
      "ri": 165,
      "lla": 166,
      "ment": 167,
      "osa": 168,
      "havia": 169,
      "us": 170,
      "ck": 171,
      "li": 172,
      "le": 173,
      "aix": 174,
      "mi": 175,
      "ament": 176,
      "car": 177,
      "eix": 178,
      "ella": 179,
      "ora": 180,
      "pero": 181,
      "fer": 182,
      "aren": 183,
      "all": 184,
      "min": 185,
      "No": 186,
      "ins": 187,
      "sen": 188,
      "tra": 189,
      "pas": 190,
      "res": 191,
      "ve": 192,
      "cor": 193,
      "mat": 194,
      "ser": 195,
      "unt": 196,
      "El": 197,
      "ort": 198,
      "Hu": 199,
      "pen": 200,
      "Huck": 201,
      "ter": 202,
      "ja": 203,
      "man": 204,
      "ça": 205,
      "ons": 206,
      "vol": 207,
      "tan": 208,
      "digué": 209,
      "pre": 210,
      "tre": 211,
      "prés": 212,
      "pa": 213,
      "aquest": 214,
      "fe": 215,
      "tor": 216,
      "seva": 217,
      "ola": 218,
      "ció": 219,
      "fi": 220,
      "im": 221,
      "du": 222,
      "ab": 223,
      "ten": 224,
      "pro": 225,
      "me": 226,
      "ien": 227,
      "Per": 228,
      "gr": 229,
      "cosa": 230,
      "don": 231,
      "ver": 232,
      "ig": 233,
      "dar": 234,
      "amunt": 235,
      "bla": 236,
      "sem": 237,
      "son": 238,
      "Jo": 239,
      "dre": 240,
      "dia": 241,
      "ex": 242,
      "sos": 243,
      "Qu": 244,
      "esc": 245,
      "any": 246,
      "seu": 247,
      "eren": 248,
      "miny": 249,
      "aven": 250,
      "fa": 251,
      "vi": 252,
      "ut": 253,
      "ara": 254,
      "damunt": 255,
      "hom": 256,
      "aixo": 257,
      "La": 258,
      "um": 259,
      "ós": 260,
      "jo": 261,
      "veu": 262,
      "ec": 263,
      "na": 264,
      "ire": 265,
      "pos": 266,
      "ats": 267,
      "pl": 268,
      "tem": 269,
      "dir": 270,
      "mateix": 271,
      "sin": 272,
      "sent": 273,
      "ti": 274,
      "tres": 275,
      "cos": 276,
      "tant": 277,
      "dor": 278,
      "vin": 279,
      "després": 280,
      "so": 281,
      "deix": 282,
      "segu": 283,
      "tin": 284,
      "seny": 285,
      "perque": 286,
      "sab": 287,
      "trob": 288,
      "gués": 289,
      "gar": 290,
      "oc": 291,
      "gut": 292,
      "Joe": 293,
      "pla": 294,
      "ura": 295,
      "ven": 296,
      "ba": 297,
      "vega": 298,
      "olt": 299,
      "ou": 300,
      "itat": 301,
      "Pero": 302,
      "bé": 303,
      "for": 304,
      "lar": 305,
      "fins": 306,
      "ben": 307,
      "pob": 308,
      "oll": 309,
      "ne": 310,
      "quan": 311,
      "cam": 312,
      "hor": 313,
      "ona": 314,
      "Es": 315,
      "ina": 316,
      "por": 317,
      "ull": 318,
      "cs": 319,
      "te": 320,
      "qui": 321,
      "llur": 322,
      "fet": 323,
      "ge": 324,
      "esper": 325,
      "men": 326,
      "nit": 327,
      "pass": 328,
      "ac": 329,
      "éu": 330,
      "enc": 331,
      "ans": 332,
      "torn": 333,
      "hores": 334,
      "igu": 335,
      "mai": 336,
      "vos": 337,
      "ana": 338,
      "br": 339,
      "estat": 340,
      "alg": 341,
      "aria": 342,
      "esta": 343,
      "cara": 344,
      "comen": 345,
      "sol": 346,
      "tota": 347,
      "cer": 348,
      "rom": 349,
      "altra": 350,
      "aquesta": 351,
      "minyons": 352,
      "Bé": 353,
      "Be": 354,
      "id": 355,
      "reu": 356,
      "dis": 357,
      "aquell": 358,
      "cky": 359,
      "sembla": 360,
      "Becky": 361,
      "lo": 362,
      "ni": 363,
      "pres": 364,
      "Aix": 365,
      "ales": 366,
      "dels": 367,
      "aca": 368,
      "ps": 369,
      "així": 370,
      "ts": 371,
      "ble": 372,
      "gat": 373,
      "haur": 374,
      "ple": 375,
      "casa": 376,
      "pu": 377,
      "comp": 378,
      "Des": 379,
      "als": 380,
      "ban": 381,
      "dav": 382,
      "veure": 383,
      "co": 384,
      "ida": 385,
      "ves": 386,
      "manera": 387,
      "dr": 388,
      "estava": 389,
      "Els": 390,
      "fou": 391,
      "esp": 392,
      "ita": 393,
      "ota": 394,
      "darr": 395,
      "Al": 396,
      "En": 397,
      "sense": 398,
      "ís": 399,
      "cada": 400,
      "bre": 401,
      "dins": 402,
      "gi": 403,
      "vegada": 404,
      "Després": 405,
      "Oh": 406,
      "tia": 407,
      "ure": 408,
      "noi": 409,
      "rib": 410,
      "nom": 411,
      "tat": 412,
      "pens": 413,
      "gran": 414,
      "temps": 415,
      "alla": 416,
      "ing": 417,
      "fora": 418,
      "ro": 419,
      "ésser": 420,
      "mica": 421,
      "bell": 422,
      "fos": 423,
      "féu": 424,
      "aquí": 425,
      "au": 426,
      "ic": 427,
      "vis": 428,
      "altre": 429,
      "rec": 430,
      "hagués": 431,
      "mal": 432,
      "gueren": 433,
      "Que": 434,
      "ud": 435,
      "eta": 436,
      "roman": 437,
      "dos": 438,
      "tar": 439,
      "És": 440,
      "gaire": 441,
      "bra": 442,
      "bo": 443,
      "su": 444,
      "ón": 445,
      "entre": 446,
      "escola": 447,
      "ad": 448,
      "aquella": 449,
      "sempre": 450,
      "darrera": 451,
      "cant": 452,
      "haver": 453,
      "mo": 454,
      "gra": 455,
      "il": 456,
      "poc": 457,
      "bar": 458,
      "cal": 459,
      "mir": 460,
      "nt": 461,
      "pi": 462,
      "ret": 463,
      "assa": 464,
      "ells": 465,
      "tots": 466,
      "pel": 467,
      "qual": 468,
      "alment": 469,
      "nou": 470,
      "aleshores": 471,
      "mar": 472,
      "molt": 473,
      "int": 474,
      "ents": 475,
      "havien": 476,
      "prou": 477,
      "sinó": 478,
      "port": 479,
      "anar": 480,
      "uny": 481,
      "estona": 482,
      "llurs": 483,
      "Ja": 484,
      "Sid": 485,
      "her": 486,
      "mes": 487,
      "mort": 488,
      "arr": 489,
      "hauria": 490,
      "Sí": 491,
      "iu": 492,
      "ju": 493,
      "pir": 494,
      "sota": 495,
      "mom": 496,
      "rer": 497,
      "ens": 498,
      "tenia": 499,
      "bat": 500,
      "pet": 501,
      "ança": 502,
      "gues": 503,
      "lli": 504,
      "passa": 505,
      "comença": 506,
      "err": 507,
      "atur": 508,
      "vaig": 509,
      "minyó": 510,
      "Aqu": 511,
      "ul": 512,
      "esde": 513,
      "terra": 514,
      "dret": 515,
      "he": 516,
      "sob": 517,
      "altres": 518,
      "ulls": 519,
      "davant": 520,
      "eg": 521,
      "mur": 522,
      "ning": 523,
      "pot": 524,
      "som": 525,
      "val": 526,
      "deu": 527,
      "inter": 528,
      "pren": 529,
      "allí": 530,
      "Tot": 531,
      "ada": 532,
      "can": 533,
      "los": 534,
      "to": 535,
      "vós": 536,
      "ines": 537,
      "feia": 538,
      "col": 539,
      "gent": 540,
      "jar": 541,
      "mit": 542,
      "ang": 543,
      "seg": 544,
      "llar": 545,
      "allo": 546,
      "cla": 547,
      "fu": 548,
      "vet": 549,
      "dit": 550,
      "dria": 551,
      "moment": 552,
      "Hi": 553,
      "In": 554,
      "ima": 555,
      "posa": 556,
      "enci": 557,
      "gueu": 558,
      "iren": 559,
      "podia": 560,
      "cia": 561,
      "ron": 562,
      "sort": 563,
      "encara": 564,
      "gui": 565,
      "coses": 566,
      "trobar": 567,
      "cob": 568,
      "hora": 569,
      "ses": 570,
      "via": 571,
      "ques": 572,
      "ants": 573,
      "abans": 574,
      "Aixo": 575,
      "igué": 576,
      "pit": 577,
      "its": 578,
      "prim": 579,
      "totes": 580,
      "Indi": 581,
      "Em": 582,
      "bon": 583,
      "pe": 584,
      "tamb": 585,
      "vora": 586,
      "arrib": 587,
      "elles": 588,
      "vei": 589,
      "vegades": 590,
      "encia": 591,
      "cri": 592,
      "heu": 593,
      "let": 594,
      "pat": 595,
      "ess": 596,
      "pare": 597,
      "doncs": 598,
      "aigu": 599,
      "cur": 600,
      "sí": 601,
      "íeu": 602,
      "seves": 603,
      "dues": 604,
      "porta": 605,
      "algun": 606,
      "Poll": 607,
      "sal": 608,
      "tes": 609,
      "ers": 610,
      "cions": 611,
      "hagué": 612,
      "mala": 613,
      "mill": 614,
      "tanmateix": 615,
      "blan": 616,
      "Polly": 617,
      "Pot": 618,
      "bu": 619,
      "cre": 620,
      "din": 621,
      "peu": 622,
      "ren": 623,
      "aré": 624,
      "indret": 625,
      "Així": 626,
      "només": 627,
      "ningú": 628,
      "també": 629,
      "aigua": 630,
      "mos": 631,
      "pes": 632,
      "ena": 633,
      "Com": 634,
      "nos": 635,
      "vell": 636,
      "enca": 637,
      "osament": 638,
      "estre": 639,
      "llu": 640,
      "ast": 641,
      "part": 642,
      "senyora": 643,
      "vest": 644,
      "nois": 645,
      "sap": 646,
      "sil": 647,
      "sió": 648,
      "pod": 649,
      "vingué": 650,
      "poblet": 651,
      "començ": 652,
      "banda": 653,
      "dat": 654,
      "iment": 655,
      "esqu": 656,
      "gada": 657,
      "cu": 658,
      "fin": 659,
      "gen": 660,
      "iat": 661,
      "mer": 662,
      "mon": 663,
      "massa": 664,
      "ví": 665,
      "ama": 666,
      "parau": 667,
      "senyor": 668,
      "poble": 669,
      "vist": 670,
      "gairebé": 671,
      "dol": 672,
      "mor": 673,
      "ru": 674,
      "atge": 675,
      "mentre": 676,
      "mig": 677,
      "plor": 678,
      "company": 679,
      "silenci": 680,
      "!-": 681,
      "Ara": 682,
      "De": 683,
      "dament": 684,
      "punt": 685,
      "quí": 686,
      "atura": 687,
      "mira": 688,
      "Quí": 689,
      "Potter": 690,
      "Th": 691,
      "aire": 692,
      "bal": 693,
      "cher": 694,
      "gir": 695,
      "ill": 696,
      "meu": 697,
      "sor": 698,
      "atcher": 699,
      "sevol": 700,
      "llum": 701,
      "ement": 702,
      "sobre": 703,
      "Thatcher": 704,
      "cin": 705,
      "ies": 706,
      "sé": 707,
      "inf": 708,
      "entes": 709,
      "penso": 710,
      "dua": 711,
      "tenir": 712,
      "dona": 713,
      "Quan": 714,
      "cova": 715,
      "mitja": 716,
      "baix": 717,
      "ce": 718,
      "có": 719,
      "fent": 720,
      "pis": 721,
      "tir": 722,
      "uni": 723,
      "llam": 724,
      "vida": 725,
      "home": 726,
      "camp": 727,
      "alguna": 728,
      "pirat": 729,
      "Har": 730,
      "berr": 731,
      "far": 732,
      "pec": 733,
      "avin": 734,
      "avall": 735,
      "estar": 736,
      "descob": 737,
      "cons": 738,
      "contin": 739,
      "semblava": 740,
      "acabat": 741,
      "vídua": 742,
      "Si": 743,
      "gl": 744,
      "jut": 745,
      "oi": 746,
      "rrer": 747,
      "uf": 748,
      "anava": 749,
      "ale": 750,
      "aixe": 751,
      "deixar": 752,
      "seguit": 753,
      "mena": 754,
      "qualsevol": 755,
      "Am": 756,
      "Ales": 757,
      "Ben": 758,
      "dent": 759,
      "ej": 760,
      "illa": 761,
      "són": 762,
      "var": 763,
      "ívol": 764,
      "alt": 765,
      "avent": 766,
      "lluny": 767,
      "puc": 768,
      "potser": 769,
      "Harper": 770,
      "Aleshores": 771,
      "Sa": 772,
      "ades": 773,
      "bos": 774,
      "bot": 775,
      "ient": 776,
      "ieu": 777,
      "té": 778,
      "vent": 779,
      "yer": 780,
      "estr": 781,
      "tri": 782,
      "veritat": 783,
      "neg": 784,
      "córrer": 785,
      "Una": 786,
      "ces": 787,
      "gan": 788,
      "gal": 789,
      "tom": 790,
      "esca": 791,
      "eria": 792,
      "sim": 793,
      "mana": 794,
      "sentir": 795,
      "sabia": 796,
      "passar": 797,
      "guessin": 798,
      "Era": 799,
      "coll": 800,
      "dur": 801,
      "dora": 802,
      "gla": 803,
      "món": 804,
      "vella": 805,
      "ze": 806,
      "perdu": 807,
      "diu": 808,
      "lloc": 809,
      "desa": 810,
      "mans": 811,
      "paor": 812,
      "vers": 813,
      "segur": 814,
      "plau": 815,
      "camí": 816,
      "cop": 817,
      "millor": 818,
      "Ma": 819,
      "Mar": 820,
      "Un": 821,
      "aga": 822,
      "dra": 823,
      "fon": 824,
      "fam": 825,
      "mestre": 826,
      "rob": 827,
      "sat": 828,
      "esgar": 829,
      "lat": 830,
      "quant": 831,
      "aviat": 832,
      "ixa": 833,
      "llit": 834,
      "obli": 835,
      "pogué": 836,
      "minut": 837,
      "fac": 838,
      "quiet": 839,
      "Aquest": 840,
      "Les": 841,
      "bl": 842,
      "cat": 843,
      "enlla": 844,
      "enfora": 845,
      "envers": 846,
      "arre": 847,
      "arra": 848,
      "anat": 849,
      "recor": 850,
      "caure": 851,
      "enta": 852,
      "osos": 853,
      "lle": 854,
      "contra": 855,
      "corre": 856,
      "preci": 857,
      "plen": 858,
      "foren": 859,
      "Est": 860,
      "llibre": 861,
      "Déu": 862,
      "ap": 863,
      "bles": 864,
      "clar": 865,
      "ges": 866,
      "ua": 867,
      "noia": 868,
      "mag": 869,
      "parlar": 870,
      "matí": 871,
      "pendre": 872,
      "grat": 873,
      "deixa": 874,
      "tornar": 875,
      "CA": 876,
      "Ho": 877,
      "Molt": 878,
      "TO": 879,
      "cte": 880,
      "feu": 881,
      "gon": 882,
      "lu": 883,
      "wyer": 884,
      "lant": 885,
      "deia": 886,
      "cil": 887,
      "sigui": 888,
      "conver": 889,
      "pogut": 890,
      "riu": 891,
      "fica": 892,
      "donar": 893,
      "homes": 894,
      "sentí": 895,
      "Sawyer": 896,
      "?-": 897,
      "PÍ": 898,
      "bella": 899,
      "cr": 900,
      "fre": 901,
      "mis": 902,
      "st": 903,
      "tur": 904,
      "tas": 905,
      "ys": 906,
      "ert": 907,
      "dej": 908,
      "decant": 909,
      "entr": 910,
      "guar": 911,
      "aver": 912,
      "rada": 913,
      "trenca": 914,
      "siu": 915,
      "olar": 916,
      "olteu": 917,
      "finest": 918,
      "jutge": 919,
      "aixeca": 920,
      "CAPÍ": 921,
      "TOL": 922,
      "CAPÍTOL": 923,
      "bona": 924,
      "cir": 925,
      "fum": 926,
      "gin": 927,
      "hu": 928,
      "ls": 929,
      "ofe": 930,
      "pal": 931,
      "rent": 932,
      "xa": 933,
      "lan": 934,
      "quin": 935,
      "elcom": 936,
      "recon": 937,
      "ors": 938,
      "guda": 939,
      "dies": 940,
      "ets": 941,
      "obr": 942,
      "leberr": 943,
      "Huckleberr": 944,
      "ireu": 945,
      "saber": 946,
      "sabeu": 947,
      "venir": 948,
      "romangué": 949,
      "somni": 950,
      "cande": 951,
      "peus": 952,
      "Huckleberry": 953,
      "bes": 954,
      "bor": 955,
      "clos": 956,
      "gats": 957,
      "pol": 958,
      "ença": 959,
      "quelcom": 960,
      "rem": 961,
      "camin": 962,
      "trav": 963,
      "poca": 964,
      "riba": 965,
      "aquests": 966,
      "feines": 967,
      "meva": 968,
      "posar": 969,
      "posat": 970,
      "vint": 971,
      "Esc": 972,
      "passat": 973,
      "poder": 974,
      "ala": 975,
      "ct": 976,
      "fur": 977,
      "fort": 978,
      "ides": 979,
      "vola": 980,
      "ços": 981,
      "escap": 982,
      "escor": 983,
      "enge": 984,
      "oria": 985,
      "set": 986,
      "itz": 987,
      "llis": 988,
      "prom": 989,
      "uria": 990,
      "tothom": 991,
      "mateixa": 992,
      "sentit": 993,
      "cost": 994,
      "troba": 995,
      "menys": 996,
      "bran": 997,
      "boca": 998,
      "esdevingué": 999,
      "prengué": 1000,
      "avinentes": 1001,
      "Mary": 1002,
      "Vol": 1003,
      "foc": 1004,
      "gos": 1005,
      "ica": 1006,
      "iva": 1007,
      "met": 1008,
      "sur": 1009,
      "vall": 1010,
      "unes": 1011,
      "repar": 1012,
      "nova": 1013,
      "llen": 1014,
      "llan": 1015,
      "carrer": 1016,
      "voltant": 1017,
      "tancia": 1018,
      "feina": 1019,
      "toria": 1020,
      "aban": 1021,
      "ecess": 1022,
      "dors": 1023,
      "vingut": 1024,
      "sof": 1025,
      "tinc": 1026,
      "esperança": 1027,
      "petit": 1028,
      "primera": 1029,
      "Mai": 1030,
      "finestra": 1031,
      "Ell": 1032,
      "Tan": 1033,
      "his": 1034,
      "ide": 1035,
      "pant": 1036,
      "usa": 1037,
      "arriba": 1038,
      "estim": 1039,
      "dic": 1040,
      "digueu": 1041,
      "itud": 1042,
      "pogués": 1043,
      "mil": 1044,
      "Perque": 1045,
      "igi": 1046,
      "anys": 1047,
      "pobre": 1048,
      "algú": 1049,
      "cinc": 1050,
      "satis": 1051,
      "circ": 1052,
      "Escolteu": 1053,
      "Ella": 1054,
      "aj": 1055,
      "bit": 1056,
      "bas": 1057,
      "cent": 1058,
      "dó": 1059,
      "go": 1060,
      "ira": 1061,
      "lot": 1062,
      "sot": 1063,
      "sang": 1064,
      "çar": 1065,
      "íem": 1066,
      "eny": 1067,
      "eres": 1068,
      "uns": 1069,
      "atu": 1070,
      "cont": 1071,
      "consi": 1072,
      "torna": 1073,
      "costat": 1074,
      "plan": 1075,
      "esperit": 1076,
      "cerca": 1077,
      "cercar": 1078,
      "comport": 1079,
      "pensar": 1080,
      "paregué": 1081,
      "paraules": 1082,
      "bosc": 1083,
      "negre": 1084,
      "candela": 1085,
      "Us": 1086,
      "agra": 1087,
      "bres": 1088,
      "but": 1089,
      "fel": 1090,
      "gri": 1091,
      "ivet": 1092,
      "nes": 1093,
      "necess": 1094,
      "van": 1095,
      "espa": 1096,
      "enció": 1097,
      "deman": 1098,
      "quar": 1099,
      "indi": 1100,
      "caigué": 1101,
      "sec": 1102,
      "diver": 1103,
      "ures": 1104,
      "parra": 1105,
      "carre": 1106,
      "volia": 1107,
      "trem": 1108,
      "anya": 1109,
      "possi": 1110,
      "tresor": 1111,
      "curi": 1112,
      "paraula": 1113,
      "ganivet": 1114,
      "arreple": 1115,
      "avinentesa": 1116,
      "Deix": 1117,
      "Ves": 1118,
      "af": 1119,
      "ador": 1120,
      "ber": 1121,
      "creu": 1122,
      "dres": 1123,
      "faria": 1124,
      "fron": 1125,
      "jor": 1126,
      "jant": 1127,
      "pels": 1128,
      "sar": 1129,
      "sola": 1130,
      "vull": 1131,
      "escar": 1132,
      "atra": 1133,
      "seus": 1134,
      "raon": 1135,
      "desit": 1136,
      "asseny": 1137,
      "hagi": 1138,
      "haguessin": 1139,
      "podeu": 1140,
      "ust": 1141,
      "feren": 1142,
      "preg": 1143,
      "prov": 1144,
      "sentiment": 1145,
      "distancia": 1146,
      "pensament": 1147,
      "calia": 1148,
      "murmur": 1149,
      "interes": 1150,
      "veié": 1151,
      "descobr": 1152,
      "través": 1153,
      "An": 1154,
      "Digué": 1155,
      "Fin": 1156,
      "He": 1157,
      "Jim": 1158,
      "Po": 1159,
      "Se": 1160,
      "dal": 1161,
      "dís": 1162,
      "fla": 1163,
      "gem": 1164,
      "mot": 1165,
      "mem": 1166,
      "mura": 1167,
      "rat": 1168,
      "xi": 1169,
      "»,": 1170,
      "».": 1171,
      "çant": 1172,
      "esgl": 1173,
      "eri": 1174,
      "anima": 1175,
      "atre": 1176,
      "entra": 1177,
      "ésia": 1178,
      "estaven": 1179,
      "vau": 1180,
      "desem": 1181,
      "desdej": 1182,
      "volt": 1183,
      "volta": 1184,
      "tori": 1185,
      "able": 1186,
      "abast": 1187,
      "teniu": 1188,
      "viat": 1189,
      "tanta": 1190,
      "tingut": 1191,
      "cambra": 1192,
      "acud": 1193,
      "vostra": 1194,
      "aquells": 1195,
      "gira": 1196,
      "vetlla": 1197,
      "llambre": 1198,
      "consci": 1199,
      "esgarri": 1200,
      "historia": 1201,
      "enyor": 1202,
      "església": 1203,
      "),": 1204,
      "Muf": 1205,
      "Ning": 1206,
      "apa": 1207,
      "cel": 1208,
      "eia": 1209,
      "eig": 1210,
      "fant": 1211,
      "gant": 1212,
      "resta": 1213,
      "só": 1214,
      "tal": 1215,
      "ula": 1216,
      "uga": 1217,
      "vament": 1218,
      "xim": 1219,
      "üent": 1220,
      "esment": 1221,
      "enraon": 1222,
      "erta": 1223,
      "areu": 1224,
      "aneu": 1225,
      "atenció": 1226,
      "segué": 1227,
      "person": 1228,
      "estic": 1229,
      "dien": 1230,
      "itar": 1231,
      "anta": 1232,
      "desper": 1233,
      "table": 1234,
      "podria": 1235,
      "usta": 1236,
      "caren": 1237,
      "allis": 1238,
      "peny": 1239,
      "feien": 1240,
      "dub": 1241,
      "tenien": 1242,
      "grans": 1243,
      "exam": 1244,
      "venia": 1245,
      "igueu": 1246,
      "vostre": 1247,
      "noies": 1248,
      "pila": 1249,
      "murmura": 1250,
      "començaren": 1251,
      "gener": 1252,
      "baixa": 1253,
      "Amb": 1254,
      "magí": 1255,
      "costum": 1256,
      "idea": 1257,
      ".-": 1258,
      "Mireu": 1259,
      "Sem": 1260,
      "be": 1261,
      "doc": 1262,
      "ior": 1263,
      "ros": 1264,
      "sera": 1265,
      "up": 1266,
      "ulla": 1267,
      "esva": 1268,
      "esguar": 1269,
      "enr": 1270,
      "ende": 1271,
      "anaven": 1272,
      "ref": 1273,
      "orn": 1274,
      "caut": 1275,
      "caixa": 1276,
      "noves": 1277,
      "esti": 1278,
      "estil": 1279,
      "dium": 1280,
      "compl": 1281,
      "gau": 1282,
      "ist": 1283,
      "llagri": 1284,
      "eixia": 1285,
      "eixir": 1286,
      "instant": 1287,
      "respos": 1288,
      "serv": 1289,
      "tret": 1290,
      "aquestes": 1291,
      "medi": 1292,
      "seguir": 1293,
      "acu": 1294,
      "cert": 1295,
      "pressa": 1296,
      "romandre": 1297,
      "arros": 1298,
      "malal": 1299,
      "mostra": 1300,
      "pirata": 1301,
      "quietud": 1302,
      "Muff": 1303,
      "esguard": 1304,
      "!…": 1305,
      "Nom": 1306,
      "Oi": 1307,
      "Son": 1308,
      "acon": 1309,
      "dom": 1310,
      "dant": 1311,
      "dolar": 1312,
      "ela": 1313,
      "ff": 1314,
      "fes": 1315,
      "fit": 1316,
      "fres": 1317,
      "jec": 1318,
      "nas": 1319,
      "pita": 1320,
      "én": 1321,
      "endins": 1322,
      "lava": 1323,
      "det": 1324,
      "anir": 1325,
      "inten": 1326,
      "ombra": 1327,
      "perill": 1328,
      "esten": 1329,
      "dill": 1330,
      "ols": 1331,
      "etes": 1332,
      "tros": 1333,
      "sis": 1334,
      "hagut": 1335,
      "tras": 1336,
      "corrent": 1337,
      "seria": 1338,
      "paci": 1339,
      "fil": 1340,
      "abat": 1341,
      "prop": 1342,
      "esclat": 1343,
      "tic": 1344,
      "tingué": 1345,
      "trobava": 1346,
      "esperar": 1347,
      "compte": 1348,
      "Aquesta": 1349,
      "milles": 1350,
      "nosaltres": 1351,
      "vestits": 1352,
      "plorar": 1353,
      "pirates": 1354,
      "perdut": 1355,
      "minuts": 1356,
      "Estava": 1357,
      "fred": 1358,
      "promet": 1359,
      "consid": 1360,
      "comportar": 1361,
      "espai": 1362,
      "secret": 1363,
      "Finn": 1364,
      "desdejuni": 1365,
      "acudí": 1366,
      "resposta": 1367,
      "Només": 1368,
      "Dou": 1369,
      "II": 1370,
      "Li": 1371,
      "afer": 1372,
      "afe": 1373,
      "bast": 1374,
      "cl": 1375,
      "dí": 1376,
      "dava": 1377,
      "fun": 1378,
      "ger": 1379,
      "gia": 1380,
      "ics": 1381,
      "java": 1382,
      "pt": 1383,
      "pon": 1384,
      "puny": 1385,
      "çaren": 1386,
      "ívola": 1387,
      "erra": 1388,
      "quatre": 1389,
      "unta": 1390,
      "guin": 1391,
      "oses": 1392,
      "aveu": 1393,
      "rai": 1394,
      "estu": 1395,
      "lleg": 1396,
      "sac": 1397,
      "assegu": 1398,
      "parell": 1399,
      "tació": 1400,
      "contem": 1401,
      "podien": 1402,
      "riure": 1403,
      "ments": 1404,
      "resplen": 1405,
      "corat": 1406,
      "voleu": 1407,
      "fill": 1408,
      "dones": 1409,
      "anyol": 1410,
      "viu": 1411,
      "tira": 1412,
      "deixeu": 1413,
      "plauria": 1414,
      "forat": 1415,
      "Esper": 1416,
      "passava": 1417,
      "acaba": 1418,
      "espat": 1419,
      "tard": 1420,
      "super": 1421,
      "assas": 1422,
      "egre": 1423,
      "següent": 1424,
      "llarg": 1425,
      "fuet": 1426,
      "primer": 1427,
      "començar": 1428,
      "quína": 1429,
      "infants": 1430,
      "continu": 1431,
      "continua": 1432,
      "tomb": 1433,
      "conversa": 1434,
      "sofr": 1435,
      "front": 1436,
      "llambregada": 1437,
      "dubte": 1438,
      "llagrimes": 1439,
      "contempla": 1440,
      "Digueu": 1441,
      "Poc": 1442,
      "apre": 1443,
      "den": 1444,
      "dot": 1445,
      "dalt": 1446,
      "fl": 1447,
      "gava": 1448,
      "gec": 1449,
      "gina": 1450,
      "hem": 1451,
      "imat": 1452,
      "jat": 1453,
      "jur": 1454,
      "natur": 1455,
      "odi": 1456,
      "pom": 1457,
      "pli": 1458,
      "uc": 1459,
      "ui": 1460,
      "vat": 1461,
      "vigi": 1462,
      "xaca": 1463,
      "esfor": 1464,
      "escam": 1465,
      "endavant": 1466,
      "lada": 1467,
      "anaren": 1468,
      "inat": 1469,
      "queia": 1470,
      "cabell": 1471,
      "enterr": 1472,
      "ones": 1473,
      "gull": 1474,
      "avan": 1475,
      "amor": 1476,
      "estir": 1477,
      "dira": 1478,
      "itats": 1479,
      "llet": 1480,
      "olla": 1481,
      "emblan": 1482,
      "parar": 1483,
      "mina": 1484,
      "resul": 1485,
      "pena": 1486,
      "pensa": 1487,
      "treb": 1488,
      "treure": 1489,
      "donat": 1490,
      "temp": 1491,
      "diria": 1492,
      "sentia": 1493,
      "tiu": 1494,
      "trobat": 1495,
      "olls": 1496,
      "feta": 1497,
      "dissab": 1498,
      "presa": 1499,
      "espec": 1500,
      "espanyol": 1501,
      "ribera": 1502,
      "fosca": 1503,
      "braços": 1504,
      "mirar": 1505,
      "mare": 1506,
      "arran": 1507,
      "petita": 1508,
      "ult": 1509,
      "arribar": 1510,
      "arribat": 1511,
      "diner": 1512,
      "diners": 1513,
      "mostr": 1514,
      "vestit": 1515,
      "estrany": 1516,
      "blement": 1517,
      "tasca": 1518,
      "llengu": 1519,
      "butxaca": 1520,
      "murmuris": 1521,
      "consciencia": 1522,
      "fantas": 1523,
      "domin": 1524,
      "pacient": 1525,
      "Aviat": 1526,
      "Ten": 1527,
      "Va": 1528,
      "XX": 1529,
      "agen": 1530,
      "bol": 1531,
      "cles": 1532,
      "cta": 1533,
      "cle": 1534,
      "dest": 1535,
      "eci": 1536,
      "ejar": 1537,
      "fal": 1538,
      "fra": 1539,
      "gament": 1540,
      "garen": 1541,
      "han": 1542,
      "iós": 1543,
      "mest": 1544,
      "munt": 1545,
      "pció": 1546,
      "pales": 1547,
      "ran": 1548,
      "ria": 1549,
      "tí": 1550,
      "testa": 1551,
      "xar": 1552,
      "úmer": 1553,
      "enso": 1554,
      "deter": 1555,
      "atr": 1556,
      "cava": 1557,
      "oni": 1558,
      "guany": 1559,
      "amar": 1560,
      "estes": 1561,
      "estant": 1562,
      "estigu": 1563,
      "dient": 1564,
      "vapo": 1565,
      "vacil": 1566,
      "etat": 1567,
      "assegué": 1568,
      "cies": 1569,
      "tren": 1570,
      "istre": 1571,
      "llavis": 1572,
      "mentida": 1573,
      "liar": 1574,
      "eixer": 1575,
      "alluny": 1576,
      "tragué": 1577,
      "serm": 1578,
      "grup": 1579,
      "sospir": 1580,
      "posaren": 1581,
      "senyal": 1582,
      "força": 1583,
      "bene": 1584,
      "tornat": 1585,
      "present": 1586,
      "davall": 1587,
      "especi": 1588,
      "pensat": 1589,
      "pensava": 1590,
      "roca": 1591,
      "romania": 1592,
      "sub": 1593,
      "judi": 1594,
      "segons": 1595,
      "llarga": 1596,
      "fug": 1597,
      "blanc": 1598,
      "Quína": 1599,
      "baldament": 1600,
      "campana": 1601,
      "Amy": 1602,
      "glas": 1603,
      "diuen": 1604,
      "agafa": 1605,
      "satisfac": 1606,
      "feli": 1607,
      "memoria": 1608,
      "diumenge": 1609,
      "mediat": 1610,
      "Douglas": 1611,
      "emblanquin": 1612,
      "úmero": 1613,
      "vaporet": 1614,
      "!»": 1615,
      "Con": 1616,
      "Cada": 1617,
      "Heu": 1618,
      "Ll": 1619,
      "Número": 1620,
      "Senyor": 1621,
      "Ve": 1622,
      "bava": 1623,
      "cú": 1624,
      "crec": 1625,
      "fó": 1626,
      "fen": 1627,
      "fan": 1628,
      "feix": 1629,
      "got": 1630,
      "gers": 1631,
      "hon": 1632,
      "iar": 1633,
      "ició": 1634,
      "tit": 1635,
      "taver": 1636,
      "zum": 1637,
      "enfi": 1638,
      "ari": 1639,
      "arbre": 1640,
      "anqui": 1641,
      "alter": 1642,
      "ombr": 1643,
      "guem": 1644,
      "ositat": 1645,
      "ras": 1646,
      "estigué": 1647,
      "digueren": 1648,
      "ditori": 1649,
      "trans": 1650,
      "tranqui": 1651,
      "sion": 1652,
      "capdavall": 1653,
      "confor": 1654,
      "lexi": 1655,
      "cordill": 1656,
      "fecte": 1657,
      "immediat": 1658,
      "duia": 1659,
      "melan": 1660,
      "dreu": 1661,
      "drets": 1662,
      "exer": 1663,
      "escla": 1664,
      "umnes": 1665,
      "diré": 1666,
      "tieta": 1667,
      "dores": 1668,
      "vingueren": 1669,
      "sovint": 1670,
      "seguí": 1671,
      "garia": 1672,
      "bala": 1673,
      "espera": 1674,
      "bru": 1675,
      "idora": 1676,
      "dissos": 1677,
      "bança": 1678,
      "darrer": 1679,
      "auditori": 1680,
      "movia": 1681,
      "portat": 1682,
      "morts": 1683,
      "passadís": 1684,
      "esdeven": 1685,
      "sortir": 1686,
      "pedra": 1687,
      "crida": 1688,
      "pataca": 1689,
      "lluita": 1690,
      "esquin": 1691,
      "merav": 1692,
      "amagat": 1693,
      "migdia": 1694,
      "alegr": 1695,
      "aventura": 1696,
      "triga": 1697,
      "gony": 1698,
      "surt": 1699,
      "possible": 1700,
      "escarabat": 1701,
      "assenyala": 1702,
      "Ningú": 1703,
      "allissa": 1704,
      "doctor": 1705,
      "gaubança": 1706,
      "sofrir": 1707,
      "dissabte": 1708,
      "Ah": 1709,
      "Ar": 1710,
      "Hom": 1711,
      "Ro": 1712,
      "daven": 1713,
      "dents": 1714,
      "eja": 1715,
      "eines": 1716,
      "fusta": 1717,
      "gamb": 1718,
      "iga": 1719,
      "iosa": 1720,
      "just": 1721,
      "mant": 1722,
      "mas": 1723,
      "op": 1724,
      "pú": 1725,
      "rell": 1726,
      "testim": 1727,
      "çó": 1728,
      "çat": 1729,
      "esbla": 1730,
      "essin": 1731,
      "esbr": 1732,
      "enve": 1733,
      "demana": 1734,
      "arreu": 1735,
      "quants": 1736,
      "ances": 1737,
      "unal": 1738,
      "reme": 1739,
      "inar": 1740,
      "ompl": 1741,
      "cas": 1742,
      "avança": 1743,
      "avui": 1744,
      "permet": 1745,
      "éssiu": 1746,
      "dieu": 1747,
      "diven": 1748,
      "direu": 1749,
      "dits": 1750,
      "dimon": 1751,
      "lluna": 1752,
      "desig": 1753,
      "compar": 1754,
      "comparegué": 1755,
      "astor": 1756,
      "cim": 1757,
      "cion": 1758,
      "delec": 1759,
      "major": 1760,
      "parlot": 1761,
      "cone": 1762,
      "cares": 1763,
      "eixí": 1764,
      "alls": 1765,
      "alleu": 1766,
      "ministre": 1767,
      "senz": 1768,
      "manes": 1769,
      "pausa": 1770,
      "paparra": 1771,
      "excla": 1772,
      "fadi": 1773,
      "joia": 1774,
      "sinat": 1775,
      "tima": 1776,
      "senyo": 1777,
      "ocu": 1778,
      "cames": 1779,
      "esperant": 1780,
      "ací": 1781,
      "igual": 1782,
      "hauríeu": 1783,
      "cadas": 1784,
      "forada": 1785,
      "bellu": 1786,
      "tarda": 1787,
      "barca": 1788,
      "portar": 1789,
      "portava": 1790,
      "mesura": 1791,
      "arris": 1792,
      "aturar": 1793,
      "interess": 1794,
      "colla": 1795,
      "imagin": 1796,
      "pega": 1797,
      "algunes": 1798,
      "esquena": 1799,
      "finalment": 1800,
      "tomba": 1801,
      "paorosa": 1802,
      "paorós": 1803,
      "precipita": 1804,
      "mister": 1805,
      "turó": 1806,
      "decanta": 1807,
      "entrar": 1808,
      "setmana": 1809,
      "general": 1810,
      "sacse": 1811,
      "esforç": 1812,
      "determin": 1813,
      "sermó": 1814,
      "fóra": 1815,
      "remei": 1816,
      "divendres": 1817,
      "Ha": 1818,
      "Res": 1819,
      "Tant": 1820,
      "Tem": 1821,
      "Torn": 1822,
      "apar": 1823,
      "aple": 1824,
      "aju": 1825,
      "bri": 1826,
      "bus": 1827,
      "bli": 1828,
      "cen": 1829,
      "edi": 1830,
      "fas": 1831,
      "fava": 1832,
      "faré": 1833,
      "gn": 1834,
      "gor": 1835,
      "iosament": 1836,
      "javen": 1837,
      "lí": 1838,
      "nis": 1839,
      "natura": 1840,
      "pell": 1841,
      "pallissa": 1842,
      "rel": 1843,
      "tort": 1844,
      "xu": 1845,
      "yar": 1846,
      "escom": 1847,
      "dem": 1848,
      "deci": 1849,
      "devia": 1850,
      "alta": 1851,
      "alfac": 1852,
      "alumnes": 1853,
      "refer": 1854,
      "retorn": 1855,
      "ord": 1856,
      "orella": 1857,
      "orgull": 1858,
      "atar": 1859,
      "inv": 1860,
      "inci": 1861,
      "caire": 1862,
      "cavar": 1863,
      "seient": 1864,
      "raure": 1865,
      "itava": 1866,
      "lles": 1867,
      "empeny": 1868,
      "erable": 1869,
      "cis": 1870,
      "oberta": 1871,
      "havíeu": 1872,
      "delit": 1873,
      "caps": 1874,
      "capell": 1875,
      "paret": 1876,
      "ric": 1877,
      "rien": 1878,
      "lig": 1879,
      "aments": 1880,
      "sensa": 1881,
      "respon": 1882,
      "terr": 1883,
      "paper": 1884,
      "absol": 1885,
      "daria": 1886,
      "exper": 1887,
      "escri": 1888,
      "faç": 1889,
      "joves": 1890,
      "dormir": 1891,
      "deixat": 1892,
      "trobaren": 1893,
      "oure": 1894,
      "pobres": 1895,
      "passes": 1896,
      "passaren": 1897,
      "acob": 1898,
      "ences": 1899,
      "solem": 1900,
      "preson": 1901,
      "haurien": 1902,
      "noms": 1903,
      "ical": 1904,
      "recó": 1905,
      "mirant": 1906,
      "tocar": 1907,
      "tovall": 1908,
      "fulla": 1909,
      "bonic": 1910,
      "arribaren": 1911,
      "veieu": 1912,
      "alguns": 1913,
      "esquit": 1914,
      "morir": 1915,
      "mirada": 1916,
      "sorpresa": 1917,
      "llums": 1918,
      "campament": 1919,
      "descobert": 1920,
      "aventur": 1921,
      "escaient": 1922,
      "durant": 1923,
      "perduts": 1924,
      "desapare": 1925,
      "roba": 1926,
      "recordar": 1927,
      "gratitud": 1928,
      "setmanes": 1929,
      "Tanmateix": 1930,
      "dóna": 1931,
      "curial": 1932,
      "sentiments": 1933,
      "Sembla": 1934,
      "rostre": 1935,
      "reflexi": 1936,
      "dolars": 1937,
      "jecte": 1938,
      "assassinat": 1939,
      "especta": 1940,
      "dominical": 1941,
      "zumze": 1942,
      "patacada": 1943,
      "Rogers": 1944,
      "testimoni": 1945,
      "cadascú": 1946,
      "yardes": 1947,
      "Bí": 1948,
      "Car": 1949,
      "Cap": 1950,
      "Ei": 1951,
      "Mill": 1952,
      "Trib": 1953,
      "agu": 1954,
      "aja": 1955,
      "ació": 1956,
      "adon": 1957,
      "adre": 1958,
      "ajut": 1959,
      "bó": 1960,
      "boc": 1961,
      "bil": 1962,
      "cit": 1963,
      "cció": 1964,
      "cans": 1965,
      "cita": 1966,
      "cul": 1967,
      "cru": 1968,
      "cement": 1969,
      "efecte": 1970,
      "lia": 1971,
      "mut": 1972,
      "oca": 1973,
      "ples": 1974,
      "palla": 1975,
      "qü": 1976,
      "sament": 1977,
      "sarra": 1978,
      "tu": 1979,
      "tam": 1980,
      "teu": 1981,
      "tol": 1982,
      "uda": 1983,
      "çava": 1984,
      "ília": 1985,
      "úni": 1986,
      "esmer": 1987,
      "esgla": 1988,
      "esplen": 1989,
      "arbres": 1990,
      "quals": 1991,
      "allar": 1992,
      "almenys": 1993,
      "alegre": 1994,
      "orelles": 1995,
      "indrets": 1996,
      "cau": 1997,
      "cavall": 1998,
      "separ": 1999,
      "gue": 2000,
      "aves": 2001,
      "perdre": 2002,
      "amics": 2003,
      "ració": 2004,
      "llin": 2005,
      "vaix": 2006,
      "vaga": 2007,
      "desvetlla": 2008,
      "descorat": 2009,
      "embol": 2010,
      "Tomas": 2011,
      "compr": 2012,
      "iri": 2013,
      "trament": 2014,
      "trig": 2015,
      "aquelles": 2016,
      "parl": 2017,
      "parla": 2018,
      "parat": 2019,
      "conf": 2020,
      "condu": 2021,
      "riall": 2022,
      "eixiren": 2023,
      "reser": 2024,
      "vela": 2025,
      "veia": 2026,
      "mates": 2027,
      "seran": 2028,
      "servei": 2029,
      "penseu": 2030,
      "çada": 2031,
      "pregon": 2032,
      "fici": 2033,
      "ficar": 2034,
      "tenen": 2035,
      "prodi": 2036,
      "prova": 2037,
      "extrem": 2038,
      "sospit": 2039,
      "ums": 2040,
      "jove": 2041,
      "plena": 2042,
      "temença": 2043,
      "timent": 2044,
      "guts": 2045,
      "forma": 2046,
      "pobra": 2047,
      "tornaren": 2048,
      "davalla": 2049,
      "roja": 2050,
      "haguéssiu": 2051,
      "braç": 2052,
      "adver": 2053,
      "mirava": 2054,
      "pipa": 2055,
      "jugo": 2056,
      "lliçó": 2057,
      "aturat": 2058,
      "esdevingut": 2059,
      "prenent": 2060,
      "imagina": 2061,
      "sortí": 2062,
      "pitjor": 2063,
      "salta": 2064,
      "pescar": 2065,
      "mone": 2066,
      "morta": 2067,
      "companyó": 2068,
      "companyia": 2069,
      "girav": 2070,
      "pissarra": 2071,
      "ejat": 2072,
      "illament": 2073,
      "esgari": 2074,
      "blia": 2075,
      "corregué": 2076,
      "crit": 2077,
      "trencacoll": 2078,
      "humana": 2079,
      "reconfort": 2080,
      "escapol": 2081,
      "repara": 2082,
      "abandon": 2083,
      "circums": 2084,
      "Deixeu": 2085,
      "creure": 2086,
      "Segu": 2087,
      "daler": 2088,
      "abastament": 2089,
      "esvaí": 2090,
      "enrera": 2091,
      "arrosse": 2092,
      "malalt": 2093,
      "consider": 2094,
      "afeg": 2095,
      "assegueren": 2096,
      "treball": 2097,
      "llengua": 2098,
      "Tenia": 2099,
      "taverna": 2100,
      "confortable": 2101,
      "immediatament": 2102,
      "alegria": 2103,
      "tovallola": 2104,
      "Miller": 2105,
      "Tribunal": 2106,
      "cementiri": 2107,
      "Gaire": 2108,
      "Hav": 2109,
      "Je": 2110,
      "On": 2111,
      "Re": 2112,
      "Rom": 2113,
      "Walter": 2114,
      "adonar": 2115,
      "aparegué": 2116,
      "cres": 2117,
      "cents": 2118,
      "cess": 2119,
      "dé": 2120,
      "dam": 2121,
      "daren": 2122,
      "evi": 2123,
      "edat": 2124,
      "fera": 2125,
      "festa": 2126,
      "gol": 2127,
      "gaven": 2128,
      "gni": 2129,
      "gota": 2130,
      "gens": 2131,
      "ius": 2132,
      "idor": 2133,
      "ieta": 2134,
      "iliar": 2135,
      "jam": 2136,
      "jaren": 2137,
      "jeia": 2138,
      "lent": 2139,
      "mu": 2140,
      "mí": 2141,
      "ner": 2142,
      "nus": 2143,
      "od": 2144,
      "ofer": 2145,
      "oida": 2146,
      "pany": 2147,
      "rit": 2148,
      "sse": 2149,
      "sant": 2150,
      "sta": 2151,
      "sum": 2152,
      "talment": 2153,
      "uit": 2154,
      "ugues": 2155,
      "vulla": 2156,
      "xes": 2157,
      "zena": 2158,
      "esa": 2159,
      "enla": 2160,
      "enem": 2161,
      "eries": 2162,
      "lag": 2163,
      "argi": 2164,
      "quina": 2165,
      "refe": 2166,
      "repos": 2167,
      "reven": 2168,
      "rebé": 2169,
      "remen": 2170,
      "ata": 2171,
      "iny": 2172,
      "queta": 2173,
      "cament": 2174,
      "caver": 2175,
      "cases": 2176,
      "cadira": 2177,
      "sevulla": 2178,
      "guen": 2179,
      "guit": 2180,
      "gular": 2181,
      "guerra": 2182,
      "pertan": 2183,
      "estret": 2184,
      "diment": 2185,
      "direc": 2186,
      "diff": 2187,
      "itable": 2188,
      "otxa": 2189,
      "llets": 2190,
      "vagar": 2191,
      "vapor": 2192,
      "eure": 2193,
      "princi": 2194,
      "embran": 2195,
      "compos": 2196,
      "urant": 2197,
      "assol": 2198,
      "obra": 2199,
      "tron": 2200,
      "trist": 2201,
      "gades": 2202,
      "captur": 2203,
      "capbus": 2204,
      "mada": 2205,
      "para": 2206,
      "conec": 2207,
      "contenir": 2208,
      "poseu": 2209,
      "podr": 2210,
      "riment": 2211,
      "rible": 2212,
      "llauna": 2213,
      "mida": 2214,
      "milla": 2215,
      "ferent": 2216,
      "resol": 2217,
      "coratge": 2218,
      "mata": 2219,
      "materia": 2220,
      "serva": 2221,
      "terna": 2222,
      "pau": 2223,
      "ficat": 2224,
      "tensió": 2225,
      "produ": 2226,
      "propos": 2227,
      "profun": 2228,
      "gros": 2229,
      "exac": 2230,
      "viment": 2231,
      "veureu": 2232,
      "plora": 2233,
      "tema": 2234,
      "sopar": 2235,
      "deixava": 2236,
      "tingueu": 2237,
      "ocat": 2238,
      "forta": 2239,
      "onada": 2240,
      "porc": 2241,
      "esperances": 2242,
      "passant": 2243,
      "encant": 2244,
      "encís": 2245,
      "tornaré": 2246,
      "romp": 2247,
      "romas": 2248,
      "pugui": 2249,
      "pupit": 2250,
      "banc": 2251,
      "bandej": 2252,
      "Alfred": 2253,
      "Endavant": 2254,
      "fossin": 2255,
      "visit": 2256,
      "malmes": 2257,
      "suc": 2258,
      "adora": 2259,
      "adhu": 2260,
      "mogué": 2261,
      "moviment": 2262,
      "calma": 2263,
      "moltes": 2264,
      "intent": 2265,
      "jugar": 2266,
      "Tots": 2267,
      "gentil": 2268,
      "vetllar": 2269,
      "Hill": 2270,
      "sortia": 2271,
      "cobert": 2272,
      "bones": 2273,
      "curs": 2274,
      "reny": 2275,
      "lluit": 2276,
      "astora": 2277,
      "dolent": 2278,
      "quín": 2279,
      "ballar": 2280,
      "sobretot": 2281,
      "infant": 2282,
      "cep": 2283,
      "llamp": 2284,
      "farem": 2285,
      "gloria": 2286,
      "ufan": 2287,
      "boscos": 2288,
      "ganes": 2289,
      "família": 2290,
      "familiar": 2291,
      "quantes": 2292,
      "precipit": 2293,
      "lumina": 2294,
      "fumar": 2295,
      "escorça": 2296,
      "llisca": 2297,
      "Voleu": 2298,
      "panteix": 2299,
      "bitllets": 2300,
      "content": 2301,
      "carrega": 2302,
      "atrapar": 2303,
      "descobrí": 2304,
      "gemec": 2305,
      "persona": 2306,
      "penyal": 2307,
      "cautel": 2308,
      "acudit": 2309,
      "fressa": 2310,
      "énen": 2311,
      "aferr": 2312,
      "fills": 2313,
      "Espereu": 2314,
      "espatlla": 2315,
      "dotze": 2316,
      "flor": 2317,
      "fantasmes": 2318,
      "mestís": 2319,
      "Llur": 2320,
      "Veieu": 2321,
      "ombrívol": 2322,
      "gambades": 2323,
      "exclama": 2324,
      "senyoret": 2325,
      "arriscar": 2326,
      "religi": 2327,
      "sensació": 2328,
      "absolut": 2329,
      "experiment": 2330,
      "Bíblia": 2331,
      "Cardiff": 2332,
      "Jeff": 2333,
      "Walters": 2334,
      "evident": 2335,
      "argila": 2336,
      "embranz": 2337,
      "adhuc": 2338,
      "!)": 2339,
      "Cor": 2340,
      "Jones": 2341,
      "Mal": 2342,
      "Mentre": 2343,
      "Rob": 2344,
      "Vin": 2345,
      "Veu": 2346,
      "afa": 2347,
      "acos": 2348,
      "bom": 2349,
      "bur": 2350,
      "belles": 2351,
      "cli": 2352,
      "dera": 2353,
      "ev": 2354,
      "fí": 2355,
      "fix": 2356,
      "fem": 2357,
      "fons": 2358,
      "fina": 2359,
      "greu": 2360,
      "hn": 2361,
      "jament": 2362,
      "jaria": 2363,
      "lement": 2364,
      "mol": 2365,
      "mita": 2366,
      "ny": 2367,
      "oir": 2368,
      "oci": 2369,
      "pin": 2370,
      "pent": 2371,
      "pra": 2372,
      "peix": 2373,
      "pentes": 2374,
      "ris": 2375,
      "tament": 2376,
      "ual": 2377,
      "vénen": 2378,
      "xac": 2379,
      "xeri": 2380,
      "çaven": 2381,
      "ífi": 2382,
      "ús": 2383,
      "esma": 2384,
      "esfon": 2385,
      "enqu": 2386,
      "enfur": 2387,
      "erts": 2388,
      "errada": 2389,
      "aris": 2390,
      "anim": 2391,
      "ancia": 2392,
      "alles": 2393,
      "altrament": 2394,
      "rei": 2395,
      "rela": 2396,
      "rever": 2397,
      "repet": 2398,
      "retira": 2399,
      "represent": 2400,
      "ordes": 2401,
      "quet": 2402,
      "cala": 2403,
      "cades": 2404,
      "caigu": 2405,
      "causa": 2406,
      "entment": 2407,
      "oneta": 2408,
      "onsevulla": 2409,
      "seia": 2410,
      "gudes": 2411,
      "gust": 2412,
      "perca": 2413,
      "amic": 2414,
      "rap": 2415,
      "raó": 2416,
      "estan": 2417,
      "estel": 2418,
      "estal": 2419,
      "estem": 2420,
      "estoneta": 2421,
      "dida": 2422,
      "dita": 2423,
      "llo": 2424,
      "pron": 2425,
      "desesper": 2426,
      "descri": 2427,
      "commo": 2428,
      "obre": 2429,
      "tro": 2430,
      "sima": 2431,
      "sicles": 2432,
      "istiu": 2433,
      "habit": 2434,
      "maj": 2435,
      "parti": 2436,
      "taula": 2437,
      "coneix": 2438,
      "contor": 2439,
      "confi": 2440,
      "conven": 2441,
      "podem": 2442,
      "lladre": 2443,
      "lladres": 2444,
      "usat": 2445,
      "leda": 2446,
      "lect": 2447,
      "mireu": 2448,
      "caria": 2449,
      "eixida": 2450,
      "sens": 2451,
      "passos": 2452,
      "vejam": 2453,
      "volts": 2454,
      "preu": 2455,
      "pregar": 2456,
      "treballar": 2457,
      "pala": 2458,
      "ims": 2459,
      "impres": 2460,
      "impossible": 2461,
      "dura": 2462,
      "propi": 2463,
      "meitat": 2464,
      "gron": 2465,
      "dono": 2466,
      "veritable": 2467,
      "versicles": 2468,
      "daré": 2469,
      "John": 2470,
      "dias": 2471,
      "expres": 2472,
      "exhaur": 2473,
      "Qui": 2474,
      "Quant": 2475,
      "escrit": 2476,
      "minyon": 2477,
      "facil": 2478,
      "vil": 2479,
      "aixopl": 2480,
      "joc": 2481,
      "sentiren": 2482,
      "tantes": 2483,
      "vingués": 2484,
      "vindria": 2485,
      "deixe": 2486,
      "deixant": 2487,
      "deixaria": 2488,
      "tingués": 2489,
      "tindria": 2490,
      "senyals": 2491,
      "trobaven": 2492,
      "bad": 2493,
      "bada": 2494,
      "bades": 2495,
      "neguit": 2496,
      "inada": 2497,
      "esperits": 2498,
      "menjar": 2499,
      "tornaria": 2500,
      "vostres": 2501,
      "brotxa": 2502,
      "cercant": 2503,
      "idament": 2504,
      "discurs": 2505,
      "semblar": 2506,
      "acabava": 2507,
      "plegat": 2508,
      "plegats": 2509,
      "pujar": 2510,
      "bancs": 2511,
      "vespre": 2512,
      "dré": 2513,
      "graons": 2514,
      "arru": 2515,
      "moments": 2516,
      "passadissos": 2517,
      "sobta": 2518,
      "somnis": 2519,
      "toca": 2520,
      "topar": 2521,
      "blanca": 2522,
      "Potser": 2523,
      "Comença": 2524,
      "poden": 2525,
      "cuit": 2526,
      "dolor": 2527,
      "plorant": 2528,
      "puntetes": 2529,
      "sord": 2530,
      "tirany": 2531,
      "berrugues": 2532,
      "aventures": 2533,
      "estranya": 2534,
      "trib": 2535,
      "galleda": 2536,
      "agafar": 2537,
      "robar": 2538,
      "quanta": 2539,
      "quantitat": 2540,
      "magall": 2541,
      "avergony": 2542,
      "trencava": 2543,
      "ofegat": 2544,
      "palpentes": 2545,
      "caminar": 2546,
      "ctament": 2547,
      "Voldria": 2548,
      "llanterna": 2549,
      "satisfet": 2550,
      "goig": 2551,
      "sanglot": 2552,
      "atuit": 2553,
      "contenta": 2554,
      "felic": 2555,
      "quarts": 2556,
      "quaranta": 2557,
      "divertiment": 2558,
      "afany": 2559,
      "pregunt": 2560,
      "enraonar": 2561,
      "despert": 2562,
      "Sempre": 2563,
      "arrosseg": 2564,
      "imatges": 2565,
      "plica": 2566,
      "escampa": 2567,
      "resultat": 2568,
      "mostrar": 2569,
      "especial": 2570,
      "feliç": 2571,
      "enfila": 2572,
      "tranquil": 2573,
      "melangia": 2574,
      "exerci": 2575,
      "bruix": 2576,
      "públi": 2577,
      "dimoni": 2578,
      "sacseja": 2579,
      "espectacle": 2580,
      "bocí": 2581,
      "tampoc": 2582,
      "vaixell": 2583,
      "prodigi": 2584,
      "circumstan": 2585,
      "Gairebé": 2586,
      "caverna": 2587,
      "pertany": 2588,
      "pupitre": 2589,
      "embranzida": 2590,
      "afala": 2591,
      "xerif": 2592,
      "Johnny": 2593,
      ");": 2594,
      ".)": 2595,
      "Ala": 2596,
      "Ca": 2597,
      "Dos": 2598,
      "Deu": 2599,
      "Dob": 2600,
      "Durant": 2601,
      "Fa": 2602,
      "Fou": 2603,
      "Gra": 2604,
      "Mis": 2605,
      "Maria": 2606,
      "Pen": 2607,
      "Par": 2608,
      "Pet": 2609,
      "Su": 2610,
      "Sent": 2611,
      "Sst": 2612,
      "Tin": 2613,
      "Tota": 2614,
      "XV": 2615,
      "apendre": 2616,
      "agon": 2617,
      "bins": 2618,
      "bons": 2619,
      "bab": 2620,
      "bales": 2621,
      "besti": 2622,
      "cera": 2623,
      "ctor": 2624,
      "dola": 2625,
      "egar": 2626,
      "ebr": 2627,
      "fat": 2628,
      "fest": 2629,
      "fren": 2630,
      "flan": 2631,
      "ham": 2632,
      "ici": 2633,
      "igut": 2634,
      "ivament": 2635,
      "jol": 2636,
      "mull": 2637,
      "mals": 2638,
      "mult": 2639,
      "ns": 2640,
      "nu": 2641,
      "nia": 2642,
      "nena": 2643,
      "ore": 2644,
      "ois": 2645,
      "pan": 2646,
      "pam": 2647,
      "peta": 2648,
      "ram": 2649,
      "renc": 2650,
      "rulls": 2651,
      "ton": 2652,
      "vant": 2653,
      "vig": 2654,
      "vul": 2655,
      "vocat": 2656,
      "wrenc": 2657,
      "xiu": 2658,
      "zar": 2659,
      "úria": 2660,
      "eng": 2661,
      "ener": 2662,
      "encap": 2663,
      "encon": 2664,
      "endarrera": 2665,
      "endias": 2666,
      "eret": 2667,
      "erna": 2668,
      "deta": 2669,
      "decla": 2670,
      "dece": 2671,
      "argent": 2672,
      "arbor": 2673,
      "quir": 2674,
      "anem": 2675,
      "alli": 2676,
      "alça": 2677,
      "alons": 2678,
      "aldar": 2679,
      "alitat": 2680,
      "alçant": 2681,
      "refi": 2682,
      "redre": 2683,
      "recerca": 2684,
      "ori": 2685,
      "ories": 2686,
      "atges": 2687,
      "cab": 2688,
      "cadav": 2689,
      "caient": 2690,
      "caden": 2691,
      "caigut": 2692,
      "perança": 2693,
      "perdé": 2694,
      "dició": 2695,
      "dibu": 2696,
      "llig": 2697,
      "oli": 2698,
      "ollar": 2699,
      "desola": 2700,
      "desmai": 2701,
      "embr": 2702,
      "sada": 2703,
      "sapi": 2704,
      "etica": 2705,
      "urat": 2706,
      "assab": 2707,
      "observa": 2708,
      "tru": 2709,
      "trenc": 2710,
      "trenta": 2711,
      "havíem": 2712,
      "siva": 2713,
      "sible": 2714,
      "signi": 2715,
      "ista": 2716,
      "taba": 2717,
      "hib": 2718,
      "pocs": 2719,
      "podreu": 2720,
      "rier": 2721,
      "riques": 2722,
      "llant": 2723,
      "menta": 2724,
      "aixi": 2725,
      "miolar": 2726,
      "inspec": 2727,
      "tragin": 2728,
      "matar": 2729,
      "mane": 2730,
      "mani": 2731,
      "maneres": 2732,
      "voldria": 2733,
      "premi": 2734,
      "feble": 2735,
      "figu": 2736,
      "files": 2737,
      "impu": 2738,
      "import": 2739,
      "dualment": 2740,
      "abran": 2741,
      "process": 2742,
      "Pere": 2743,
      "verm": 2744,
      "blau": 2745,
      "dreta": 2746,
      "viatge": 2747,
      "Lawrenc": 2748,
      "posant": 2749,
      "plom": 2750,
      "pleret": 2751,
      "sentiu": 2752,
      "tiques": 2753,
      "tirada": 2754,
      "tresors": 2755,
      "vinatge": 2756,
      "sabien": 2757,
      "nedar": 2758,
      "inació": 2759,
      "esperava": 2760,
      "menja": 2761,
      "acla": 2762,
      "tornés": 2763,
      "tornava": 2764,
      "certa": 2765,
      "romant": 2766,
      "semblaven": 2767,
      "bandes": 2768,
      "davallar": 2769,
      "espi": 2770,
      "espes": 2771,
      "espant": 2772,
      "Alg": 2773,
      "Altra": 2774,
      "íssim": 2775,
      "autor": 2776,
      "vista": 2777,
      "malmen": 2778,
      "romangueren": 2779,
      "admira": 2780,
      "advocat": 2781,
      "model": 2782,
      "barat": 2783,
      "baralla": 2784,
      "retir": 2785,
      "lliure": 2786,
      "passada": 2787,
      "atures": 2788,
      "aturaren": 2789,
      "esdevingueren": 2790,
      "egant": 2791,
      "egava": 2792,
      "somriure": 2793,
      "valia": 2794,
      "interior": 2795,
      "prengueren": 2796,
      "Totes": 2797,
      "colgar": 2798,
      "anger": 2799,
      "angel": 2800,
      "anguni": 2801,
      "segon": 2802,
      "segle": 2803,
      "clav": 2804,
      "classe": 2805,
      "veieren": 2806,
      "buida": 2807,
      "creia": 2808,
      "creix": 2809,
      "dinar": 2810,
      "nostra": 2811,
      "cua": 2812,
      "genolls": 2813,
      "ruina": 2814,
      "companys": 2815,
      "companyons": 2816,
      "girar": 2817,
      "cinquanta": 2818,
      "pista": 2819,
      "constant": 2820,
      "Benaventur": 2821,
      "ejant": 2822,
      "altívol": 2823,
      "estranger": 2824,
      "triom": 2825,
      "tribu": 2826,
      "escala": 2827,
      "perduda": 2828,
      "desapar": 2829,
      "font": 2830,
      "obliga": 2831,
      "Aquests": 2832,
      "arrabas": 2833,
      "precisament": 2834,
      "Esteu": 2835,
      "apallis": 2836,
      "Hood": 2837,
      "lumin": 2838,
      "ofegar": 2839,
      "recone": 2840,
      "somniar": 2841,
      "pols": 2842,
      "furti": 2843,
      "escorcol": 2844,
      "llenç": 2845,
      "voltants": 2846,
      "abandona": 2847,
      "pantalons": 2848,
      "bastant": 2849,
      "centims": 2850,
      "plany": 2851,
      "indiferent": 2852,
      "tremol": 2853,
      "tremola": 2854,
      "arreplegat": 2855,
      "Deixa": 2856,
      "murmuri": 2857,
      "descobrir": 2858,
      "Aneu": 2859,
      "esgarrif": 2860,
      "apaiva": 2861,
      "talons": 2862,
      "ximple": 2863,
      "examina": 2864,
      "enraven": 2865,
      "endebades": 2866,
      "cautela": 2867,
      "complet": 2868,
      "aniré": 2869,
      "aniria": 2870,
      "intendent": 2871,
      "ptu": 2872,
      "superintendent": 2873,
      "dotzena": 2874,
      "flors": 2875,
      "naturalment": 2876,
      "poma": 2877,
      "mostrava": 2878,
      "estigueren": 2879,
      "esdeveniment": 2880,
      "esquinçat": 2881,
      "assenyalada": 2882,
      "maste": 2883,
      "rellot": 2884,
      "esblaima": 2885,
      "enveja": 2886,
      "senzillament": 2887,
      "escomet": 2888,
      "atarant": 2889,
      "empenyé": 2890,
      "ligencia": 2891,
      "respongué": 2892,
      "terror": 2893,
      "zumzeja": 2894,
      "agulla": 2895,
      "teulada": 2896,
      "arrossega": 2897,
      "Havia": 2898,
      "Roman": 2899,
      "golfa": 2900,
      "enemic": 2901,
      "direcció": 2902,
      "panteixant": 2903,
      "cautelosament": 2904,
      "religiós": 2905,
      "absolutament": 2906,
      "evidentment": 2907,
      "Robin": 2908,
      "xacres": 2909,
      "pronun": 2910,
      "lectura": 2911,
      "impression": 2912,
      "felicitat": 2913,
      "circumstancies": 2914,
      "Dobbins": 2915,
      "Peters": 2916,
      "agonia": 2917,
      "multitud": 2918,
      "aldarull": 2919,
      "desmaiat": 2920,
      "embria": 2921,
      "sapiga": 2922,
      "tabac": 2923,
      "impuls": 2924,
      "processó": 2925,
      "Lawrence": 2926,
      "Benaventurats": 2927,
      "apallissar": 2928,
      "!,": 2929,
      "-«": 2930,
      "Ana": 2931,
      "Cal": 2932,
      "Fer": 2933,
      "Fins": 2934,
      "Féu": 2935,
      "Flag": 2936,
      "Hola": 2937,
      "Me": 2938,
      "Man": 2939,
      "Ni": 2940,
      "Pr": 2941,
      "Pro": 2942,
      "Pareu": 2943,
      "Só": 2944,
      "Ser": 2945,
      "Sos": 2946,
      "Sant": 2947,
      "Sab": 2948,
      "Són": 2949,
      "Tres": 2950,
      "Tieta": 2951,
      "Ven": 2952,
      "Val": 2953,
      "Vej": 2954,
      "Will": 2955,
      "ah": 2956,
      "acom": 2957,
      "acompany": 2958,
      "aplau": 2959,
      "bassa": 2960,
      "clo": 2961,
      "ctima": 2962,
      "do": 2963,
      "dós": 2964,
      "doll": 2965,
      "fall": 2966,
      "foll": 2967,
      "full": 2968,
      "gna": 2969,
      "gana": 2970,
      "gines": 2971,
      "hos": 2972,
      "ió": 2973,
      "icions": 2974,
      "ms": 2975,
      "mel": 2976,
      "mun": 2977,
      "mus": 2978,
      "muni": 2979,
      "net": 2980,
      "pav": 2981,
      "rar": 2982,
      "rol": 2983,
      "rents": 2984,
      "test": 2985,
      "tet": 2986,
      "tim": 2987,
      "toc": 2988,
      "uta": 2989,
      "ució": 2990,
      "uliar": 2991,
      "vel": 2992,
      "vuit": 2993,
      "yell": 2994,
      "«-": 2995,
      "çament": 2996,
      "éreu": 2997,
      "ífica": 2998,
      "espar": 2999,
      "esbar": 3000,
      "espaor": 3001,
      "esparra": 3002,
      "esqueia": 3003,
      "encar": 3004,
      "encor": 3005,
      "enfon": 3006,
      "engin": 3007,
      "eritat": 3008,
      "lament": 3009,
      "laber": 3010,
      "dema": 3011,
      "devora": 3012,
      "degot": 3013,
      "arc": 3014,
      "art": 3015,
      "arem": 3016,
      "qués": 3017,
      "quis": 3018,
      "anes": 3019,
      "ania": 3020,
      "anés": 3021,
      "elo": 3022,
      "alitz": 3023,
      "recam": 3024,
      "reple": 3025,
      "refu": 3026,
      "reposa": 3027,
      "reposar": 3028,
      "retorna": 3029,
      "atans": 3030,
      "atzar": 3031,
      "inde": 3032,
      "inse": 3033,
      "inaren": 3034,
      "indis": 3035,
      "inatge": 3036,
      "inquiet": 3037,
      "inconfortable": 3038,
      "ias": 3039,
      "iava": 3040,
      "iams": 3041,
      "cami": 3042,
      "caven": 3043,
      "cast": 3044,
      "enten": 3045,
      "enter": 3046,
      "entrada": 3047,
      "entén": 3048,
      "onze": 3049,
      "gual": 3050,
      "avess": 3051,
      "perfe": 3052,
      "perni": 3053,
      "perple": 3054,
      "perjudi": 3055,
      "ampla": 3056,
      "ample": 3057,
      "ampol": 3058,
      "esteu": 3059,
      "estab": 3060,
      "estarr": 3061,
      "dica": 3062,
      "dime": 3063,
      "dipos": 3064,
      "digués": 3065,
      "lleu": 3066,
      "vagi": 3067,
      "vail": 3068,
      "vacan": 3069,
      "oltant": 3070,
      "prob": 3071,
      "emprengué": 3072,
      "embarca": 3073,
      "comes": 3074,
      "comor": 3075,
      "compas": 3076,
      "comiat": 3077,
      "comprengué": 3078,
      "iria": 3079,
      "etc": 3080,
      "urien": 3081,
      "astre": 3082,
      "cial": 3083,
      "civil": 3084,
      "objecte": 3085,
      "tram": 3086,
      "havent": 3087,
      "sigueu": 3088,
      "siguem": 3089,
      "sicomor": 3090,
      "aquina": 3091,
      "capir": 3092,
      "capti": 3093,
      "issin": 3094,
      "haura": 3095,
      "hagueren": 3096,
      "parer": 3097,
      "parlant": 3098,
      "parlava": 3099,
      "him": 3100,
      "confron": 3101,
      "rica": 3102,
      "llaut": 3103,
      "usser": 3104,
      "lector": 3105,
      "eixen": 3106,
      "ellat": 3107,
      "fert": 3108,
      "arena": 3109,
      "insin": 3110,
      "inspi": 3111,
      "trada": 3112,
      "respec": 3113,
      "veí": 3114,
      "veinatge": 3115,
      "cors": 3116,
      "corda": 3117,
      "corrents": 3118,
      "matusser": 3119,
      "serien": 3120,
      "servar": 3121,
      "terrible": 3122,
      "manec": 3123,
      "mancava": 3124,
      "volgut": 3125,
      "preocu": 3126,
      "pac": 3127,
      "pada": 3128,
      "pagines": 3129,
      "febles": 3130,
      "fidel": 3131,
      "abilla": 3132,
      "gris": 3133,
      "blaus": 3134,
      "sembl": 3135,
      "sonant": 3136,
      "drem": 3137,
      "exal": 3138,
      "exig": 3139,
      "expec": 3140,
      "explorar": 3141,
      "escoll": 3142,
      "anyes": 3143,
      "faig": 3144,
      "viar": 3145,
      "joven": 3146,
      "joiosa": 3147,
      "post": 3148,
      "temences": 3149,
      "mateixos": 3150,
      "sou": 3151,
      "sofert": 3152,
      "deixaren": 3153,
      "seguia": 3154,
      "seguida": 3155,
      "seguiren": 3156,
      "sabat": 3157,
      "trobo": 3158,
      "ocs": 3159,
      "plaer": 3160,
      "plant": 3161,
      "venien": 3162,
      "bagat": 3163,
      "laren": 3164,
      "negada": 3165,
      "onació": 3166,
      "quieta": 3167,
      "nits": 3168,
      "encer": 3169,
      "encal": 3170,
      "bró": 3171,
      "solia": 3172,
      "soliu": 3173,
      "semblat": 3174,
      "semblant": 3175,
      "presencia": 3176,
      "coca": 3177,
      "íssima": 3178,
      "pensívol": 3179,
      "rovella": 3180,
      "rodam": 3181,
      "belluga": 3182,
      "fosc": 3183,
      "recula": 3184,
      "udol": 3185,
      "romanien": 3186,
      "taran": 3187,
      "braola": 3188,
      "suar": 3189,
      "suau": 3190,
      "sucre": 3191,
      "adob": 3192,
      "cantó": 3193,
      "moda": 3194,
      "gradualment": 3195,
      "barres": 3196,
      "miraren": 3197,
      "pipes": 3198,
      "marques": 3199,
      "heroi": 3200,
      "mortal": 3201,
      "jugues": 3202,
      "aturava": 3203,
      "Aquí": 3204,
      "Aquella": 3205,
      "esdevenir": 3206,
      "terrabast": 3207,
      "sobir": 3208,
      "somi": 3209,
      "valent": 3210,
      "preneu": 3211,
      "canvi": 3212,
      "colze": 3213,
      "llargues": 3214,
      "clau": 3215,
      "fugir": 3216,
      "bonior": 3217,
      "arribava": 3218,
      "criatura": 3219,
      "patia": 3220,
      "salv": 3221,
      "dintre": 3222,
      "encab": 3223,
      "lluca": 3224,
      "començava": 3225,
      "esquerra": 3226,
      "cuina": 3227,
      "amagar": 3228,
      "dolçament": 3229,
      "Quín": 3230,
      "girant": 3231,
      "illes": 3232,
      "cinyell": 3233,
      "infort": 3234,
      "cedí": 3235,
      "pist": 3236,
      "llampec": 3237,
      "fareu": 3238,
      "peces": 3239,
      "peculiar": 3240,
      "llunya": 3241,
      "botes": 3242,
      "ventur": 3243,
      "colles": 3244,
      "oblidat": 3245,
      "arrabassa": 3246,
      "recordeu": 3247,
      "corredor": 3248,
      "uació": 3249,
      "convertí": 3250,
      "missió": 3251,
      "huma": 3252,
      "candeles": 3253,
      "camins": 3254,
      "escapar": 3255,
      "ització": 3256,
      "llisquí": 3257,
      "Volia": 3258,
      "reparar": 3259,
      "llança": 3260,
      "carreró": 3261,
      "abandonat": 3262,
      "dicció": 3263,
      "bitllet": 3264,
      "boscúria": 3265,
      "necessit": 3266,
      "necessitat": 3267,
      "demanar": 3268,
      "diverses": 3269,
      "parracs": 3270,
      "possibil": 3271,
      "arreplegar": 3272,
      "solament": 3273,
      "desitjaria": 3274,
      "pregona": 3275,
      "pregunta": 3276,
      "provatures": 3277,
      "motiu": 3278,
      "ratlla": 3279,
      "desembar": 3280,
      "esgarrifa": 3281,
      "sóc": 3282,
      "sóu": 3283,
      "ximples": 3284,
      "aconseguir": 3285,
      "propia": 3286,
      "prometia": 3287,
      "considerable": 3288,
      "III": 3289,
      "funer": 3290,
      "acabada": 3291,
      "espatlles": 3292,
      "assassí": 3293,
      "apretar": 3294,
      "jurament": 3295,
      "natural": 3296,
      "cabells": 3297,
      "tempesta": 3298,
      "temptació": 3299,
      "ultats": 3300,
      "llenguatge": 3301,
      "Vaig": 3302,
      "mestres": 3303,
      "atravess": 3304,
      "estigui": 3305,
      "allunya": 3306,
      "benedicció": 3307,
      "especialment": 3308,
      "fugí": 3309,
      "satisfacció": 3310,
      "emblanquinar": 3311,
      "honor": 3312,
      "melangi": 3313,
      "meravella": 3314,
      "meravelles": 3315,
      "esbrinar": 3316,
      "compareixer": 3317,
      "parlotejant": 3318,
      "bellugar": 3319,
      "determini": 3320,
      "Hauria": 3321,
      "Temperança": 3322,
      "brillant": 3323,
      "presoner": 3324,
      "culpa": 3325,
      "esglai": 3326,
      "llindar": 3327,
      "trigaren": 3328,
      "rialleta": 3329,
      "imaginació": 3330,
      "moneda": 3331,
      "giravolt": 3332,
      "esgarips": 3333,
      "reconfortar": 3334,
      "sumptu": 3335,
      "enlair": 3336,
      "composicions": 3337,
      "produí": 3338,
      "profunda": 3339,
      "exactament": 3340,
      "romput": 3341,
      "succe": 3342,
      "precipitaren": 3343,
      "gemecs": 3344,
      "burg": 3345,
      "ífic": 3346,
      "esfondra": 3347,
      "representava": 3348,
      "confiança": 3349,
      "pregaries": 3350,
      "minyonia": 3351,
      "aixopluc": 3352,
      "deixebles": 3353,
      "sobtadament": 3354,
      "sanglots": 3355,
      "vigor": 3356,
      "cadaver": 3357,
      "dibuix": 3358,
      "rierol": 3359,
      "aiximateix": 3360,
      "aclapar": 3361,
      "constantment": 3362,
      "esgarrifança": 3363,
      "rellotge": 3364,
      "Petersburg": 3365,
      "Flagell": 3366,
      "Manoi": 3367,
      "Veniu": 3368,
      "Vejam": 3369,
      "Williams": 3370,
      "recambró": 3371,
      "insecte": 3372,
      "camisa": 3373,
      "castig": 3374,
      "pernil": 3375,
      "ampolla": 3376,
      "estarruf": 3377,
      "dimecres": 3378,
      "vacances": 3379,
      "embarcador": 3380,
      "civilització": 3381,
      "llautó": 3382,
      "inspiració": 3383,
      "bagatel": 3384,
      "juguesca": 3385,
      "!»,": 3386,
      ").": 3387,
      "?,": 3388,
      "?…": 3389,
      "Bon": 3390,
      "Bob": 3391,
      "Dor": 3392,
      "Don": 3393,
      "Ep": 3394,
      "Feu": 3395,
      "Gu": 3396,
      "Hem": 3397,
      "Massa": 3398,
      "Nos": 3399,
      "Natur": 3400,
      "Negre": 3401,
      "Port": 3402,
      "Para": 3403,
      "Seria": 3404,
      "Tor": 3405,
      "Troba": 3406,
      "Vet": 3407,
      "Vós": 3408,
      "Vau": 3409,
      "ai": 3410,
      "aque": 3411,
      "apren": 3412,
      "apoder": 3413,
      "acost": 3414,
      "agull": 3415,
      "bis": 3416,
      "bola": 3417,
      "beure": 3418,
      "cot": 3419,
      "ceu": 3420,
      "cint": 3421,
      "der": 3422,
      "dats": 3423,
      "dencia": 3424,
      "edor": 3425,
      "equi": 3426,
      "epis": 3427,
      "fé": 3428,
      "fia": 3429,
      "fav": 3430,
      "fara": 3431,
      "fós": 3432,
      "fang": 3433,
      "gel": 3434,
      "geu": 3435,
      "gles": 3436,
      "gola": 3437,
      "geta": 3438,
      "har": 3439,
      "ifica": 3440,
      "idors": 3441,
      "josa": 3442,
      "jola": 3443,
      "jats": 3444,
      "ky": 3445,
      "lit": 3446,
      "lus": 3447,
      "lenta": 3448,
      "mú": 3449,
      "mís": 3450,
      "mants": 3451,
      "moure": 3452,
      "nú": 3453,
      "nen": 3454,
      "nat": 3455,
      "nitat": 3456,
      "nts": 3457,
      "neta": 3458,
      "oper": 3459,
      "opa": 3460,
      "oport": 3461,
      "ofici": 3462,
      "pí": 3463,
      "pun": 3464,
      "pida": 3465,
      "pic": 3466,
      "palment": 3467,
      "pint": 3468,
      "rosa": 3469,
      "sel": 3470,
      "sit": 3471,
      "sus": 3472,
      "sti": 3473,
      "santa": 3474,
      "stic": 3475,
      "tos": 3476,
      "tava": 3477,
      "tge": 3478,
      "uper": 3479,
      "udes": 3480,
      "uja": 3481,
      "vor": 3482,
      "vés": 3483,
      "vit": 3484,
      "vir": 3485,
      "vals": 3486,
      "velles": 3487,
      "vore": 3488,
      "whis": 3489,
      "xada": 3490,
      "zina": 3491,
      "çon": 3492,
      "úl": 3493,
      "…-": 3494,
      "espero": 3495,
      "esver": 3496,
      "essent": 3497,
      "esblan": 3498,
      "esbor": 3499,
      "enet": 3500,
      "endu": 3501,
      "ensem": 3502,
      "encs": 3503,
      "enada": 3504,
      "envia": 3505,
      "enllu": 3506,
      "endol": 3507,
      "enlloc": 3508,
      "enges": 3509,
      "encorat": 3510,
      "enfons": 3511,
      "ermita": 3512,
      "lació": 3513,
      "labor": 3514,
      "dev": 3515,
      "dell": 3516,
      "deja": 3517,
      "degut": 3518,
      "defora": 3519,
      "anant": 3520,
      "andó": 3521,
      "unir": 3522,
      "alsevol": 3523,
      "alçar": 3524,
      "real": 3525,
      "rega": 3526,
      "reis": 3527,
      "revi": 3528,
      "refet": 3529,
      "retat": 3530,
      "remo": 3531,
      "reeixir": 3532,
      "regular": 3533,
      "orb": 3534,
      "orde": 3535,
      "ate": 3536,
      "atala": 3537,
      "quedar": 3538,
      "iació": 3539,
      "cav": 3540,
      "casal": 3541,
      "entus": 3542,
      "ossos": 3543,
      "peri": 3544,
      "perfor": 3545,
      "perdó": 3546,
      "percep": 3547,
      "amat": 3548,
      "amara": 3549,
      "amiga": 3550,
      "rab": 3551,
      "noble": 3552,
      "estels": 3553,
      "estara": 3554,
      "estrib": 3555,
      "estro": 3556,
      "estron": 3557,
      "estaré": 3558,
      "dila": 3559,
      "diosa": 3560,
      "dijo": 3561,
      "dimar": 3562,
      "dirien": 3563,
      "difí": 3564,
      "itja": 3565,
      "itiu": 3566,
      "otec": 3567,
      "otinat": 3568,
      "dada": 3569,
      "vas": 3570,
      "vada": 3571,
      "vasta": 3572,
      "antiga": 3573,
      "olor": 3574,
      "ollant": 3575,
      "pri": 3576,
      "pros": 3577,
      "prima": 3578,
      "protec": 3579,
      "desval": 3580,
      "desgrat": 3581,
      "descans": 3582,
      "desastre": 3583,
      "empla": 3584,
      "empres": 3585,
      "embal": 3586,
      "embruix": 3587,
      "ires": 3588,
      "uríem": 3589,
      "astr": 3590,
      "asta": 3591,
      "aspra": 3592,
      "ciut": 3593,
      "oble": 3594,
      "obert": 3595,
      "sions": 3596,
      "sivament": 3597,
      "siblement": 3598,
      "aques": 3599,
      "isola": 3600,
      "istes": 3601,
      "hab": 3602,
      "paren": 3603,
      "parets": 3604,
      "taul": 3605,
      "consol": 3606,
      "consentir": 3607,
      "poques": 3608,
      "poguessin": 3609,
      "ries": 3610,
      "rigué": 3611,
      "rics": 3612,
      "rialla": 3613,
      "riments": 3614,
      "ckson": 3615,
      "lic": 3616,
      "lid": 3617,
      "mien": 3618,
      "mili": 3619,
      "carn": 3620,
      "eixam": 3621,
      "fermat": 3622,
      "sencer": 3623,
      "sencera": 3624,
      "trac": 3625,
      "tracte": 3626,
      "tracta": 3627,
      "respir": 3628,
      "cortes": 3629,
      "materi": 3630,
      "seré": 3631,
      "penja": 3632,
      "penjar": 3633,
      "terior": 3634,
      "manca": 3635,
      "volum": 3636,
      "voltes": 3637,
      "voleia": 3638,
      "tança": 3639,
      "prem": 3640,
      "preparar": 3641,
      "pregaria": 3642,
      "preparat": 3643,
      "país": 3644,
      "pagina": 3645,
      "fec": 3646,
      "feieu": 3647,
      "feblement": 3648,
      "ficant": 3649,
      "impacient": 3650,
      "durada": 3651,
      "ablement": 3652,
      "tenint": 3653,
      "tenebr": 3654,
      "procur": 3655,
      "provar": 3656,
      "meves": 3657,
      "grav": 3658,
      "griny": 3659,
      "dong": 3660,
      "donant": 3661,
      "donaren": 3662,
      "vergony": 3663,
      "blava": 3664,
      "sona": 3665,
      "sonaven": 3666,
      "diada": 3667,
      "diable": 3668,
      "diamants": 3669,
      "exit": 3670,
      "exas": 3671,
      "exis": 3672,
      "excur": 3673,
      "explica": 3674,
      "sospita": 3675,
      "Qualsevol": 3676,
      "escal": 3677,
      "escat": 3678,
      "escena": 3679,
      "escolteu": 3680,
      "anyar": 3681,
      "fades": 3682,
      "faci": 3683,
      "veus": 3684,
      "ecia": 3685,
      "nau": 3686,
      "nada": 3687,
      "irem": 3688,
      "posava": 3689,
      "plement": 3690,
      "pluja": 3691,
      "temut": 3692,
      "singular": 3693,
      "til": 3694,
      "cossos": 3695,
      "tants": 3696,
      "vinga": 3697,
      "vinten": 3698,
      "soca": 3699,
      "socot": 3700,
      "deixem": 3701,
      "seguretat": 3702,
      "tingueren": 3703,
      "sabra": 3704,
      "gars": 3705,
      "ocell": 3706,
      "plat": 3707,
      "plaent": 3708,
      "veniu": 3709,
      "venjat": 3710,
      "badoc": 3711,
      "formi": 3712,
      "forces": 3713,
      "formida": 3714,
      "horr": 3715,
      "Estic": 3716,
      "Espany": 3717,
      "ulleres": 3718,
      "quisi": 3719,
      "fetes": 3720,
      "espereu": 3721,
      "menava": 3722,
      "menors": 3723,
      "passés": 3724,
      "passaria": 3725,
      "acció": 3726,
      "acusa": 3727,
      "encen": 3728,
      "torns": 3729,
      "torneu": 3730,
      "tornara": 3731,
      "igues": 3732,
      "iguals": 3733,
      "brolla": 3734,
      "solta": 3735,
      "solitud": 3736,
      "solitar": 3737,
      "dissa": 3738,
      "dissort": 3739,
      "disses": 3740,
      "distret": 3741,
      "presents": 3742,
      "pressió": 3743,
      "acabar": 3744,
      "hauríem": 3745,
      "pul": 3746,
      "puguin": 3747,
      "itacions": 3748,
      "darreres": 3749,
      "Als": 3750,
      "nombre": 3751,
      "pensant": 3752,
      "allava": 3753,
      "roina": 3754,
      "recte": 3755,
      "brasa": 3756,
      "adament": 3757,
      "adquir": 3758,
      "canta": 3759,
      "moca": 3760,
      "grau": 3761,
      "gracies": 3762,
      "barri": 3763,
      "barba": 3764,
      "miren": 3765,
      "miraven": 3766,
      "marxa": 3767,
      "portes": 3768,
      "Jackson": 3769,
      "herba": 3770,
      "herbes": 3771,
      "mortes": 3772,
      "jugaria": 3773,
      "pirandó": 3774,
      "ensor": 3775,
      "petits": 3776,
      "lliur": 3777,
      "lliber": 3778,
      "potes": 3779,
      "somno": 3780,
      "interru": 3781,
      "intervals": 3782,
      "cançon": 3783,
      "tocava": 3784,
      "colz": 3785,
      "mitats": 3786,
      "llargada": 3787,
      "clara": 3788,
      "clant": 3789,
      "dites": 3790,
      "ronse": 3791,
      "rondin": 3792,
      "sortit": 3793,
      "primeria": 3794,
      "peça": 3795,
      "veient": 3796,
      "crim": 3797,
      "cridar": 3798,
      "cridat": 3799,
      "patetica": 3800,
      "salut": 3801,
      "saltant": 3802,
      "saltar": 3803,
      "blancs": 3804,
      "blanques": 3805,
      "buf": 3806,
      "buides": 3807,
      "cregué": 3808,
      "renou": 3809,
      "renegar": 3810,
      "mosca": 3811,
      "Comen": 3812,
      "nostre": 3813,
      "partiren": 3814,
      "vestí": 3815,
      "podri": 3816,
      "esquer": 3817,
      "cular": 3818,
      "geni": 3819,
      "víctima": 3820,
      "amaga": 3821,
      "amagats": 3822,
      "dolça": 3823,
      "sorra": 3824,
      "soroll": 3825,
      "cinta": 3826,
      "baixant": 3827,
      "cedir": 3828,
      "tirar": 3829,
      "tirat": 3830,
      "tirant": 3831,
      "berruga": 3832,
      "farien": 3833,
      "faríeu": 3834,
      "avinguda": 3835,
      "descoberts": 3836,
      "consir": 3837,
      "glori": 3838,
      "aixecar": 3839,
      "ejaren": 3840,
      "altura": 3841,
      "negres": 3842,
      "negoci": 3843,
      "escau": 3844,
      "simpatia": 3845,
      "simplement": 3846,
      "durava": 3847,
      "glaça": 3848,
      "agaf": 3849,
      "famol": 3850,
      "robat": 3851,
      "esgarra": 3852,
      "obligat": 3853,
      "facultats": 3854,
      "facecia": 3855,
      "arrecer": 3856,
      "llei": 3857,
      "lleó": 3858,
      "lleva": 3859,
      "llevar": 3860,
      "correguda": 3861,
      "plenes": 3862,
      "Estaven": 3863,
      "magn": 3864,
      "convertit": 3865,
      "crí": 3866,
      "decantant": 3867,
      "decantava": 3868,
      "entraren": 3869,
      "averany": 3870,
      "finestres": 3871,
      "xador": 3872,
      "obrí": 3873,
      "obrar": 3874,
      "obrat": 3875,
      "obrir": 3876,
      "besa": 3877,
      "closos": 3878,
      "caminant": 3879,
      "ctu": 3880,
      "escorxador": 3881,
      "lliscar": 3882,
      "promes": 3883,
      "branca": 3884,
      "avinenteses": 3885,
      "abandonar": 3886,
      "sofriment": 3887,
      "sofriments": 3888,
      "Tanner": 3889,
      "estimava": 3890,
      "milers": 3891,
      "ajus": 3892,
      "ajud": 3893,
      "ajunta": 3894,
      "sotja": 3895,
      "sotjar": 3896,
      "sotjant": 3897,
      "cercadors": 3898,
      "necessitava": 3899,
      "vanitat": 3900,
      "curiositat": 3901,
      "adormir": 3902,
      "adormit": 3903,
      "berg": 3904,
      "berar": 3905,
      "desitjar": 3906,
      "assenyat": 3907,
      "provat": 3908,
      "Anem": 3909,
      "Podria": 3910,
      "flas": 3911,
      "rates": 3912,
      "apaga": 3913,
      "ximpl": 3914,
      "enraonant": 3915,
      "persones": 3916,
      "despertat": 3917,
      "generalment": 3918,
      "estió": 3919,
      "diumenges": 3920,
      "acondu": 3921,
      "elastic": 3922,
      "detalls": 3923,
      "estenia": 3924,
      "germa": 3925,
      "ptura": 3926,
      "estudi": 3927,
      "llegí": 3928,
      "llegir": 3929,
      "llegint": 3930,
      "resplendor": 3931,
      "supersti": 3932,
      "fuetejar": 3933,
      "contemplar": 3934,
      "vigilant": 3935,
      "escampat": 3936,
      "enterren": 3937,
      "enterrament": 3938,
      "avançar": 3939,
      "pacientment": 3940,
      "agenolla": 3941,
      "falli": 3942,
      "frase": 3943,
      "palesa": 3944,
      "ensope": 3945,
      "atrotinat": 3946,
      "guanyat": 3947,
      "trencar": 3948,
      "sospirant": 3949,
      "beneit": 3950,
      "subjec": 3951,
      "satisfactori": 3952,
      "feliços": 3953,
      "fensa": 3954,
      "feixuga": 3955,
      "feixuc": 3956,
      "gotes": 3957,
      "ombrívola": 3958,
      "Arreple": 3959,
      "mantin": 3960,
      "opin": 3961,
      "esblaimat": 3962,
      "omplí": 3963,
      "permeté": 3964,
      "astorament": 3965,
      "delectança": 3966,
      "parloteig": 3967,
      "conegut": 3968,
      "coneguda": 3969,
      "alleujament": 3970,
      "interessant": 3971,
      "misteri": 3972,
      "misteriós": 3973,
      "determinat": 3974,
      "Temple": 3975,
      "ajudar": 3976,
      "fasc": 3977,
      "gorja": 3978,
      "referencia": 3979,
      "invitats": 3980,
      "fullatge": 3981,
      "esquitlla": 3982,
      "desaparegueren": 3983,
      "Semblava": 3984,
      "reflexiona": 3985,
      "ajagué": 3986,
      "bóta": 3987,
      "bótes": 3988,
      "cruix": 3989,
      "separaren": 3990,
      "descoratja": 3991,
      "conducta": 3992,
      "monedes": 3993,
      "esgarip": 3994,
      "escapolir": 3995,
      "abandonada": 3996,
      "Seguí": 3997,
      "considerat": 3998,
      "afegí": 3999,
      "revenja": 4000,
      "atape": 4001,
      "principal": 4002,
      "principalment": 4003,
      "tristament": 4004,
      "podríeu": 4005,
      "bandejat": 4006,
      "bandejats": 4007,
      "visitants": 4008,
      "intentar": 4009,
      "ufanosa": 4010,
      "senyoretes": 4011,
      "Malvinatge": 4012,
      "bomba": 4013,
      "clivella": 4014,
      "pinta": 4015,
      "reial": 4016,
      "caiguda": 4017,
      "rapidament": 4018,
      "desesperat": 4019,
      "commogut": 4020,
      "habitants": 4021,
      "majestu": 4022,
      "convenç": 4023,
      "escritot": 4024,
      "afanyosa": 4025,
      "preguntes": 4026,
      "arrossegava": 4027,
      "públic": 4028,
      "Pensa": 4029,
      "Suposeu": 4030,
      "muller": 4031,
      "xiular": 4032,
      "encontorns": 4033,
      "endiastrada": 4034,
      "decepció": 4035,
      "alliberar": 4036,
      "lligat": 4037,
      "assabent": 4038,
      "riquesa": 4039,
      "figura": 4040,
      "Alguns": 4041,
      "autoritat": 4042,
      "triomf": 4043,
      "furtivament": 4044,
      "apaivagar": 4045,
      "atarantat": 4046,
      "pronuncia": 4047,
      "Sóu": 4048,
      "follia": 4049,
      "fulles": 4050,
      "mund": 4051,
      "paviment": 4052,
      "esparracat": 4053,
      "enginy": 4054,
      "laberint": 4055,
      "entenent": 4056,
      "perfectament": 4057,
      "vailet": 4058,
      "himne": 4059,
      "exaltació": 4060,
      "sabates": 4061,
      "plantes": 4062,
      "taranna": 4063,
      "infortuni": 4064,
      "llisquívola": 4065,
      "Torna": 4066,
      "agulles": 4067,
      "favor": 4068,
      "fóssiu": 4069,
      "harmon": 4070,
      "núvol": 4071,
      "vorera": 4072,
      "whisky": 4073,
      "esblanque": 4074,
      "ensems": 4075,
      "enlluerna": 4076,
      "performan": 4077,
      "percepti": 4078,
      "dijous": 4079,
      "dimarts": 4080,
      "difícil": 4081,
      "embalum": 4082,
      "material": 4083,
      "tenebror": 4084,
      "Espanyola": 4085,
      "solitari": 4086,
      "interrupció": 4087,
      ".»": 4088,
      "Ab": 4089,
      "Aca": 4090,
      "Ama": 4091,
      "Alla": 4092,
      "Apre": 4093,
      "Adre": 4094,
      "Bar": 4095,
      "Bull": 4096,
      "Cre": 4097,
      "Cons": 4098,
      "Di": 4099,
      "Du": 4100,
      "Hos": 4101,
      "Holl": 4102,
      "IX": 4103,
      "Jes": 4104,
      "Mon": 4105,
      "Mos": 4106,
      "Munt": 4107,
      "Mentr": 4108,
      "Mira": 4109,
      "Necess": 4110,
      "Pl": 4111,
      "Pre": 4112,
      "Pas": 4113,
      "Pobre": 4114,
      "So": 4115,
      "Som": 4116,
      "Sis": 4117,
      "Sus": 4118,
      "Seren": 4119,
      "Sou": 4120,
      "Sona": 4121,
      "Tr": 4122,
      "Tia": 4123,
      "Tamb": 4124,
      "Terr": 4125,
      "Trob": 4126,
      "Texas": 4127,
      "Uix": 4128,
      "VI": 4129,
      "Van": 4130,
      "Vull": 4131,
      "Veritat": 4132,
      "Xu": 4133,
      "ag": 4134,
      "aç": 4135,
      "adu": 4136,
      "aut": 4137,
      "alar": 4138,
      "apres": 4139,
      "bi": 4140,
      "bera": 4141,
      "bora": 4142,
      "breu": 4143,
      "bals": 4144,
      "bul": 4145,
      "cés": 4146,
      "cola": 4147,
      "cats": 4148,
      "cura": 4149,
      "colt": 4150,
      "cís": 4151,
      "calla": 4152,
      "celles": 4153,
      "centes": 4154,
      "dons": 4155,
      "dans": 4156,
      "deri": 4157,
      "dolls": 4158,
      "ea": 4159,
      "ega": 4160,
      "egra": 4161,
      "ediria": 4162,
      "ful": 4163,
      "fru": 4164,
      "fixa": 4165,
      "gment": 4166,
      "gle": 4167,
      "hum": 4168,
      "idi": 4169,
      "iet": 4170,
      "iara": 4171,
      "jan": 4172,
      "jós": 4173,
      "len": 4174,
      "leu": 4175,
      "loc": 4176,
      "lpit": 4177,
      "mp": 4178,
      "mia": 4179,
      "mob": 4180,
      "mitat": 4181,
      "mud": 4182,
      "mama": 4183,
      "mbella": 4184,
      "maquina": 4185,
      "nosa": 4186,
      "nua": 4187,
      "ous": 4188,
      "opet": 4189,
      "ovella": 4190,
      "pia": 4191,
      "pava": 4192,
      "ptur": 4193,
      "pescat": 4194,
      "qüent": 4195,
      "rí": 4196,
      "rant": 4197,
      "restava": 4198,
      "ríeu": 4199,
      "saren": 4200,
      "sses": 4201,
      "tel": 4202,
      "taven": 4203,
      "tats": 4204,
      "tura": 4205,
      "toll": 4206,
      "tusta": 4207,
      "tols": 4208,
      "ureu": 4209,
      "ujós": 4210,
      "vera": 4211,
      "varia": 4212,
      "vents": 4213,
      "xant": 4214,
      "xima": 4215,
      "ço": 4216,
      "çaria": 4217,
      "íen": 4218,
      "ínt": 4219,
      "únia": 4220,
      "úries": 4221,
      "esser": 4222,
      "ensin": 4223,
      "enseny": 4224,
      "enro": 4225,
      "endur": 4226,
      "endola": 4227,
      "enujós": 4228,
      "ero": 4229,
      "ergue": 4230,
      "lades": 4231,
      "later": 4232,
      "lats": 4233,
      "lact": 4234,
      "declar": 4235,
      "defensa": 4236,
      "argu": 4237,
      "arma": 4238,
      "armat": 4239,
      "armes": 4240,
      "quines": 4241,
      "anament": 4242,
      "anireu": 4243,
      "anirem": 4244,
      "alba": 4245,
      "alcova": 4246,
      "albe": 4247,
      "reix": 4248,
      "recom": 4249,
      "reta": 4250,
      "reve": 4251,
      "retre": 4252,
      "recara": 4253,
      "recer": 4254,
      "regra": 4255,
      "remor": 4256,
      "reeixia": 4257,
      "revela": 4258,
      "retirada": 4259,
      "orat": 4260,
      "ordi": 4261,
      "orig": 4262,
      "orgi": 4263,
      "ordin": 4264,
      "orinada": 4265,
      "ativa": 4266,
      "inú": 4267,
      "inno": 4268,
      "incon": 4269,
      "incer": 4270,
      "inic": 4271,
      "inquietud": 4272,
      "incl": 4273,
      "inexpres": 4274,
      "inici": 4275,
      "insigni": 4276,
      "oms": 4277,
      "omia": 4278,
      "ompeta": 4279,
      "queu": 4280,
      "quevi": 4281,
      "queixa": 4282,
      "caos": 4283,
      "caus": 4284,
      "caça": 4285,
      "caieu": 4286,
      "casar": 4287,
      "causat": 4288,
      "entament": 4289,
      "entorn": 4290,
      "entonació": 4291,
      "seix": 4292,
      "seien": 4293,
      "seieu": 4294,
      "seqü": 4295,
      "gueig": 4296,
      "ost": 4297,
      "avis": 4298,
      "avies": 4299,
      "peres": 4300,
      "persi": 4301,
      "persu": 4302,
      "perfecte": 4303,
      "perdono": 4304,
      "éssim": 4305,
      "amena": 4306,
      "amigues": 4307,
      "rau": 4308,
      "rajol": 4309,
      "nota": 4310,
      "nobles": 4311,
      "notable": 4312,
      "estany": 4313,
      "estiu": 4314,
      "estigueu": 4315,
      "estreny": 4316,
      "dif": 4317,
      "difer": 4318,
      "difi": 4319,
      "digui": 4320,
      "didal": 4321,
      "diments": 4322,
      "digna": 4323,
      "ixoni": 4324,
      "ller": 4325,
      "llest": 4326,
      "llob": 4327,
      "llesta": 4328,
      "vagament": 4329,
      "olta": 4330,
      "olerable": 4331,
      "priva": 4332,
      "prui": 4333,
      "despu": 4334,
      "descarre": 4335,
      "emo": 4336,
      "emin": 4337,
      "empa": 4338,
      "emport": 4339,
      "empal": 4340,
      "comb": 4341,
      "coman": 4342,
      "combat": 4343,
      "compare": 4344,
      "comuni": 4345,
      "iro": 4346,
      "iré": 4347,
      "irava": 4348,
      "sades": 4349,
      "sagn": 4350,
      "saquet": 4351,
      "sageta": 4352,
      "ambició": 4353,
      "etec": 4354,
      "etic": 4355,
      "aspr": 4356,
      "assembla": 4357,
      "cida": 4358,
      "ciosa": 4359,
      "ciuta": 4360,
      "cigars": 4361,
      "obs": 4362,
      "obira": 4363,
      "tronada": 4364,
      "trompeta": 4365,
      "totalment": 4366,
      "sica": 4367,
      "aquiet": 4368,
      "gadora": 4369,
      "capit": 4370,
      "capsa": 4371,
      "capaç": 4372,
      "isme": 4373,
      "hagueu": 4374,
      "parant": 4375,
      "parava": 4376,
      "pararen": 4377,
      "parts": 4378,
      "parents": 4379,
      "parpell": 4380,
      "tables": 4381,
      "tafan": 4382,
      "taforma": 4383,
      "taqueta": 4384,
      "confe": 4385,
      "contar": 4386,
      "consentí": 4387,
      "coneixia": 4388,
      "confes": 4389,
      "coneixer": 4390,
      "convingueren": 4391,
      "condició": 4392,
      "concedí": 4393,
      "conseqü": 4394,
      "poem": 4395,
      "pollet": 4396,
      "rialles": 4397,
      "llatí": 4398,
      "usava": 4399,
      "aixa": 4400,
      "miol": 4401,
      "carac": 4402,
      "eixi": 4403,
      "eixit": 4404,
      "ellada": 4405,
      "ferest": 4406,
      "ferit": 4407,
      "ferreny": 4408,
      "insí": 4409,
      "instru": 4410,
      "sencia": 4411,
      "trabu": 4412,
      "traient": 4413,
      "respat": 4414,
      "rescat": 4415,
      "ressonant": 4416,
      "veig": 4417,
      "corbat": 4418,
      "corpren": 4419,
      "cortrenca": 4420,
      "maten": 4421,
      "mateu": 4422,
      "untar": 4423,
      "penet": 4424,
      "penosament": 4425,
      "penedi": 4426,
      "penjaven": 4427,
      "penediria": 4428,
      "terres": 4429,
      "jador": 4430,
      "many": 4431,
      "mancada": 4432,
      "vole": 4433,
      "volen": 4434,
      "volten": 4435,
      "tancar": 4436,
      "prega": 4437,
      "precau": 4438,
      "predica": 4439,
      "trets": 4440,
      "paga": 4441,
      "pació": 4442,
      "padisses": 4443,
      "febre": 4444,
      "olat": 4445,
      "olant": 4446,
      "filla": 4447,
      "ficada": 4448,
      "figues": 4449,
      "imant": 4450,
      "immin": 4451,
      "impla": 4452,
      "impe": 4453,
      "imposant": 4454,
      "abun": 4455,
      "abra": 4456,
      "absur": 4457,
      "abillament": 4458,
      "absencia": 4459,
      "tenu": 4460,
      "tenim": 4461,
      "tencia": 4462,
      "proa": 4463,
      "prof": 4464,
      "provi": 4465,
      "proposa": 4466,
      "propis": 4467,
      "proxim": 4468,
      "prohib": 4469,
      "medic": 4470,
      "gro": 4471,
      "gru": 4472,
      "grum": 4473,
      "grocs": 4474,
      "doneu": 4475,
      "donava": 4476,
      "donaré": 4477,
      "verdes": 4478,
      "versa": 4479,
      "verament": 4480,
      "versos": 4481,
      "ign": 4482,
      "daries": 4483,
      "exha": 4484,
      "expl": 4485,
      "extin": 4486,
      "extas": 4487,
      "excit": 4488,
      "excita": 4489,
      "explora": 4490,
      "expan": 4491,
      "exhib": 4492,
      "exquisi": 4493,
      "Quatre": 4494,
      "escan": 4495,
      "escolt": 4496,
      "escales": 4497,
      "escriure": 4498,
      "escoltant": 4499,
      "escopet": 4500,
      "vic": 4501,
      "vian": 4502,
      "viva": 4503,
      "vides": 4504,
      "vivia": 4505,
      "umia": 4506,
      "joiós": 4507,
      "joiosament": 4508,
      "ecos": 4509,
      "naus": 4510,
      "posse": 4511,
      "posses": 4512,
      "plens": 4513,
      "temor": 4514,
      "tempor": 4515,
      "diren": 4516,
      "mateixes": 4517,
      "sento": 4518,
      "sentint": 4519,
      "tiv": 4520,
      "tica": 4521,
      "tida": 4522,
      "timents": 4523,
      "cosit": 4524,
      "doria": 4525,
      "dormit": 4526,
      "dormien": 4527,
      "vinguessin": 4528,
      "vinguda": 4529,
      "sopor": 4530,
      "deixo": 4531,
      "deixen": 4532,
      "deixon": 4533,
      "deixaven": 4534,
      "deixaré": 4535,
      "segura": 4536,
      "segueix": 4537,
      "seguint": 4538,
      "tingui": 4539,
      "sabés": 4540,
      "trobats": 4541,
      "trobaria": 4542,
      "garret": 4543,
      "plaia": 4544,
      "plaents": 4545,
      "plataforma": 4546,
      "vendre": 4547,
      "base": 4548,
      "badal": 4549,
      "forca": 4550,
      "negat": 4551,
      "negra": 4552,
      "camara": 4553,
      "cambre": 4554,
      "horrible": 4555,
      "Esta": 4556,
      "Espero": 4557,
      "Escri": 4558,
      "tejar": 4559,
      "tediosa": 4560,
      "quilla": 4561,
      "passaven": 4562,
      "accions": 4563,
      "activ": 4564,
      "encert": 4565,
      "tornaven": 4566,
      "brofe": 4567,
      "ariament": 4568,
      "estalag": 4569,
      "estalact": 4570,
      "solidament": 4571,
      "certs": 4572,
      "cervell": 4573,
      "cercle": 4574,
      "low": 4575,
      "presó": 4576,
      "alesa": 4577,
      "acab": 4578,
      "acabal": 4579,
      "puja": 4580,
      "pujant": 4581,
      "comptes": 4582,
      "veurem": 4583,
      "cops": 4584,
      "drar": 4585,
      "espia": 4586,
      "espiat": 4587,
      "espetec": 4588,
      "Encara": 4589,
      "urem": 4590,
      "ribella": 4591,
      "pensaren": 4592,
      "grandi": 4593,
      "grandesa": 4594,
      "allada": 4595,
      "roseg": 4596,
      "éssers": 4597,
      "foses": 4598,
      "visita": 4599,
      "rece": 4600,
      "recobra": 4601,
      "male": 4602,
      "malbé": 4603,
      "malmet": 4604,
      "braó": 4605,
      "entremal": 4606,
      "admes": 4607,
      "adop": 4608,
      "adolor": 4609,
      "modest": 4610,
      "grada": 4611,
      "grapa": 4612,
      "grapat": 4613,
      "callar": 4614,
      "pió": 4615,
      "retols": 4616,
      "marca": 4617,
      "molts": 4618,
      "intel": 4619,
      "intenta": 4620,
      "intolerable": 4621,
      "portaren": 4622,
      "herois": 4623,
      "herbotes": 4624,
      "arren": 4625,
      "jugaren": 4626,
      "batus": 4627,
      "batalla": 4628,
      "batlle": 4629,
      "petja": 4630,
      "llibres": 4631,
      "aturant": 4632,
      "Aquells": 4633,
      "sobte": 4634,
      "egeu": 4635,
      "egaren": 4636,
      "egats": 4637,
      "valgui": 4638,
      "interro": 4639,
      "interromput": 4640,
      "Tothom": 4641,
      "canvia": 4642,
      "color": 4643,
      "ango": 4644,
      "angles": 4645,
      "angúnia": 4646,
      "claus": 4647,
      "fueta": 4648,
      "encies": 4649,
      "encimbella": 4650,
      "ronca": 4651,
      "roncar": 4652,
      "coberta": 4653,
      "bonica": 4654,
      "tamborinada": 4655,
      "arribés": 4656,
      "veiés": 4657,
      "cridaven": 4658,
      "cridoria": 4659,
      "curta": 4660,
      "salts": 4661,
      "salvat": 4662,
      "tesa": 4663,
      "creieu": 4664,
      "mossa": 4665,
      "pesar": 4666,
      "pesant": 4667,
      "Compt": 4668,
      "nostres": 4669,
      "estreta": 4670,
      "lluia": 4671,
      "llucar": 4672,
      "lluitar": 4673,
      "partí": 4674,
      "partir": 4675,
      "partís": 4676,
      "vestide": 4677,
      "silenció": 4678,
      "podra": 4679,
      "començaven": 4680,
      "cuita": 4681,
      "cuiro": 4682,
      "senyors": 4683,
      "dols": 4684,
      "dolors": 4685,
      "mori": 4686,
      "morí": 4687,
      "morís": 4688,
      "ruta": 4689,
      "ructu": 4690,
      "Devia": 4691,
      "mirades": 4692,
      "giraren": 4693,
      "sorda": 4694,
      "infructu": 4695,
      "pissar": 4696,
      "llamps": 4697,
      "campanes": 4698,
      "avinc": 4699,
      "avingudes": 4700,
      "ufana": 4701,
      "aixecaren": 4702,
      "deixarem": 4703,
      "dentat": 4704,
      "ejava": 4705,
      "ejaven": 4706,
      "ívols": 4707,
      "aventatges": 4708,
      "llunyans": 4709,
      "llunyania": 4710,
      "adesiara": 4711,
      "bots": 4712,
      "ventar": 4713,
      "ventura": 4714,
      "estrate": 4715,
      "cessivament": 4716,
      "galtes": 4717,
      "tombes": 4718,
      "simple": 4719,
      "glaterra": 4720,
      "desaparegué": 4721,
      "paorosos": 4722,
      "segurament": 4723,
      "millors": 4724,
      "fone": 4725,
      "fondaries": 4726,
      "robament": 4727,
      "oblida": 4728,
      "arreman": 4729,
      "arrapadisses": 4730,
      "record": 4731,
      "recorda": 4732,
      "entació": 4733,
      "corregut": 4734,
      "apiny": 4735,
      "convertir": 4736,
      "ficava": 4737,
      "bellament": 4738,
      "crist": 4739,
      "freda": 4740,
      "fregant": 4741,
      "turment": 4742,
      "turmenta": 4743,
      "tastat": 4744,
      "tasques": 4745,
      "fumant": 4746,
      "humil": 4747,
      "palle": 4748,
      "rentar": 4749,
      "quinze": 4750,
      "obriren": 4751,
      "besar": 4752,
      "polz": 4753,
      "remota": 4754,
      "caminava": 4755,
      "travesser": 4756,
      "furiosament": 4757,
      "escapat": 4758,
      "escorcoll": 4759,
      "itza": 4760,
      "itzat": 4761,
      "lliscant": 4762,
      "branques": 4763,
      "gosat": 4764,
      "reparat": 4765,
      "Ells": 4766,
      "arribada": 4767,
      "poguéssim": 4768,
      "basar": 4769,
      "basca": 4770,
      "sotjava": 4771,
      "atuida": 4772,
      "consis": 4773,
      "planta": 4774,
      "cercaria": 4775,
      "comportava": 4776,
      "agrada": 4777,
      "agraida": 4778,
      "agraden": 4779,
      "agradaria": 4780,
      "demano": 4781,
      "demanat": 4782,
      "demanaren": 4783,
      "carregat": 4784,
      "possibles": 4785,
      "escarment": 4786,
      "escarras": 4787,
      "desitjaven": 4788,
      "provatura": 4789,
      "pensaments": 4790,
      "descobriren": 4791,
      "Anglaterra": 4792,
      "Poseu": 4793,
      "Podeu": 4794,
      "díssim": 4795,
      "flama": 4796,
      "flame": 4797,
      "mots": 4798,
      "memories": 4799,
      "ratapiny": 4800,
      "entradeta": 4801,
      "desempalle": 4802,
      "acudís": 4803,
      "llambregades": 4804,
      "esgarrifoses": 4805,
      "enyorança": 4806,
      "apagats": 4807,
      "tallar": 4808,
      "enraonava": 4809,
      "desperta": 4810,
      "despertar": 4811,
      "examens": 4812,
      "examinaren": 4813,
      "bei": 4814,
      "ullada": 4815,
      "endema": 4816,
      "estigués": 4817,
      "complir": 4818,
      "completa": 4819,
      "servava": 4820,
      "serveixen": 4821,
      "acudir": 4822,
      "acuita": 4823,
      "malalta": 4824,
      "malaltia": 4825,
      "elabor": 4826,
      "fessin": 4827,
      "fresca": 4828,
      "detall": 4829,
      "intens": 4830,
      "intenció": 4831,
      "perillosa": 4832,
      "estengué": 4833,
      "estengueren": 4834,
      "dilluns": 4835,
      "traspu": 4836,
      "abatut": 4837,
      "esperarem": 4838,
      "afebl": 4839,
      "baston": 4840,
      "closa": 4841,
      "clergue": 4842,
      "germans": 4843,
      "asseguda": 4844,
      "resplendent": 4845,
      "resplendents": 4846,
      "viuda": 4847,
      "Esperit": 4848,
      "tardana": 4849,
      "fueteig": 4850,
      "fuetejat": 4851,
      "continuaren": 4852,
      "apretava": 4853,
      "jurar": 4854,
      "vigilar": 4855,
      "esforços": 4856,
      "avançant": 4857,
      "avançaren": 4858,
      "amorós": 4859,
      "estirat": 4860,
      "estirava": 4861,
      "estiraren": 4862,
      "resulta": 4863,
      "estranyes": 4864,
      "fantasma": 4865,
      "Vaja": 4866,
      "agençada": 4867,
      "destru": 4868,
      "falda": 4869,
      "ensopit": 4870,
      "atraves": 4871,
      "guanyar": 4872,
      "amargor": 4873,
      "estesa": 4874,
      "allunyar": 4875,
      "allunyaren": 4876,
      "subs": 4877,
      "fugit": 4878,
      "Contin": 4879,
      "Llis": 4880,
      "honrat": 4881,
      "raspalla": 4882,
      "tranquila": 4883,
      "esclata": 4884,
      "bruixa": 4885,
      "darrerament": 4886,
      "Arrib": 4887,
      "púlpit": 4888,
      "omplir": 4889,
      "dimonis": 4890,
      "cional": 4891,
      "senzilla": 4892,
      "fadiga": 4893,
      "fadigats": 4894,
      "senyoreta": 4895,
      "ocupat": 4896,
      "bellugueu": 4897,
      "arrisca": 4898,
      "imaginar": 4899,
      "Tornem": 4900,
      "aparentment": 4901,
      "aplegar": 4902,
      "ajudeu": 4903,
      "cendra": 4904,
      "edifici": 4905,
      "tortura": 4906,
      "xuclant": 4907,
      "decidí": 4908,
      "terrors": 4909,
      "encesos": 4910,
      "solemne": 4911,
      "esquitx": 4912,
      "desaparegut": 4913,
      "reflexion": 4914,
      "espectadors": 4915,
      "zumzeig": 4916,
      "adreça": 4917,
      "adreçar": 4918,
      "cruel": 4919,
      "ocasió": 4920,
      "pallas": 4921,
      "qüestió": 4922,
      "únic": 4923,
      "única": 4924,
      "esmerçant": 4925,
      "esglaia": 4926,
      "esplendi": 4927,
      "esplendor": 4928,
      "esplendida": 4929,
      "alegrement": 4930,
      "avesat": 4931,
      "embolica": 4932,
      "comprar": 4933,
      "comprenc": 4934,
      "parlés": 4935,
      "parleu": 4936,
      "confós": 4937,
      "rialletes": 4938,
      "reserva": 4939,
      "reservat": 4940,
      "sospites": 4941,
      "davallava": 4942,
      "advertir": 4943,
      "trencacolls": 4944,
      "abandonava": 4945,
      "adonaran": 4946,
      "muixoni": 4947,
      "oferia": 4948,
      "revenjar": 4949,
      "estretes": 4950,
      "vagarívol": 4951,
      "trontoll": 4952,
      "capturat": 4953,
      "capbuss": 4954,
      "resolgueren": 4955,
      "resolució": 4956,
      "proposit": 4957,
      "encantament": 4958,
      "encantats": 4959,
      "rompé": 4960,
      "gentilment": 4961,
      "vetllaren": 4962,
      "ombrívoles": 4963,
      "experimentava": 4964,
      "Vingué": 4965,
      "Vingueren": 4966,
      "acosta": 4967,
      "evitar": 4968,
      "molta": 4969,
      "pentinat": 4970,
      "esmaperdut": 4971,
      "enquim": 4972,
      "animes": 4973,
      "relacions": 4974,
      "calamitats": 4975,
      "caigueren": 4976,
      "percaça": 4977,
      "estalviar": 4978,
      "llogarret": 4979,
      "descripció": 4980,
      "partida": 4981,
      "contorbada": 4982,
      "propietat": 4983,
      "facilitat": 4984,
      "badalla": 4985,
      "neguitosa": 4986,
      "arrufa": 4987,
      "tribuna": 4988,
      "exercici": 4989,
      "exercicis": 4990,
      "bruixes": 4991,
      "Gracia": 4992,
      "Parleu": 4993,
      "Sentí": 4994,
      "babord": 4995,
      "bestiol": 4996,
      "bestiola": 4997,
      "flanc": 4998,
      "flancs": 4999,
      "vulgui": 5000,
      "enganya": 5001,
      "encaparr": 5002,
      "encaparra": 5003,
      "declaració": 5004,
      "cadenes": 5005,
      "cadenat": 5006,
      "oliba": 5007,
      "desolació": 5008,
      "observacions": 5009,
      "trencat": 5010,
      "inspecció": 5011,
      "importancia": 5012,
      "vermell": 5013,
      "vermells": 5014,
      "romantic": 5015,
      "espiell": 5016,
      "malmenat": 5017,
      "admiració": 5018,
      "barallant": 5019,
      "interiorment": 5020,
      "creixia": 5021,
      "desapareixia": 5022,
      "luminada": 5023,
      "reconegué": 5024,
      "llençols": 5025,
      "planyívol": 5026,
      "tremolaren": 5027,
      "mastegar": 5028,
      "escometre": 5029,
      "Romansos": 5030,
      "impressionant": 5031,
      "embriagat": 5032,
      "Ferma": 5033,
      "Sabeu": 5034,
      "ahir": 5035,
      "acompassat": 5036,
      "aplaudiment": 5037,
      "fallit": 5038,
      "munió": 5039,
      "roldó": 5040,
      "tetrica": 5041,
      "timbal": 5042,
      "íficament": 5043,
      "enfonsa": 5044,
      "artista": 5045,
      "eloqüent": 5046,
      "atansant": 5047,
      "perplex": 5048,
      "diposit": 5049,
      "probablement": 5050,
      "respectable": 5051,
      "pacífic": 5052,
      "abillat": 5053,
      "encertat": 5054,
      "encalç": 5055,
      "rodamón": 5056,
      "adobar": 5057,
      "terrabastall": 5058,
      "sobiranament": 5059,
      "somicar": 5060,
      "salvatge": 5061,
      "encabir": 5062,
      "pistons": 5063,
      "llampecs": 5064,
      "necessito": 5065,
      "possibilitat": 5066,
      "funeral": 5067,
      "melangiós": 5068,
      "giravolts": 5069,
      "enlairat": 5070,
      "dibuixar": 5071,
      "Doncs": 5072,
      "Naturalment": 5073,
      "aquefera": 5074,
      "apoderar": 5075,
      "episodi": 5076,
      "música": 5077,
      "opaca": 5078,
      "situació": 5079,
      "vituper": 5080,
      "vorejava": 5081,
      "última": 5082,
      "enviava": 5083,
      "endolcit": 5084,
      "atalaiar": 5085,
      "entusias": 5086,
      "estribord": 5087,
      "estrop": 5088,
      "dilatat": 5089,
      "prosper": 5090,
      "protecció": 5091,
      "desvalgut": 5092,
      "emplas": 5093,
      "empreses": 5094,
      "ciutat": 5095,
      "cortesia": 5096,
      "preparatius": 5097,
      "gravetat": 5098,
      "existencia": 5099,
      "excursion": 5100,
      "vintena": 5101,
      "platja": 5102,
      "venjatiu": 5103,
      "formiga": 5104,
      "formidable": 5105,
      "horror": 5106,
      "acusació": 5107,
      "mocador": 5108,
      "ensorra": 5109,
      "llibertat": 5110,
      "colzes": 5111,
      "Començaren": 5112,
      "vestíbul": 5113,
      "famolencs": 5114,
      "arrecerava": 5115,
      "bergants": 5116,
      "flassada": 5117,
      "fallida": 5118,
      "Arreplega": 5119,
      "opinió": 5120,
      "fascinació": 5121,
      "descoratjadora": 5122,
      "atapeit": 5123,
      "llisquívolament": 5124,
      "harmonia": 5125,
      "Abans": 5126,
      "Adreceu": 5127,
      "Barlow": 5128,
      "Hoss": 5129,
      "Hollis": 5130,
      "Jesús": 5131,
      "Mentrestant": 5132,
      "Passaren": 5133,
      "Sereny": 5134,
      "També": 5135,
      "Terror": 5136,
      "Trobaren": 5137,
      "jançant": 5138,
      "mobil": 5139,
      "mudança": 5140,
      "ensinis": 5141,
      "origin": 5142,
      "orgies": 5143,
      "inexpressab": 5144,
      "queviures": 5145,
      "seixanta": 5146,
      "persist": 5147,
      "rajoles": 5148,
      "pruija": 5149,
      "despulla": 5150,
      "caracter": 5151,
      "respatller": 5152,
      "corbata": 5153,
      "implaca": 5154,
      "medicines": 5155,
      "grumolls": 5156,
      "explos": 5157,
      "excitant": 5158,
      "escopetes": 5159,
      "possessió": 5160,
      "negativa": 5161,
      "cambreta": 5162,
      "acaballes": 5163,
      "silenciós": 5164,
      "estrategi": 5165,
      "ratapinyades": 5166,
      "):": 5167,
      ",-": 5168,
      ";-": 5169,
      "AM": 5170,
      "Ai": 5171,
      "All": 5172,
      "Aga": 5173,
      "Aple": 5174,
      "Agra": 5175,
      "Amer": 5176,
      "Avan": 5177,
      "Atu": 5178,
      "Bes": 5179,
      "Bell": 5180,
      "Big": 5181,
      "BAM": 5182,
      "Co": 5183,
      "Cer": 5184,
      "Col": 5185,
      "Cri": 5186,
      "Calleu": 5187,
      "Dol": 5188,
      "Dona": 5189,
      "Digu": 5190,
      "Daria": 5191,
      "Descri": 5192,
      "Dias": 5193,
      "EL": 5194,
      "Ereu": 5195,
      "Eren": 5196,
      "Fó": 5197,
      "Fre": 5198,
      "For": 5199,
      "Fet": 5200,
      "Feren": 5201,
      "Foc": 5202,
      "Feia": 5203,
      "Farem": 5204,
      "Ge": 5205,
      "Gireu": 5206,
      "Gener": 5207,
      "His": 5208,
      "Hou": 5209,
      "IV": 5210,
      "Im": 5211,
      "Int": 5212,
      "Illin": 5213,
      "Ju": 5214,
      "Just": 5215,
      "Jurat": 5216,
      "Jero": 5217,
      "LA": 5218,
      "Lla": 5219,
      "Lar": 5220,
      "Lan": 5221,
      "Llu": 5222,
      "Mc": 5223,
      "Men": 5224,
      "Mur": 5225,
      "Mil": 5226,
      "Maquina": 5227,
      "NA": 5228,
      "Na": 5229,
      "ON": 5230,
      "Or": 5231,
      "Oest": 5232,
      "Obr": 5233,
      "Por": 5234,
      "Pir": 5235,
      "Pob": 5236,
      "Pis": 5237,
      "Pren": 5238,
      "Plan": 5239,
      "Pala": 5240,
      "Puc": 5241,
      "Pobra": 5242,
      "RI": 5243,
      "Ri": 5244,
      "Rem": 5245,
      "Ss": 5246,
      "Sen": 5247,
      "Sal": 5248,
      "Sot": 5249,
      "Sera": 5250,
      "Sigu": 5251,
      "Sota": 5252,
      "Sher": 5253,
      "Sens": 5254,
      "Sols": 5255,
      "Salta": 5256,
      "To": 5257,
      "Té": 5258,
      "Tra": 5259,
      "Taver": 5260,
      "Ui": 5261,
      "Units": 5262,
      "UNA": 5263,
      "Vam": 5264,
      "Vida": 5265,
      "VIII": 5266,
      "air": 5267,
      "aus": 5268,
      "acor": 5269,
      "apla": 5270,
      "apor": 5271,
      "apat": 5272,
      "apunt": 5273,
      "adona": 5274,
      "aplan": 5275,
      "aguts": 5276,
      "afadigats": 5277,
      "best": 5278,
      "beu": 5279,
      "baven": 5280,
      "bull": 5281,
      "bama": 5282,
      "banys": 5283,
      "banyar": 5284,
      "bescan": 5285,
      "cuna": 5286,
      "cell": 5287,
      "cus": 5288,
      "citat": 5289,
      "chor": 5290,
      "centre": 5291,
      "cron": 5292,
      "cits": 5293,
      "canya": 5294,
      "dy": 5295,
      "dés": 5296,
      "dina": 5297,
      "ding": 5298,
      "derr": 5299,
      "destr": 5300,
      "drien": 5301,
      "doble": 5302,
      "equ": 5303,
      "eir": 5304,
      "edu": 5305,
      "efu": 5306,
      "event": 5307,
      "edora": 5308,
      "epoca": 5309,
      "ebres": 5310,
      "fú": 5311,
      "fol": 5312,
      "fut": 5313,
      "frec": 5314,
      "fast": 5315,
      "festar": 5316,
      "flu": 5317,
      "fist": 5318,
      "folla": 5319,
      "festes": 5320,
      "féssiu": 5321,
      "faixa": 5322,
      "gs": 5323,
      "gí": 5324,
      "gav": 5325,
      "gest": 5326,
      "gien": 5327,
      "gid": 5328,
      "gales": 5329,
      "giren": 5330,
      "gmenta": 5331,
      "gasta": 5332,
      "hen": 5333,
      "ie": 5334,
      "iant": 5335,
      "iola": 5336,
      "ieren": 5337,
      "ible": 5338,
      "iques": 5339,
      "ietat": 5340,
      "junt": 5341,
      "juny": 5342,
      "jança": 5343,
      "josament": 5344,
      "justa": 5345,
      "jaments": 5346,
      "jeure": 5347,
      "ke": 5348,
      "lin": 5349,
      "lir": 5350,
      "lota": 5351,
      "leta": 5352,
      "lits": 5353,
      "leri": 5354,
      "mons": 5355,
      "maven": 5356,
      "moll": 5357,
      "males": 5358,
      "mul": 5359,
      "mulla": 5360,
      "munta": 5361,
      "non": 5362,
      "nens": 5363,
      "oh": 5364,
      "ow": 5365,
      "odia": 5366,
      "ogat": 5367,
      "ogra": 5368,
      "odament": 5369,
      "ovar": 5370,
      "ofen": 5371,
      "ood": 5372,
      "pó": 5373,
      "pall": 5374,
      "pig": 5375,
      "pura": 5376,
      "pte": 5377,
      "pto": 5378,
      "punta": 5379,
      "pidora": 5380,
      "ré": 5381,
      "rin": 5382,
      "rot": 5383,
      "rava": 5384,
      "rats": 5385,
      "rita": 5386,
      "riren": 5387,
      "rencia": 5388,
      "restaven": 5389,
      "restant": 5390,
      "roure": 5391,
      "rumia": 5392,
      "sú": 5393,
      "san": 5394,
      "sats": 5395,
      "stima": 5396,
      "ssant": 5397,
      "tent": 5398,
      "tell": 5399,
      "teix": 5400,
      "tex": 5401,
      "tals": 5402,
      "tiren": 5403,
      "tale": 5404,
      "tust": 5405,
      "testes": 5406,
      "taques": 5407,
      "ugu": 5408,
      "uma": 5409,
      "uosa": 5410,
      "ualment": 5411,
      "upir": 5412,
      "ulat": 5413,
      "ugament": 5414,
      "uguen": 5415,
      "umada": 5416,
      "vé": 5417,
      "vam": 5418,
      "vava": 5419,
      "vien": 5420,
      "vogat": 5421,
      "wood": 5422,
      "xe": 5423,
      "xt": 5424,
      "xx": 5425,
      "xí": 5426,
      "xer": 5427,
      "xem": 5428,
      "xic": 5429,
      "xerr": 5430,
      "zí": 5431,
      "zem": 5432,
      "çal": 5433,
      "çons": 5434,
      "çats": 5435,
      "ífera": 5436,
      "óma": 5437,
      "üt": 5438,
      "üents": 5439,
      "…»": 5440,
      "esm": 5441,
      "eses": 5442,
      "espas": 5443,
      "espor": 5444,
      "escamp": 5445,
      "enes": 5446,
      "ensenyor": 5447,
      "enyer": 5448,
      "eneia": 5449,
      "engol": 5450,
      "encarrega": 5451,
      "ennu": 5452,
      "erament": 5453,
      "erig": 5454,
      "erats": 5455,
      "ermit": 5456,
      "ernitat": 5457,
      "lamina": 5458,
      "deieu": 5459,
      "demostra": 5460,
      "decl": 5461,
      "depressió": 5462,
      "arti": 5463,
      "armar": 5464,
      "ardent": 5465,
      "arbora": 5466,
      "area": 5467,
      "qué": 5468,
      "quer": 5469,
      "quot": 5470,
      "questa": 5471,
      "anc": 5472,
      "ane": 5473,
      "anh": 5474,
      "ani": 5475,
      "anom": 5476,
      "anies": 5477,
      "anira": 5478,
      "anéssiu": 5479,
      "eli": 5480,
      "eles": 5481,
      "elegant": 5482,
      "uní": 5483,
      "unar": 5484,
      "unci": 5485,
      "uniren": 5486,
      "unanim": 5487,
      "unzí": 5488,
      "alen": 5489,
      "alem": 5490,
      "alosa": 5491,
      "aleg": 5492,
      "alçava": 5493,
      "alçada": 5494,
      "alçaven": 5495,
      "alzina": 5496,
      "alenada": 5497,
      "alxí": 5498,
      "regué": 5499,
      "recar": 5500,
      "repu": 5501,
      "rebre": 5502,
      "realment": 5503,
      "remar": 5504,
      "reuni": 5505,
      "rebot": 5506,
      "regal": 5507,
      "rebut": 5508,
      "retret": 5509,
      "reeixí": 5510,
      "regn": 5511,
      "regirant": 5512,
      "remissió": 5513,
      "reunir": 5514,
      "rebuf": 5515,
      "recaiguda": 5516,
      "requesta": 5517,
      "orda": 5518,
      "oriós": 5519,
      "ordinar": 5520,
      "atmos": 5521,
      "atale": 5522,
      "atenyer": 5523,
      "inés": 5524,
      "inot": 5525,
      "intr": 5526,
      "inava": 5527,
      "inament": 5528,
      "incor": 5529,
      "introb": 5530,
      "incre": 5531,
      "invent": 5532,
      "inconsci": 5533,
      "intro": 5534,
      "inquis": 5535,
      "inquieta": 5536,
      "inoble": 5537,
      "inconeguda": 5538,
      "ombre": 5539,
      "ombres": 5540,
      "ompli": 5541,
      "queix": 5542,
      "cama": 5543,
      "cafe": 5544,
      "cació": 5545,
      "caina": 5546,
      "casu": 5547,
      "cabal": 5548,
      "cavant": 5549,
      "cadell": 5550,
      "entres": 5551,
      "entort": 5552,
      "entic": 5553,
      "entron": 5554,
      "entela": 5555,
      "oncle": 5556,
      "sep": 5557,
      "seca": 5558,
      "seda": 5559,
      "sedu": 5560,
      "sever": 5561,
      "segat": 5562,
      "setes": 5563,
      "secu": 5564,
      "separar": 5565,
      "sexes": 5566,
      "sexe": 5567,
      "guia": 5568,
      "guix": 5569,
      "guines": 5570,
      "gueria": 5571,
      "guixa": 5572,
      "guanya": 5573,
      "guejat": 5574,
      "guitza": 5575,
      "osia": 5576,
      "oscil": 5577,
      "avera": 5578,
      "avid": 5579,
      "permes": 5580,
      "perru": 5581,
      "perdua": 5582,
      "perce": 5583,
      "pertoca": 5584,
      "permís": 5585,
      "pertocava": 5586,
      "percrí": 5587,
      "perdés": 5588,
      "persecu": 5589,
      "éste": 5590,
      "amo": 5591,
      "amollar": 5592,
      "ampió": 5593,
      "raig": 5594,
      "radia": 5595,
      "rapissar": 5596,
      "noli": 5597,
      "novet": 5598,
      "nolits": 5599,
      "esto": 5600,
      "ester": 5601,
      "estol": 5602,
      "estri": 5603,
      "estament": 5604,
      "estaria": 5605,
      "estima": 5606,
      "estira": 5607,
      "estellat": 5608,
      "estaques": 5609,
      "estóma": 5610,
      "dig": 5611,
      "dile": 5612,
      "divin": 5613,
      "dicions": 5614,
      "dilu": 5615,
      "dign": 5616,
      "diferent": 5617,
      "diligencia": 5618,
      "ites": 5619,
      "item": 5620,
      "itons": 5621,
      "itaven": 5622,
      "itjaria": 5623,
      "ots": 5624,
      "otes": 5625,
      "llits": 5626,
      "llença": 5627,
      "llunes": 5628,
      "llobre": 5629,
      "dassant": 5630,
      "vades": 5631,
      "vació": 5632,
      "vaques": 5633,
      "vague": 5634,
      "anti": 5635,
      "antre": 5636,
      "antics": 5637,
      "olo": 5638,
      "olentament": 5639,
      "desfer": 5640,
      "despen": 5641,
      "desfi": 5642,
      "desvia": 5643,
      "despit": 5644,
      "desenlla": 5645,
      "desfeta": 5646,
      "descab": 5647,
      "descolgar": 5648,
      "desvetllaren": 5649,
      "empas": 5650,
      "emben": 5651,
      "empren": 5652,
      "emporta": 5653,
      "embos": 5654,
      "empendre": 5655,
      "empant": 5656,
      "emparar": 5657,
      "embadal": 5658,
      "compa": 5659,
      "comenc": 5660,
      "compendre": 5661,
      "comprenent": 5662,
      "compreneu": 5663,
      "comodament": 5664,
      "irma": 5665,
      "irradia": 5666,
      "eté": 5667,
      "etre": 5668,
      "etud": 5669,
      "eternitat": 5670,
      "uri": 5671,
      "uré": 5672,
      "urava": 5673,
      "urrec": 5674,
      "urpes": 5675,
      "aspec": 5676,
      "assis": 5677,
      "ascen": 5678,
      "astron": 5679,
      "cie": 5680,
      "ciat": 5681,
      "cieu": 5682,
      "cipl": 5683,
      "cipació": 5684,
      "obeir": 5685,
      "ellós": 5686,
      "tria": 5687,
      "trot": 5688,
      "trons": 5689,
      "tristes": 5690,
      "della": 5691,
      "delia": 5692,
      "sipí": 5693,
      "sigadora": 5694,
      "avada": 5695,
      "capita": 5696,
      "capcir": 5697,
      "captiu": 5698,
      "captura": 5699,
      "capolat": 5700,
      "capçal": 5701,
      "isma": 5702,
      "issos": 5703,
      "issor": 5704,
      "hagin": 5705,
      "haguem": 5706,
      "haureu": 5707,
      "magra": 5708,
      "parament": 5709,
      "parades": 5710,
      "parlat": 5711,
      "paralitz": 5712,
      "tac": 5713,
      "tap": 5714,
      "tades": 5715,
      "tapa": 5716,
      "tador": 5717,
      "tabal": 5718,
      "tacte": 5719,
      "taüt": 5720,
      "hipercrí": 5721,
      "conju": 5722,
      "concur": 5723,
      "convers": 5724,
      "consec": 5725,
      "convenia": 5726,
      "condem": 5727,
      "contribu": 5728,
      "contacte": 5729,
      "popa": 5730,
      "podrem": 5731,
      "rius": 5732,
      "riota": 5733,
      "llamin": 5734,
      "llastima": 5735,
      "mentid": 5736,
      "mentalment": 5737,
      "mentides": 5738,
      "mentrestant": 5739,
      "ustes": 5740,
      "uscrit": 5741,
      "usual": 5742,
      "liment": 5743,
      "miques": 5744,
      "mils": 5745,
      "carar": 5746,
      "carret": 5747,
      "carmes": 5748,
      "eixu": 5749,
      "eixim": 5750,
      "eixien": 5751,
      "eixut": 5752,
      "eixement": 5753,
      "eixeria": 5754,
      "orador": 5755,
      "fern": 5756,
      "ferir": 5757,
      "ferida": 5758,
      "ferro": 5759,
      "fermar": 5760,
      "fermes": 5761,
      "ferencia": 5762,
      "fermada": 5763,
      "feréste": 5764,
      "mint": 5765,
      "minava": 5766,
      "Noi": 5767,
      "Nois": 5768,
      "insen": 5769,
      "sendera": 5770,
      "sensible": 5771,
      "trau": 5772,
      "tragueren": 5773,
      "traieu": 5774,
      "tract": 5775,
      "traidor": 5776,
      "tractament": 5777,
      "passi": 5778,
      "passeu": 5779,
      "ressegur": 5780,
      "ressentiment": 5781,
      "vehi": 5782,
      "veins": 5783,
      "veien": 5784,
      "vegeu": 5785,
      "cortin": 5786,
      "corpres": 5787,
      "correc": 5788,
      "coralment": 5789,
      "corcó": 5790,
      "corcoll": 5791,
      "matareu": 5792,
      "matinada": 5793,
      "sere": 5794,
      "serra": 5795,
      "servia": 5796,
      "serena": 5797,
      "serrell": 5798,
      "serie": 5799,
      "orts": 5800,
      "pensen": 5801,
      "penjava": 5802,
      "penjat": 5803,
      "pendents": 5804,
      "Hucky": 5805,
      "terç": 5806,
      "terany": 5807,
      "tercer": 5808,
      "terbola": 5809,
      "jaç": 5810,
      "jaient": 5811,
      "mancar": 5812,
      "mancat": 5813,
      "manuscrit": 5814,
      "voler": 5815,
      "volunt": 5816,
      "volien": 5817,
      "volgués": 5818,
      "voldr": 5819,
      "voltar": 5820,
      "volup": 5821,
      "tanca": 5822,
      "tancada": 5823,
      "tangi": 5824,
      "tancat": 5825,
      "preció": 5826,
      "premis": 5827,
      "precís": 5828,
      "predile": 5829,
      "treu": 5830,
      "treia": 5831,
      "treva": 5832,
      "pades": 5833,
      "paus": 5834,
      "pagar": 5835,
      "pacte": 5836,
      "fefa": 5837,
      "fili": 5838,
      "importa": 5839,
      "imitar": 5840,
      "imitacions": 5841,
      "immobil": 5842,
      "dut": 5843,
      "duen": 5844,
      "dugué": 5845,
      "abs": 5846,
      "ables": 5847,
      "abri": 5848,
      "absort": 5849,
      "abelles": 5850,
      "abric": 5851,
      "abasta": 5852,
      "tenda": 5853,
      "tengué": 5854,
      "tensos": 5855,
      "teníeu": 5856,
      "tenebres": 5857,
      "progr": 5858,
      "propor": 5859,
      "procla": 5860,
      "proce": 5861,
      "produia": 5862,
      "projecte": 5863,
      "proxima": 5864,
      "melada": 5865,
      "iencia": 5866,
      "verd": 5867,
      "veri": 5868,
      "vern": 5869,
      "veredi": 5870,
      "iges": 5871,
      "dareu": 5872,
      "Josep": 5873,
      "dreça": 5874,
      "exa": 5875,
      "expe": 5876,
      "excu": 5877,
      "extensió": 5878,
      "exterior": 5879,
      "extenu": 5880,
      "sostre": 5881,
      "escany": 5882,
      "escura": 5883,
      "esclet": 5884,
      "escriu": 5885,
      "escop": 5886,
      "escupir": 5887,
      "anyola": 5888,
      "anyades": 5889,
      "seure": 5890,
      "minyona": 5891,
      "fais": 5892,
      "face": 5893,
      "vies": 5894,
      "vile": 5895,
      "vibr": 5896,
      "viure": 5897,
      "vivent": 5898,
      "vivament": 5899,
      "vivents": 5900,
      "violentament": 5901,
      "viuré": 5902,
      "homenet": 5903,
      "jocs": 5904,
      "joguin": 5905,
      "joguines": 5906,
      "veuria": 5907,
      "veuríeu": 5908,
      "postat": 5909,
      "posició": 5910,
      "plo": 5911,
      "temia": 5912,
      "temore": 5913,
      "diríeu": 5914,
      "sinistre": 5915,
      "sentin": 5916,
      "sentís": 5917,
      "sentencia": 5918,
      "tija": 5919,
      "tils": 5920,
      "tipli": 5921,
      "tifat": 5922,
      "tiguejat": 5923,
      "trescar": 5924,
      "cosir": 5925,
      "costa": 5926,
      "tantinoble": 5927,
      "dormis": 5928,
      "dormia": 5929,
      "dormint": 5930,
      "vingueu": 5931,
      "vindra": 5932,
      "vindreu": 5933,
      "soci": 5934,
      "soques": 5935,
      "souri": 5936,
      "deixara": 5937,
      "deixaveu": 5938,
      "deixalles": 5939,
      "seguien": 5940,
      "segueren": 5941,
      "seguireu": 5942,
      "tint": 5943,
      "tinta": 5944,
      "tindré": 5945,
      "tindrem": 5946,
      "sabé": 5947,
      "sabó": 5948,
      "saben": 5949,
      "sabent": 5950,
      "sabut": 5951,
      "sabessin": 5952,
      "trobeu": 5953,
      "trobem": 5954,
      "garfia": 5955,
      "ocura": 5956,
      "ocitat": 5957,
      "ocells": 5958,
      "ocup": 5959,
      "plagut": 5960,
      "plaure": 5961,
      "urada": 5962,
      "uradament": 5963,
      "venç": 5964,
      "venjança": 5965,
      "badat": 5966,
      "baiar": 5967,
      "bauma": 5968,
      "format": 5969,
      "forme": 5970,
      "formar": 5971,
      "formant": 5972,
      "forçats": 5973,
      "laria": 5974,
      "bena": 5975,
      "benvol": 5976,
      "ollir": 5977,
      "neig": 5978,
      "nebre": 5979,
      "cambres": 5980,
      "teva": 5981,
      "tejant": 5982,
      "menar": 5983,
      "menor": 5984,
      "menaven": 5985,
      "menaria": 5986,
      "menjant": 5987,
      "menjaren": 5988,
      "nitats": 5989,
      "passéssiu": 5990,
      "acer": 5991,
      "accel": 5992,
      "acovar": 5993,
      "encet": 5994,
      "tornen": 5995,
      "tornin": 5996,
      "tornant": 5997,
      "tornem": 5998,
      "tornaveu": 5999,
      "tornessin": 6000,
      "igualment": 6001,
      "vosaltres": 6002,
      "anada": 6003,
      "brollar": 6004,
      "brocs": 6005,
      "brollant": 6006,
      "brunzí": 6007,
      "estatge": 6008,
      "estatges": 6009,
      "estaqueta": 6010,
      "sols": 6011,
      "soldat": 6012,
      "solellada": 6013,
      "cercles": 6014,
      "rompre": 6015,
      "rompu": 6016,
      "ids": 6017,
      "disc": 6018,
      "disper": 6019,
      "disbarat": 6020,
      "distants": 6021,
      "discipl": 6022,
      "semblaren": 6023,
      "semblants": 6024,
      "nial": 6025,
      "presid": 6026,
      "acala": 6027,
      "casaca": 6028,
      "pugueu": 6029,
      "pujaren": 6030,
      "compra": 6031,
      "compto": 6032,
      "compliment": 6033,
      "Desitja": 6034,
      "Desitjaria": 6035,
      "bandera": 6036,
      "bandola": 6037,
      "dran": 6038,
      "dring": 6039,
      "dramat": 6040,
      "espiar": 6041,
      "espiava": 6042,
      "itada": 6043,
      "Ens": 6044,
      "Entra": 6045,
      "ístiques": 6046,
      "breus": 6047,
      "bretols": 6048,
      "gil": 6049,
      "giu": 6050,
      "giar": 6051,
      "gics": 6052,
      "noieta": 6053,
      "riblement": 6054,
      "nomena": 6055,
      "pensaria": 6056,
      "pensaveu": 6057,
      "allant": 6058,
      "ington": 6059,
      "foradat": 6060,
      "roí": 6061,
      "roda": 6062,
      "roines": 6063,
      "bells": 6064,
      "aula": 6065,
      "augmenta": 6066,
      "icat": 6067,
      "visqui": 6068,
      "visques": 6069,
      "visitar": 6070,
      "recre": 6071,
      "recol": 6072,
      "recur": 6073,
      "recels": 6074,
      "recta": 6075,
      "recitat": 6076,
      "recita": 6077,
      "recança": 6078,
      "recances": 6079,
      "recollir": 6080,
      "malda": 6081,
      "malencon": 6082,
      "malvinatge": 6083,
      "udolant": 6084,
      "etapa": 6085,
      "romandria": 6086,
      "romanguessin": 6087,
      "taré": 6088,
      "tardor": 6089,
      "tarima": 6090,
      "tartam": 6091,
      "boira": 6092,
      "suor": 6093,
      "suava": 6094,
      "sucr": 6095,
      "suportar": 6096,
      "suposava": 6097,
      "entremig": 6098,
      "adés": 6099,
      "adures": 6100,
      "admirant": 6101,
      "admiraven": 6102,
      "adow": 6103,
      "cantons": 6104,
      "cantonada": 6105,
      "modi": 6106,
      "movent": 6107,
      "gracia": 6108,
      "grapes": 6109,
      "ils": 6110,
      "ilitat": 6111,
      "barra": 6112,
      "barbot": 6113,
      "calç": 6114,
      "calor": 6115,
      "calgués": 6116,
      "calgut": 6117,
      "caldria": 6118,
      "calfred": 6119,
      "mirat": 6120,
      "mirés": 6121,
      "miraré": 6122,
      "pira": 6123,
      "piula": 6124,
      "pietat": 6125,
      "retuda": 6126,
      "marc": 6127,
      "mars": 6128,
      "mares": 6129,
      "marit": 6130,
      "martin": 6131,
      "marge": 6132,
      "marieta": 6133,
      "marcida": 6134,
      "martell": 6135,
      "porteu": 6136,
      "portaven": 6137,
      "Jake": 6138,
      "Siddy": 6139,
      "herb": 6140,
      "herbei": 6141,
      "mesos": 6142,
      "mesures": 6143,
      "mortalment": 6144,
      "mortifica": 6145,
      "arrenca": 6146,
      "arrencar": 6147,
      "juí": 6148,
      "jugant": 6149,
      "reres": 6150,
      "batuda": 6151,
      "lliga": 6152,
      "passades": 6153,
      "errar": 6154,
      "errívols": 6155,
      "Aquell": 6156,
      "ultra": 6157,
      "sobtat": 6158,
      "davantal": 6159,
      "egor": 6160,
      "murs": 6161,
      "potent": 6162,
      "soma": 6163,
      "somrigué": 6164,
      "valer": 6165,
      "valor": 6166,
      "valien": 6167,
      "deuen": 6168,
      "intermin": 6169,
      "prenen": 6170,
      "prenia": 6171,
      "canviat": 6172,
      "cançó": 6173,
      "canastr": 6174,
      "topa": 6175,
      "topava": 6176,
      "colpir": 6177,
      "colgada": 6178,
      "columnes": 6179,
      "colpidora": 6180,
      "gentada": 6181,
      "jardí": 6182,
      "mitges": 6183,
      "mitjançant": 6184,
      "angun": 6185,
      "segona": 6186,
      "següents": 6187,
      "clapes": 6188,
      "classes": 6189,
      "fugiu": 6190,
      "rondar": 6191,
      "roncs": 6192,
      "roncaire": 6193,
      "rondina": 6194,
      "sortida": 6195,
      "trobareu": 6196,
      "trobarem": 6197,
      "trobaríem": 6198,
      "cobej": 6199,
      "cobriren": 6200,
      "pitalitat": 6201,
      "primeren": 6202,
      "primers": 6203,
      "primeres": 6204,
      "primavera": 6205,
      "Empasseu": 6206,
      "bondat": 6207,
      "pegar": 6208,
      "pedr": 6209,
      "arribi": 6210,
      "crimin": 6211,
      "cridaren": 6212,
      "patilles": 6213,
      "patetic": 6214,
      "curts": 6215,
      "curosament": 6216,
      "salvar": 6217,
      "saltaven": 6218,
      "malaur": 6219,
      "blanament": 6220,
      "buda": 6221,
      "buits": 6222,
      "bufava": 6223,
      "budell": 6224,
      "bufades": 6225,
      "crea": 6226,
      "creant": 6227,
      "cregut": 6228,
      "cremen": 6229,
      "cregueren": 6230,
      "cremar": 6231,
      "creença": 6232,
      "rengles": 6233,
      "rengle": 6234,
      "renovella": 6235,
      "renunci": 6236,
      "mosseg": 6237,
      "pesa": 6238,
      "pesava": 6239,
      "pescades": 6240,
      "pessigadora": 6241,
      "Compreneu": 6242,
      "Compto": 6243,
      "noses": 6244,
      "vellura": 6245,
      "velleta": 6246,
      "encast": 6247,
      "estremi": 6248,
      "estreps": 6249,
      "estremí": 6250,
      "estremiren": 6251,
      "lluissor": 6252,
      "partit": 6253,
      "vestir": 6254,
      "vestiren": 6255,
      "vestides": 6256,
      "podrien": 6257,
      "vinguéreu": 6258,
      "començat": 6259,
      "cuca": 6260,
      "culat": 6261,
      "cuinaren": 6262,
      "finida": 6263,
      "mereix": 6264,
      "mereixia": 6265,
      "amagant": 6266,
      "doldre": 6267,
      "moria": 6268,
      "morosa": 6269,
      "plorés": 6270,
      "plorava": 6271,
      "plorats": 6272,
      "silenciosos": 6273,
      "quínes": 6274,
      "Quínes": 6275,
      "balda": 6276,
      "baldera": 6277,
      "girat": 6278,
      "girés": 6279,
      "meus": 6280,
      "sorprengué": 6281,
      "sorolla": 6282,
      "sorolls": 6283,
      "llumen": 6284,
      "llumenet": 6285,
      "sobreeixir": 6286,
      "inflexi": 6287,
      "infeli": 6288,
      "baixava": 6289,
      "pistol": 6290,
      "tiraren": 6291,
      "uniforme": 6292,
      "llampant": 6293,
      "campanya": 6294,
      "pirateries": 6295,
      "Harbis": 6296,
      "faran": 6297,
      "pecat": 6298,
      "pecats": 6299,
      "avinent": 6300,
      "estareu": 6301,
      "estarem": 6302,
      "descobriment": 6303,
      "consum": 6304,
      "contingué": 6305,
      "contingut": 6306,
      "glífi": 6307,
      "oiós": 6308,
      "alegra": 6309,
      "Amén": 6310,
      "dental": 6311,
      "ejaria": 6312,
      "ejants": 6313,
      "varietat": 6314,
      "altures": 6315,
      "aventatge": 6316,
      "llunyana": 6317,
      "llunyanies": 6318,
      "téte": 6319,
      "ventada": 6320,
      "estranys": 6321,
      "triful": 6322,
      "neglig": 6323,
      "ganga": 6324,
      "escabella": 6325,
      "simples": 6326,
      "dures": 6327,
      "durar": 6328,
      "desaperce": 6329,
      "plausible": 6330,
      "Mars": 6331,
      "agafen": 6332,
      "agafat": 6333,
      "fonament": 6334,
      "fonaments": 6335,
      "famós": 6336,
      "robes": 6337,
      "robava": 6338,
      "oblidaria": 6339,
      "oblido": 6340,
      "oblidats": 6341,
      "catastr": 6342,
      "anatomia": 6343,
      "recordava": 6344,
      "llev": 6345,
      "llevat": 6346,
      "contrada": 6347,
      "corregueren": 6348,
      "corredora": 6349,
      "preciosa": 6350,
      "Estats": 6351,
      "Estaveu": 6352,
      "apia": 6353,
      "apli": 6354,
      "apunta": 6355,
      "apallissa": 6356,
      "claror": 6357,
      "parlaren": 6358,
      "grata": 6359,
      "Moltes": 6360,
      "lusió": 6361,
      "cré": 6362,
      "fredor": 6363,
      "fredament": 6364,
      "missat": 6365,
      "miseries": 6366,
      "mistos": 6367,
      "steix": 6368,
      "decantat": 6369,
      "decantaren": 6370,
      "decantaven": 6371,
      "entrat": 6372,
      "entrés": 6373,
      "entranyes": 6374,
      "guarda": 6375,
      "guarir": 6376,
      "guardar": 6377,
      "fumera": 6378,
      "fumava": 6379,
      "ofega": 6380,
      "ofegada": 6381,
      "quinzena": 6382,
      "reconec": 6383,
      "reconeixer": 6384,
      "reconeixement": 6385,
      "somnio": 6386,
      "somniat": 6387,
      "besareu": 6388,
      "borda": 6389,
      "borni": 6390,
      "polit": 6391,
      "polsos": 6392,
      "rems": 6393,
      "remuguen": 6394,
      "caminal": 6395,
      "caminaven": 6396,
      "travetes": 6397,
      "passatgers": 6398,
      "poderosa": 6399,
      "poderós": 6400,
      "poderosament": 6401,
      "poderosos": 6402,
      "furgant": 6403,
      "furiosa": 6404,
      "fortament": 6405,
      "escapa": 6406,
      "engega": 6407,
      "engegar": 6408,
      "engegat": 6409,
      "itzaren": 6410,
      "promesa": 6411,
      "prompte": 6412,
      "costats": 6413,
      "menyspreu": 6414,
      "bocabadat": 6415,
      "Voldreu": 6416,
      "icament": 6417,
      "metre": 6418,
      "metge": 6419,
      "metges": 6420,
      "suri": 6421,
      "surti": 6422,
      "reparava": 6423,
      "reparada": 6424,
      "llanut": 6425,
      "llançar": 6426,
      "llançaren": 6427,
      "llançat": 6428,
      "carreres": 6429,
      "petites": 6430,
      "idees": 6431,
      "estimo": 6432,
      "estimar": 6433,
      "satisfer": 6434,
      "ajust": 6435,
      "ajorn": 6436,
      "ajeure": 6437,
      "centener": 6438,
      "sotet": 6439,
      "enya": 6440,
      "atuells": 6441,
      "atuidora": 6442,
      "contesta": 6443,
      "contents": 6444,
      "consisteix": 6445,
      "plans": 6446,
      "cercava": 6447,
      "grifol": 6448,
      "necessaria": 6449,
      "necessita": 6450,
      "necessaris": 6451,
      "espasa": 6452,
      "espadat": 6453,
      "demanant": 6454,
      "quart": 6455,
      "quarter": 6456,
      "quartejant": 6457,
      "indig": 6458,
      "indiana": 6459,
      "indiferencia": 6460,
      "diversos": 6461,
      "diversió": 6462,
      "divertit": 6463,
      "carretades": 6464,
      "curiós": 6465,
      "curiosament": 6466,
      "arreplega": 6467,
      "arreplegant": 6468,
      "Deixar": 6469,
      "afanar": 6470,
      "aflig": 6471,
      "aflic": 6472,
      "creua": 6473,
      "solapa": 6474,
      "atrap": 6475,
      "atrafe": 6476,
      "atrapant": 6477,
      "atracció": 6478,
      "desitjant": 6479,
      "desitjava": 6480,
      "assenya": 6481,
      "pregava": 6482,
      "provés": 6483,
      "provem": 6484,
      "veiéreu": 6485,
      "Anaren": 6486,
      "Finalment": 6487,
      "Podia": 6488,
      "dalia": 6489,
      "flairava": 6490,
      "gemegant": 6491,
      "gemegava": 6492,
      "gemega": 6493,
      "gemegor": 6494,
      "motiva": 6495,
      "motius": 6496,
      "membre": 6497,
      "rata": 6498,
      "xifra": 6499,
      "animació": 6500,
      "desemmas": 6501,
      "desemparat": 6502,
      "vetllant": 6503,
      "conscients": 6504,
      "esgarriat": 6505,
      "enyorívol": 6506,
      "celebr": 6507,
      "celeritat": 6508,
      "enraonaren": 6509,
      "examinat": 6510,
      "examinava": 6511,
      "begut": 6512,
      "beguda": 6513,
      "ullava": 6514,
      "esvair": 6515,
      "esvaint": 6516,
      "endevin": 6517,
      "endegat": 6518,
      "endegats": 6519,
      "refus": 6520,
      "refle": 6521,
      "cautament": 6522,
      "complert": 6523,
      "gaudia": 6524,
      "istí": 6525,
      "llagrima": 6526,
      "servant": 6527,
      "servir": 6528,
      "acuit": 6529,
      "esguards": 6530,
      "Sonaren": 6531,
      "aconhor": 6532,
      "aconseguí": 6533,
      "frescos": 6534,
      "detura": 6535,
      "detonació": 6536,
      "aniran": 6537,
      "sissipí": 6538,
      "trasbals": 6539,
      "trasmudança": 6540,
      "traspostat": 6541,
      "paciencia": 6542,
      "fileres": 6543,
      "esclataren": 6544,
      "prometé": 6545,
      "prometre": 6546,
      "prometés": 6547,
      "prometedor": 6548,
      "considera": 6549,
      "secretament": 6550,
      "Dougal": 6551,
      "afers": 6552,
      "bastó": 6553,
      "bastit": 6554,
      "cloure": 6555,
      "germana": 6556,
      "ponent": 6557,
      "punys": 6558,
      "punyida": 6559,
      "ívolament": 6560,
      "guinari": 6561,
      "estudis": 6562,
      "assegut": 6563,
      "resplendí": 6564,
      "coratjosament": 6565,
      "viuen": 6566,
      "Esperava": 6567,
      "Esperaren": 6568,
      "superior": 6569,
      "superfí": 6570,
      "continuar": 6571,
      "continuant": 6572,
      "continuava": 6573,
      "continuaven": 6574,
      "contemplat": 6575,
      "contemplaren": 6576,
      "apreta": 6577,
      "aprehen": 6578,
      "imatge": 6579,
      "naturalesa": 6580,
      "odiant": 6581,
      "odiós": 6582,
      "odics": 6583,
      "pomet": 6584,
      "pompa": 6585,
      "vigila": 6586,
      "vigilava": 6587,
      "enterrat": 6588,
      "avançava": 6589,
      "avançaven": 6590,
      "amorosa": 6591,
      "estirar": 6592,
      "lletja": 6593,
      "resultes": 6594,
      "treballava": 6595,
      "dissabtes": 6596,
      "espectació": 6597,
      "ultura": 6598,
      "estranyaven": 6599,
      "fantastiques": 6600,
      "Tenen": 6601,
      "Tenien": 6602,
      "XXXV": 6603,
      "agenol": 6604,
      "destí": 6605,
      "destorb": 6606,
      "fragment": 6607,
      "muntant": 6608,
      "muntanyes": 6609,
      "muntanyola": 6610,
      "palesament": 6611,
      "títol": 6612,
      "xarbot": 6613,
      "xarampió": 6614,
      "ensopida": 6615,
      "determina": 6616,
      "guanyava": 6617,
      "amarats": 6618,
      "amargava": 6619,
      "amargs": 6620,
      "estesos": 6621,
      "estiguin": 6622,
      "trenes": 6623,
      "trencada": 6624,
      "trencaren": 6625,
      "sermons": 6626,
      "subjecte": 6627,
      "judica": 6628,
      "judicial": 6629,
      "fugida": 6630,
      "satisfactor": 6631,
      "satisfactoria": 6632,
      "feliça": 6633,
      "emblanquinat": 6634,
      "emblanquinament": 6635,
      "Coneixia": 6636,
      "Veieren": 6637,
      "fendien": 6638,
      "feixugament": 6639,
      "honra": 6640,
      "tavernes": 6641,
      "zumz": 6642,
      "enfilant": 6643,
      "transportar": 6644,
      "transcen": 6645,
      "tranquilament": 6646,
      "sionat": 6647,
      "cordills": 6648,
      "exercit": 6649,
      "exercits": 6650,
      "esclatant": 6651,
      "esdevenien": 6652,
      "esdevenint": 6653,
      "esdevenidor": 6654,
      "patacades": 6655,
      "esquinçant": 6656,
      "meravellós": 6657,
      "amagatall": 6658,
      "migdiada": 6659,
      "alegrar": 6660,
      "assenyalava": 6661,
      "Arriba": 6662,
      "relleu": 6663,
      "esbrina": 6664,
      "omplia": 6665,
      "cassa": 6666,
      "permetre": 6667,
      "permetia": 6668,
      "compareixia": 6669,
      "astorar": 6670,
      "astorats": 6671,
      "cionat": 6672,
      "cionava": 6673,
      "cionals": 6674,
      "delectable": 6675,
      "fadigat": 6676,
      "bellugueig": 6677,
      "interessat": 6678,
      "interessava": 6679,
      "imaginaria": 6680,
      "imaginaris": 6681,
      "misteriosament": 6682,
      "sacsejar": 6683,
      "sacsejant": 6684,
      "Hagué": 6685,
      "Resol": 6686,
      "Torneu": 6687,
      "Tornaren": 6688,
      "aplegat": 6689,
      "aplegant": 6690,
      "aplegaren": 6691,
      "ajuda": 6692,
      "fastiguejat": 6693,
      "gorra": 6694,
      "líqui": 6695,
      "lícita": 6696,
      "línia": 6697,
      "decidir": 6698,
      "decisió": 6699,
      "referia": 6700,
      "orgullosa": 6701,
      "invitacions": 6702,
      "cavareu": 6703,
      "empenyia": 6704,
      "empenyent": 6705,
      "delitoses": 6706,
      "papers": 6707,
      "absoluta": 6708,
      "experiencia": 6709,
      "escriptur": 6710,
      "escridassant": 6711,
      "acoblar": 6712,
      "acoblat": 6713,
      "solemnitat": 6714,
      "solemnitats": 6715,
      "solemnial": 6716,
      "presoners": 6717,
      "moriria": 6718,
      "desapareguts": 6719,
      "reflexions": 6720,
      "ajagueren": 6721,
      "adonés": 6722,
      "adonant": 6723,
      "bocins": 6724,
      "cultat": 6725,
      "muts": 6726,
      "qüents": 6727,
      "únics": 6728,
      "esmerçar": 6729,
      "esmerçaren": 6730,
      "cavalls": 6731,
      "cavallet": 6732,
      "separava": 6733,
      "llinó": 6734,
      "vaixells": 6735,
      "descoratjat": 6736,
      "descoratjament": 6737,
      "embolcalla": 6738,
      "embolicat": 6739,
      "comprat": 6740,
      "trigat": 6741,
      "parlen": 6742,
      "parlaven": 6743,
      "confiava": 6744,
      "conduit": 6745,
      "pregones": 6746,
      "sospitosa": 6747,
      "advertiments": 6748,
      "giravoltant": 6749,
      "reconfortés": 6750,
      "circumstancia": 6751,
      "Seguiren": 6752,
      "arrossegar": 6753,
      "considerar": 6754,
      "considerava": 6755,
      "afegitons": 6756,
      "Havien": 6757,
      "Redreça": 6758,
      "gnies": 6759,
      "lentament": 6760,
      "oferir": 6761,
      "stades": 6762,
      "sumanta": 6763,
      "uiteu": 6764,
      "enlaira": 6765,
      "enemics": 6766,
      "remenant": 6767,
      "remenava": 6768,
      "atacar": 6769,
      "direccions": 6770,
      "vagarívola": 6771,
      "vagarejaven": 6772,
      "composició": 6773,
      "assolit": 6774,
      "assolir": 6775,
      "assolís": 6776,
      "tronc": 6777,
      "capturar": 6778,
      "capbussant": 6779,
      "podrit": 6780,
      "produit": 6781,
      "proposava": 6782,
      "grossa": 6783,
      "visitant": 6784,
      "malmesa": 6785,
      "malmeses": 6786,
      "successivament": 6787,
      "adoració": 6788,
      "lluitaven": 6789,
      "astorador": 6790,
      "cepats": 6791,
      "ufanosos": 6792,
      "familiaritat": 6793,
      "precipitar": 6794,
      "cautelosa": 6795,
      "aferrar": 6796,
      "aferrant": 6797,
      "aferrus": 6798,
      "Llurs": 6799,
      "exclamacions": 6800,
      "experiments": 6801,
      "Correu": 6802,
      "Corregué": 6803,
      "acostant": 6804,
      "bellesa": 6805,
      "belleses": 6806,
      "clivelles": 6807,
      "greument": 6808,
      "pintat": 6809,
      "prac": 6810,
      "peixi": 6811,
      "esmaperduda": 6812,
      "esfondrar": 6813,
      "enquestes": 6814,
      "enfurit": 6815,
      "enfurisma": 6816,
      "reverencia": 6817,
      "repetí": 6818,
      "repetició": 6819,
      "calamitat": 6820,
      "estalviat": 6821,
      "commove": 6822,
      "majors": 6823,
      "participació": 6824,
      "coneixera": 6825,
      "coneixedor": 6826,
      "lladregueria": 6827,
      "gronxar": 6828,
      "gronxant": 6829,
      "expressiva": 6830,
      "exhaurí": 6831,
      "exhauridora": 6832,
      "Quietud": 6833,
      "deixeble": 6834,
      "badall": 6835,
      "neguitejar": 6836,
      "sobtada": 6837,
      "cuiteu": 6838,
      "cuitosament": 6839,
      "tribull": 6840,
      "tribunal": 6841,
      "avergonyida": 6842,
      "afanyosament": 6843,
      "despertaren": 6844,
      "arrossegant": 6845,
      "escampades": 6846,
      "públiques": 6847,
      "prodigiosa": 6848,
      "prodigiós": 6849,
      "prodigiosament": 6850,
      "pertanyen": 6851,
      "pertanyia": 6852,
      "afalagada": 6853,
      "Aladí": 6854,
      "Alabama": 6855,
      "Caieu": 6856,
      "Faig": 6857,
      "Missouri": 6858,
      "Missuri": 6859,
      "Mississipí": 6860,
      "Penseu": 6861,
      "Tinc": 6862,
      "Tingué": 6863,
      "babau": 6864,
      "fatal": 6865,
      "festí": 6866,
      "frenetica": 6867,
      "hams": 6868,
      "mullena": 6869,
      "tongada": 6870,
      "energia": 6871,
      "declara": 6872,
      "decebut": 6873,
      "arbori": 6874,
      "arborar": 6875,
      "refiar": 6876,
      "redreça": 6877,
      "redreçar": 6878,
      "assabenta": 6879,
      "significava": 6880,
      "miolaré": 6881,
      "traginaven": 6882,
      "manega": 6883,
      "manegat": 6884,
      "manifesta": 6885,
      "manifestar": 6886,
      "important": 6887,
      "abrandar": 6888,
      "abrandat": 6889,
      "plomes": 6890,
      "menjades": 6891,
      "davallaren": 6892,
      "espiant": 6893,
      "espessa": 6894,
      "retirar": 6895,
      "anguniar": 6896,
      "anguniós": 6897,
      "clavaren": 6898,
      "desapareixer": 6899,
      "obligació": 6900,
      "arrabassat": 6901,
      "arrabassant": 6902,
      "reconegut": 6903,
      "escorcollar": 6904,
      "escorcollat": 6905,
      "llençol": 6906,
      "tremolenca": 6907,
      "completament": 6908,
      "mastegat": 6909,
      "esblaimada": 6910,
      "Romangué": 6911,
      "pronunciat": 6912,
      "impressionat": 6913,
      "Meadow": 6914,
      "Prou": 6915,
      "Procura": 6916,
      "Prova": 6917,
      "Seran": 6918,
      "Sabia": 6919,
      "aplaudiments": 6920,
      "doina": 6921,
      "hospitalitat": 6922,
      "melmelada": 6923,
      "muscles": 6924,
      "roldons": 6925,
      "testos": 6926,
      "velocitat": 6927,
      "esparver": 6928,
      "esbarjosa": 6929,
      "espaordi": 6930,
      "encorbava": 6931,
      "enfondia": 6932,
      "degotissos": 6933,
      "eloqüents": 6934,
      "refusa": 6935,
      "indefinida": 6936,
      "enterreu": 6937,
      "perplexa": 6938,
      "perjudici": 6939,
      "establí": 6940,
      "establir": 6941,
      "dipositat": 6942,
      "probable": 6943,
      "compassió": 6944,
      "captiveri": 6945,
      "confrontant": 6946,
      "confrontar": 6947,
      "insinu": 6948,
      "insinua": 6949,
      "pacíficament": 6950,
      "feblesa": 6951,
      "semblés": 6952,
      "sembleu": 6953,
      "exigent": 6954,
      "exigit": 6955,
      "expectació": 6956,
      "escollí": 6957,
      "jovenívol": 6958,
      "jovenívola": 6959,
      "encertar": 6960,
      "rovellat": 6961,
      "rodamons": 6962,
      "braolador": 6963,
      "suaument": 6964,
      "terrabastalls": 6965,
      "sobirana": 6966,
      "salvats": 6967,
      "pistola": 6968,
      "venturer": 6969,
      "possibilitats": 6970,
      "ratllats": 6971,
      "desembarcant": 6972,
      "funerals": 6973,
      "atravessaren": 6974,
      "melangiosa": 6975,
      "meravellava": 6976,
      "culpable": 6977,
      "sumptuosament": 6978,
      "sumptuositat": 6979,
      "esfondrada": 6980,
      "vigorosament": 6981,
      "aclaparats": 6982,
      "castigar": 6983,
      "estarrufament": 6984,
      "Nostre": 6985,
      "Nosaltres": 6986,
      "Porteu": 6987,
      "cintura": 6988,
      "deriva": 6989,
      "equivalia": 6990,
      "equivalien": 6991,
      "féieu": 6992,
      "férem": 6993,
      "gelosia": 6994,
      "liter": 6995,
      "lustre": 6996,
      "nenes": 6997,
      "operació": 6998,
      "oportuna": 6999,
      "pintura": 7000,
      "rosades": 7001,
      "selva": 7002,
      "suspes": 7003,
      "esborra": 7004,
      "endugué": 7005,
      "revif": 7006,
      "reviure": 7007,
      "regularitat": 7008,
      "periodics": 7009,
      "amarada": 7010,
      "privile": 7011,
      "isolada": 7012,
      "habitat": 7013,
      "habitada": 7014,
      "taulons": 7015,
      "milió": 7016,
      "carnatge": 7017,
      "senceres": 7018,
      "tractat": 7019,
      "penjarelles": 7020,
      "grinyol": 7021,
      "vergonya": 7022,
      "explicacions": 7023,
      "singulars": 7024,
      "distretament": 7025,
      "adquirit": 7026,
      "adquirir": 7027,
      "barril": 7028,
      "lliuraren": 7029,
      "somnolent": 7030,
      "cançonera": 7031,
      "ronsejador": 7032,
      "rondinant": 7033,
      "podrida": 7034,
      "podrides": 7035,
      "esquerdada": 7036,
      "consirós": 7037,
      "agafo": 7038,
      "agafaren": 7039,
      "esgarrapades": 7040,
      "ajustat": 7041,
      "ajustar": 7042,
      "ajudat": 7043,
      "ximpleria": 7044,
      "ximpleries": 7045,
      "estudiar": 7046,
      "estudiant": 7047,
      "superstició": 7048,
      "supersticions": 7049,
      "ensopegat": 7050,
      "subjecta": 7051,
      "subjectes": 7052,
      "esblaimats": 7053,
      "esquitllaven": 7054,
      "cruixit": 7055,
      "reialme": 7056,
      "majestuós": 7057,
      "convençut": 7058,
      "escritotejar": 7059,
      "escritoteja": 7060,
      "assabentar": 7061,
      "mundan": 7062,
      "enginyat": 7063,
      "núvols": 7064,
      "esblanqueí": 7065,
      "esblanqueit": 7066,
      "enlluernadora": 7067,
      "performança": 7068,
      "performances": 7069,
      "perceptible": 7070,
      "perceptibles": 7071,
      "Amaga": 7072,
      "Apreta": 7073,
      "Creieu": 7074,
      "Constantinoble": 7075,
      "Dues": 7076,
      "Necessitava": 7077,
      "Plor": 7078,
      "Susy": 7079,
      "agita": 7080,
      "adul": 7081,
      "autentic": 7082,
      "alarma": 7083,
      "colants": 7084,
      "coltell": 7085,
      "derivant": 7086,
      "humit": 7087,
      "rígid": 7088,
      "telegra": 7089,
      "íntim": 7090,
      "enrojola": 7091,
      "endolats": 7092,
      "laterals": 7093,
      "declarat": 7094,
      "argument": 7095,
      "armats": 7096,
      "albeja": 7097,
      "revelava": 7098,
      "regracieu": 7099,
      "remordiment": 7100,
      "oratjol": 7101,
      "ordinari": 7102,
      "inútil": 7103,
      "innocents": 7104,
      "incertesa": 7105,
      "iniciació": 7106,
      "iniciativa": 7107,
      "insignificant": 7108,
      "ostentació": 7109,
      "persuas": 7110,
      "rauxada": 7111,
      "difosa": 7112,
      "dificultat": 7113,
      "llobrec": 7114,
      "emoció": 7115,
      "combinació": 7116,
      "comandava": 7117,
      "comunica": 7118,
      "asprament": 7119,
      "ciutadans": 7120,
      "obiradora": 7121,
      "aquietar": 7122,
      "parpelleig": 7123,
      "tafaneria": 7124,
      "confegir": 7125,
      "confessió": 7126,
      "conseqüencia": 7127,
      "poemes": 7128,
      "insígnies": 7129,
      "trabucant": 7130,
      "penetrant": 7131,
      "penedida": 7132,
      "manyac": 7133,
      "voleiant": 7134,
      "precaució": 7135,
      "impedir": 7136,
      "profana": 7137,
      "provisions": 7138,
      "proximes": 7139,
      "prohibia": 7140,
      "ignor": 7141,
      "extasi": 7142,
      "excitació": 7143,
      "exploració": 7144,
      "expandia": 7145,
      "exhibir": 7146,
      "victoria": 7147,
      "vianants": 7148,
      "posseidor": 7149,
      "temorenc": 7150,
      "deixondir": 7151,
      "camarades": 7152,
      "Escriptura": 7153,
      "activitat": 7154,
      "encertava": 7155,
      "estalagmita": 7156,
      "estalactites": 7157,
      "grandiositat": 7158,
      "rosegats": 7159,
      "recelar": 7160,
      "maleides": 7161,
      "entremalia": 7162,
      "adopta": 7163,
      "adolorit": 7164,
      "modestia": 7165,
      "batusses": 7166,
      "angoixa": 7167,
      "fuetades": 7168,
      "Compteu": 7169,
      "vestidet": 7170,
      "fonedís": 7171,
      "cristall": 7172,
      "humiliació": 7173,
      "polzades": 7174,
      "basardós": 7175,
      "consistia": 7176,
      "escarrassar": 7177,
      "desempallegar": 7178,
      "bastonet": 7179,
      "fueteigs": 7180,
      "destrucció": 7181,
      "Continu": 7182,
      "Lliscaren": 7183,
      "reflexionar": 7184,
      "cruelment": 7185,
      "pallasso": 7186,
      "enquimera": 7187,
      "bestioleta": 7188,
      "encaparrar": 7189,
      "vituperar": 7190,
      "entusiasme": 7191,
      "estropellat": 7192,
      "prosperaren": 7193,
      "emplastre": 7194,
      "excursionistes": 7195,
      "ensinistr": 7196,
      "originalitat": 7197,
      "inexpressable": 7198,
      "persistentment": 7199,
      "despullat": 7200,
      "implacablement": 7201,
      "explosió": 7202,
      "estrategicament": 7203,
      "Allí": 7204,
      "America": 7205,
      "Atureu": 7206,
      "Digueren": 7207,
      "Diastre": 7208,
      "Generalment": 7209,
      "House": 7210,
      "Illinois": 7211,
      "Llamp": 7212,
      "Larva": 7213,
      "Land": 7214,
      "McDougal": 7215,
      "Obrí": 7216,
      "Pobres": 7217,
      "Palau": 7218,
      "Sense": 7219,
      "Sigui": 7220,
      "Sherwood": 7221,
      "Taverna": 7222,
      "aporrin": 7223,
      "aplanava": 7224,
      "bestia": 7225,
      "bescanviar": 7226,
      "celler": 7227,
      "cronica": 7228,
      "eventual": 7229,
      "fúnebre": 7230,
      "fastig": 7231,
      "fistons": 7232,
      "multipli": 7233,
      "ografia": 7234,
      "pigot": 7235,
      "puntades": 7236,
      "súplica": 7237,
      "sanguinari": 7238,
      "tentines": 7239,
      "taleia": 7240,
      "xemeneia": 7241,
      "ermitans": 7242,
      "declina": 7243,
      "artifici": 7244,
      "quotidi": 7245,
      "anomenada": 7246,
      "alegres": 7247,
      "regalimant": 7248,
      "regnava": 7249,
      "ordinaries": 7250,
      "atmosfera": 7251,
      "increible": 7252,
      "inventiva": 7253,
      "introdu": 7254,
      "inquisitiu": 7255,
      "entresenya": 7256,
      "entortoll": 7257,
      "entronitzat": 7258,
      "perruca": 7259,
      "estolid": 7260,
      "estómac": 7261,
      "diluvi": 7262,
      "desenllaç": 7263,
      "empastifat": 7264,
      "embenament": 7265,
      "empantane": 7266,
      "urrecció": 7267,
      "aspecte": 7268,
      "assistir": 7269,
      "astronom": 7270,
      "capciró": 7271,
      "tapadora": 7272,
      "tabalot": 7273,
      "concurrencia": 7274,
      "conversar": 7275,
      "consecut": 7276,
      "llaminadures": 7277,
      "mentider": 7278,
      "carmesina": 7279,
      "fermesa": 7280,
      "voldríeu": 7281,
      "tangible": 7282,
      "preciós": 7283,
      "predilecta": 7284,
      "fefaents": 7285,
      "veredicte": 7286,
      "excusa": 7287,
      "baiard": 7288,
      "rompuda": 7289,
      "disciplina": 7290,
      "tartamu": 7291,
      "sucrera": 7292,
      "martelleig": 7293,
      "renunciar": 7294,
      "sorollarem": 7295,
      "pistoles": 7296,
      "Harbison": 7297,
      "glífics": 7298,
      "trifulgues": 7299,
      "escabellat": 7300,
      "catastrofe": 7301,
      "grifolda": 7302,
      "desemmascarar": 7303,
      "superfície": 7304,
      "embolcallat": 7305,
      "multiplicaren": 7306,
      "!),": 7307,
      "'«": 7308,
      ".,": 7309,
      ".;": 7310,
      "17": 7311,
      "?;": 7312,
      "?);": 7313,
      "AC": 7314,
      "AD": 7315,
      "AN": 7316,
      "Ad": 7317,
      "Au": 7318,
      "Aus": 7319,
      "Ami": 7320,
      "Aja": 7321,
      "Apa": 7322,
      "Aigu": 7323,
      "Aban": 7324,
      "Allar": 7325,
      "Apart": 7326,
      "Amor": 7327,
      "Amena": 7328,
      "Avent": 7329,
      "Adora": 7330,
      "ACA": 7331,
      "Asse": 7332,
      "Allo": 7333,
      "Agris": 7334,
      "ALA": 7335,
      "BE": 7336,
      "Ba": 7337,
      "Bi": 7338,
      "Bent": 7339,
      "Bra": 7340,
      "Bella": 7341,
      "Bab": 7342,
      "Bast": 7343,
      "Bill": 7344,
      "Buf": 7345,
      "Blan": 7346,
      "Bala": 7347,
      "Bones": 7348,
      "Braó": 7349,
      "Bah": 7350,
      "Baixa": 7351,
      "CK": 7352,
      "Ces": 7353,
      "Can": 7354,
      "Cav": 7355,
      "Cam": 7356,
      "Cra": 7357,
      "Cant": 7358,
      "Cas": 7359,
      "Creu": 7360,
      "Crec": 7361,
      "Carre": 7362,
      "Cassol": 7363,
      "Cate": 7364,
      "Cobrí": 7365,
      "Cuiteu": 7366,
      "DU": 7367,
      "Dal": 7368,
      "Din": 7369,
      "Dem": 7370,
      "Daix": 7371,
      "Desc": 7372,
      "Dec": 7373,
      "Darr": 7374,
      "Diu": 7375,
      "Dama": 7376,
      "Dalt": 7377,
      "Descan": 7378,
      "DEL": 7379,
      "DON": 7380,
      "Dani": 7381,
      "EF": 7382,
      "EN": 7383,
      "ER": 7384,
      "ES": 7385,
      "Eh": 7386,
      "Et": 7387,
      "Ev": 7388,
      "Ex": 7389,
      "Eix": 7390,
      "Eur": 7391,
      "Eden": 7392,
      "FL": 7393,
      "Fu": 7394,
      "Fos": 7395,
      "Fra": 7396,
      "Fis": 7397,
      "Fara": 7398,
      "Fum": 7399,
      "Faria": 7400,
      "Faré": 7401,
      "Fill": 7402,
      "Fixa": 7403,
      "Folla": 7404,
      "Fran": 7405,
      "Fustes": 7406,
      "GO": 7407,
      "Gl": 7408,
      "Go": 7409,
      "Ger": 7410,
      "Gar": 7411,
      "Gent": 7412,
      "Gem": 7413,
      "Goses": 7414,
      "Guiteu": 7415,
      "Her": 7416,
      "Han": 7417,
      "Hor": 7418,
      "Havent": 7419,
      "IS": 7420,
      "IÓ": 7421,
      "Igual": 7422,
      "Jut": 7423,
      "Jeia": 7424,
      "Jordi": 7425,
      "Lli": 7426,
      "Lex": 7427,
      "Llo": 7428,
      "Mat": 7429,
      "Més": 7430,
      "Mit": 7431,
      "Mant": 7432,
      "Mem": 7433,
      "Met": 7434,
      "Mig": 7435,
      "Mans": 7436,
      "Matar": 7437,
      "Mitja": 7438,
      "Molta": 7439,
      "Miola": 7440,
      "MIS": 7441,
      "NO": 7442,
      "Ne": 7443,
      "Ny": 7444,
      "Nan": 7445,
      "Nia": 7446,
      "Nit": 7447,
      "Negra": 7448,
      "Ob": 7449,
      "Oc": 7450,
      "Om": 7451,
      "Oit": 7452,
      "Oida": 7453,
      "ORI": 7454,
      "PR": 7455,
      "Pa": 7456,
      "Pes": 7457,
      "Pel": 7458,
      "Pon": 7459,
      "Pels": 7460,
      "Pri": 7461,
      "Posa": 7462,
      "Paren": 7463,
      "Prom": 7464,
      "Passa": 7465,
      "Pint": 7466,
      "Plant": 7467,
      "Pescar": 7468,
      "Penso": 7469,
      "Pega": 7470,
      "Pegaren": 7471,
      "PER": 7472,
      "QU": 7473,
      "Ren": 7474,
      "Rel": 7475,
      "Ron": 7476,
      "Resp": 7477,
      "Reg": 7478,
      "Rap": 7479,
      "SU": 7480,
      "Sit": 7481,
      "Sall": 7482,
      "Sort": 7483,
      "Stre": 7484,
      "Sec": 7485,
      "Sti": 7486,
      "Sina": 7487,
      "Sud": 7488,
      "Sil": 7489,
      "Spi": 7490,
      "Sang": 7491,
      "Seny": 7492,
      "Sigueu": 7493,
      "Sabat": 7494,
      "Suc": 7495,
      "Spra": 7496,
      "SAN": 7497,
      "SIÓ": 7498,
      "TA": 7499,
      "TS": 7500,
      "Tw": 7501,
      "Tre": 7502,
      "Tam": 7503,
      "Tur": 7504,
      "Treu": 7505,
      "Talla": 7506,
      "Tro": 7507,
      "Tret": 7508,
      "Tala": 7509,
      "Tira": 7510,
      "Terra": 7511,
      "Toca": 7512,
      "Tris": 7513,
      "Trobar": 7514,
      "Testament": 7515,
      "Vi": 7516,
      "Ver": 7517,
      "Vells": 7518,
      "Vatu": 7519,
      "VII": 7520,
      "Vénen": 7521,
      "Vegeu": 7522,
      "Veles": 7523,
      "We": 7524,
      "Wi": 7525,
      "War": 7526,
      "Was": 7527,
      "XI": 7528,
      "Xt": 7529,
      "XII": 7530,
      "XIII": 7531,
      "XIX": 7532,
      "ZEL": 7533,
      "_fou": 7534,
      "ain": 7535,
      "aper": 7536,
      "aci": 7537,
      "apo": 7538,
      "acar": 7539,
      "apas": 7540,
      "apen": 7541,
      "aig": 7542,
      "agut": 7543,
      "aure": 7544,
      "apare": 7545,
      "acions": 7546,
      "apod": 7547,
      "aeria": 7548,
      "aguda": 7549,
      "aprengué": 7550,
      "apetit": 7551,
      "acostat": 7552,
      "adien": 7553,
      "aprop": 7554,
      "adones": 7555,
      "adonat": 7556,
      "agament": 7557,
      "agot": 7558,
      "aprenent": 7559,
      "axes": 7560,
      "acontent": 7561,
      "afigu": 7562,
      "apatia": 7563,
      "adeja": 7564,
      "aires": 7565,
      "aciuta": 7566,
      "agil": 7567,
      "bs": 7568,
      "bí": 7569,
      "bú": 7570,
      "bament": 7571,
      "ball": 7572,
      "big": 7573,
      "bany": 7574,
      "bats": 7575,
      "bou": 7576,
      "buny": 7577,
      "beg": 7578,
      "bigues": 7579,
      "bitza": 7580,
      "ballant": 7581,
      "câ": 7582,
      "cé": 7583,
      "cet": 7584,
      "cella": 7585,
      "cany": 7586,
      "cull": 7587,
      "ctar": 7588,
      "ctamb": 7589,
      "ccions": 7590,
      "catge": 7591,
      "centr": 7592,
      "clot": 7593,
      "citats": 7594,
      "calleu": 7595,
      "centrar": 7596,
      "coure": 7597,
      "cultats": 7598,
      "clusió": 7599,
      "cultura": 7600,
      "ds": 7601,
      "dan": 7602,
      "duna": 7603,
      "dob": 7604,
      "desta": 7605,
      "dalla": 7606,
      "dint": 7607,
      "denci": 7608,
      "destar": 7609,
      "danat": 7610,
      "dges": 7611,
      "derna": 7612,
      "dallada": 7613,
      "eer": 7614,
      "eit": 7615,
      "ecar": 7616,
      "eina": 7617,
      "epi": 7618,
      "egueu": 7619,
      "egui": 7620,
      "efica": 7621,
      "edors": 7622,
      "efant": 7623,
      "edores": 7624,
      "efí": 7625,
      "eperança": 7626,
      "elaren": 7627,
      "edats": 7628,
      "fo": 7629,
      "fr": 7630,
      "fot": 7631,
      "fir": 7632,
      "fri": 7633,
      "fals": 7634,
      "fita": 7635,
      "fing": 7636,
      "fret": 7637,
      "fint": 7638,
      "fines": 7639,
      "fants": 7640,
      "fess": 7641,
      "fama": 7642,
      "flot": 7643,
      "fust": 7644,
      "fran": 7645,
      "foca": 7646,
      "faves": 7647,
      "fris": 7648,
      "frar": 7649,
      "frí": 7650,
      "fustes": 7651,
      "gü": 7652,
      "gre": 7653,
      "gom": 7654,
      "gés": 7655,
      "gas": 7656,
      "gis": 7657,
      "gosa": 7658,
      "gres": 7659,
      "gim": 7660,
      "gara": 7661,
      "gona": 7662,
      "gassa": 7663,
      "gint": 7664,
      "genca": 7665,
      "gosament": 7666,
      "gast": 7667,
      "gement": 7668,
      "golar": 7669,
      "geres": 7670,
      "gger": 7671,
      "ganyes": 7672,
      "greix": 7673,
      "gisme": 7674,
      "hur": 7675,
      "hort": 7676,
      "hura": 7677,
      "hement": 7678,
      "holi": 7679,
      "hington": 7680,
      "iles": 7681,
      "iaren": 7682,
      "ions": 7683,
      "iats": 7684,
      "ilo": 7685,
      "ives": 7686,
      "icada": 7687,
      "iells": 7688,
      "ients": 7689,
      "illar": 7690,
      "irada": 7691,
      "iors": 7692,
      "ifoc": 7693,
      "idores": 7694,
      "icis": 7695,
      "ilació": 7696,
      "iparen": 7697,
      "ificant": 7698,
      "ibera": 7699,
      "ibeu": 7700,
      "jura": 7701,
      "jana": 7702,
      "jama": 7703,
      "jolar": 7704,
      "joses": 7705,
      "jero": 7706,
      "jurem": 7707,
      "ker": 7708,
      "kins": 7709,
      "klin": 7710,
      "lés": 7711,
      "litat": 7712,
      "lents": 7713,
      "lvora": 7714,
      "lentes": 7715,
      "litz": 7716,
      "my": 7717,
      "maqu": 7718,
      "mosa": 7719,
      "mella": 7720,
      "maren": 7721,
      "mesc": 7722,
      "moc": 7723,
      "mou": 7724,
      "malg": 7725,
      "maltra": 7726,
      "malla": 7727,
      "meta": 7728,
      "mula": 7729,
      "mols": 7730,
      "mesclat": 7731,
      "mescla": 7732,
      "nde": 7733,
      "nav": 7734,
      "neu": 7735,
      "nava": 7736,
      "nut": 7737,
      "nats": 7738,
      "nines": 7739,
      "ndol": 7740,
      "narra": 7741,
      "nets": 7742,
      "netes": 7743,
      "ndest": 7744,
      "número": 7745,
      "nord": 7746,
      "ninot": 7747,
      "nexa": 7748,
      "of": 7749,
      "oí": 7750,
      "ode": 7751,
      "oit": 7752,
      "ova": 7753,
      "odes": 7754,
      "opar": 7755,
      "odis": 7756,
      "opres": 7757,
      "opu": 7758,
      "ocada": 7759,
      "oint": 7760,
      "oposa": 7761,
      "oiren": 7762,
      "odat": 7763,
      "odic": 7764,
      "opció": 7765,
      "ocava": 7766,
      "ocis": 7767,
      "ocorregué": 7768,
      "opri": 7769,
      "odiada": 7770,
      "opressió": 7771,
      "ofensa": 7772,
      "ovelleta": 7773,
      "pno": 7774,
      "pur": 7775,
      "pella": 7776,
      "put": 7777,
      "pti": 7778,
      "pans": 7779,
      "pesta": 7780,
      "pid": 7781,
      "pil": 7782,
      "pells": 7783,
      "pants": 7784,
      "panys": 7785,
      "ptori": 7786,
      "ptic": 7787,
      "pegant": 7788,
      "pegava": 7789,
      "pegaren": 7790,
      "pkins": 7791,
      "rés": 7792,
      "rest": 7793,
      "rur": 7794,
      "rament": 7795,
      "rall": 7796,
      "roc": 7797,
      "rou": 7798,
      "ritat": 7799,
      "rants": 7800,
      "rama": 7801,
      "restar": 7802,
      "resten": 7803,
      "rusava": 7804,
      "rpura": 7805,
      "sir": 7806,
      "str": 7807,
      "sava": 7808,
      "sins": 7809,
      "sons": 7810,
      "solt": 7811,
      "sana": 7812,
      "saria": 7813,
      "stat": 7814,
      "sud": 7815,
      "spec": 7816,
      "saturat": 7817,
      "síssima": 7818,
      "savies": 7819,
      "scuna": 7820,
      "tera": 7821,
      "tall": 7822,
      "tons": 7823,
      "tola": 7824,
      "tien": 7825,
      "tut": 7826,
      "tara": 7827,
      "tós": 7828,
      "talla": 7829,
      "tells": 7830,
      "tits": 7831,
      "tíeu": 7832,
      "tast": 7833,
      "tua": 7834,
      "tireu": 7835,
      "titud": 7836,
      "testi": 7837,
      "talleu": 7838,
      "tocat": 7839,
      "tonada": 7840,
      "tallava": 7841,
      "tallada": 7842,
      "tiges": 7843,
      "uí": 7844,
      "uci": 7845,
      "ument": 7846,
      "uien": 7847,
      "uble": 7848,
      "uita": 7849,
      "ullar": 7850,
      "uporta": 7851,
      "ufac": 7852,
      "ulant": 7853,
      "uments": 7854,
      "ugava": 7855,
      "uguit": 7856,
      "uiges": 7857,
      "vats": 7858,
      "vana": 7859,
      "ventre": 7860,
      "vells": 7861,
      "volar": 7862,
      "voci": 7863,
      "xó": 7864,
      "xú": 7865,
      "xin": 7866,
      "xos": 7867,
      "xur": 7868,
      "xava": 7869,
      "xis": 7870,
      "xaren": 7871,
      "xop": 7872,
      "xalen": 7873,
      "ya": 7874,
      "yol": 7875,
      "yada": 7876,
      "yegar": 7877,
      "zen": 7878,
      "zer": 7879,
      "zel": 7880,
      "zaren": 7881,
      "zada": 7882,
      "zines": 7883,
      "zador": 7884,
      "zinar": 7885,
      "zibeu": 7886,
      "»:": 7887,
      "»;": 7888,
      "»?": 7889,
      "»).": 7890,
      "ÉU": 7891,
      "çosa": 7892,
      "çaveu": 7893,
      "íqu": 7894,
      "íli": 7895,
      "ífer": 7896,
      "ílo": 7897,
      "íaca": 7898,
      "ícia": 7899,
      "ític": 7900,
      "ítol": 7901,
      "ísima": 7902,
      "ídola": 7903,
      "ínu": 7904,
      "ídica": 7905,
      "índe": 7906,
      "íode": 7907,
      "órrer": 7908,
      "óries": 7909,
      "ües": 7910,
      "…!": 7911,
      "…,": 7912,
      "…?": 7913,
      "esí": 7914,
      "esque": 7915,
      "esia": 7916,
      "essa": 7917,
      "espre": 7918,
      "esfi": 7919,
      "espl": 7920,
      "espla": 7921,
      "esqui": 7922,
      "esbu": 7923,
      "esber": 7924,
      "esplora": 7925,
      "esgles": 7926,
      "esprem": 7927,
      "esqueixa": 7928,
      "esgro": 7929,
      "esplaia": 7930,
      "escorregut": 7931,
      "esmenar": 7932,
      "end": 7933,
      "engu": 7934,
      "enll": 7935,
      "enva": 7936,
      "enir": 7937,
      "enri": 7938,
      "enfe": 7939,
      "envi": 7940,
      "enut": 7941,
      "engar": 7942,
      "enina": 7943,
      "enac": 7944,
      "enron": 7945,
      "enques": 7946,
      "envell": 7947,
      "enatge": 7948,
      "enfar": 7949,
      "engan": 7950,
      "engal": 7951,
      "enfeina": 7952,
      "encambra": 7953,
      "enamor": 7954,
      "enari": 7955,
      "endimon": 7956,
      "enorgull": 7957,
      "envista": 7958,
      "enfoll": 7959,
      "enrab": 7960,
      "enrenou": 7961,
      "envestí": 7962,
      "enfollia": 7963,
      "envermell": 7964,
      "enderr": 7965,
      "envoltar": 7966,
      "endormis": 7967,
      "enfredor": 7968,
      "endoina": 7969,
      "erat": 7970,
      "ertor": 7971,
      "erós": 7972,
      "eric": 7973,
      "erívol": 7974,
      "erols": 7975,
      "erancia": 7976,
      "ervació": 7977,
      "lati": 7978,
      "lagar": 7979,
      "laven": 7980,
      "lacer": 7981,
      "lacions": 7982,
      "lapida": 7983,
      "deca": 7984,
      "depr": 7985,
      "dement": 7986,
      "dedu": 7987,
      "deien": 7988,
      "decada": 7989,
      "degueren": 7990,
      "debat": 7991,
      "decan": 7992,
      "dejar": 7993,
      "defu": 7994,
      "decre": 7995,
      "detingué": 7996,
      "dellet": 7997,
      "debil": 7998,
      "decobert": 7999,
      "demostrava": 8000,
      "defall": 8001,
      "deurien": 8002,
      "devas": 8003,
      "defec": 8004,
      "dependents": 8005,
      "arqu": 8006,
      "arri": 8007,
      "arien": 8008,
      "arida": 8009,
      "arro": 8010,
      "arrec": 8011,
      "arques": 8012,
      "aríeu": 8013,
      "aries": 8014,
      "arides": 8015,
      "aranya": 8016,
      "argia": 8017,
      "armada": 8018,
      "ardida": 8019,
      "argü": 8020,
      "quen": 8021,
      "queres": 8022,
      "queri": 8023,
      "aní": 8024,
      "aner": 8025,
      "anun": 8026,
      "anca": 8027,
      "anet": 8028,
      "anec": 8029,
      "anida": 8030,
      "anques": 8031,
      "analitz": 8032,
      "elem": 8033,
      "elet": 8034,
      "elec": 8035,
      "eleg": 8036,
      "elosament": 8037,
      "elefant": 8038,
      "unat": 8039,
      "unis": 8040,
      "unitat": 8041,
      "ungl": 8042,
      "undaria": 8043,
      "alí": 8044,
      "alés": 8045,
      "alot": 8046,
      "alma": 8047,
      "alvi": 8048,
      "alum": 8049,
      "alco": 8050,
      "altar": 8051,
      "alcal": 8052,
      "alens": 8053,
      "alhora": 8054,
      "altes": 8055,
      "alçaren": 8056,
      "alçaria": 8057,
      "alisme": 8058,
      "altida": 8059,
      "albeg": 8060,
      "alzines": 8061,
      "reca": 8062,
      "retr": 8063,
      "rema": 8064,
      "retor": 8065,
      "reina": 8066,
      "repres": 8067,
      "revis": 8068,
      "rebra": 8069,
      "repel": 8070,
      "remes": 8071,
      "rejar": 8072,
      "retrobar": 8073,
      "reprim": 8074,
      "remala": 8075,
      "redat": 8076,
      "regada": 8077,
      "retenir": 8078,
      "regla": 8079,
      "rependre": 8080,
      "retornar": 8081,
      "refre": 8082,
      "rebes": 8083,
      "revola": 8084,
      "reprengué": 8085,
      "reira": 8086,
      "recaigué": 8087,
      "revolta": 8088,
      "regira": 8089,
      "recert": 8090,
      "refred": 8091,
      "repensa": 8092,
      "retornat": 8093,
      "removia": 8094,
      "remogué": 8095,
      "redita": 8096,
      "recaria": 8097,
      "replica": 8098,
      "realitat": 8099,
      "recaigut": 8100,
      "requis": 8101,
      "realitz": 8102,
      "regles": 8103,
      "repic": 8104,
      "repoques": 8105,
      "repenja": 8106,
      "regle": 8107,
      "reeixit": 8108,
      "refregant": 8109,
      "recercaria": 8110,
      "reuní": 8111,
      "reeixim": 8112,
      "repenjava": 8113,
      "reformar": 8114,
      "reprenia": 8115,
      "rebuda": 8116,
      "rebaixava": 8117,
      "remaleides": 8118,
      "ores": 8119,
      "orsa": 8120,
      "oris": 8121,
      "orba": 8122,
      "orge": 8123,
      "orbar": 8124,
      "orient": 8125,
      "organ": 8126,
      "orgia": 8127,
      "oriar": 8128,
      "orrompé": 8129,
      "atent": 8130,
      "atis": 8131,
      "atres": 8132,
      "atreu": 8133,
      "atret": 8134,
      "atents": 8135,
      "atenci": 8136,
      "atosament": 8137,
      "atentes": 8138,
      "atxes": 8139,
      "atesa": 8140,
      "ativament": 8141,
      "atomia": 8142,
      "atentament": 8143,
      "atives": 8144,
      "inen": 8145,
      "iner": 8146,
      "ineu": 8147,
      "ingué": 8148,
      "inga": 8149,
      "inosa": 8150,
      "intre": 8151,
      "inex": 8152,
      "invi": 8153,
      "inós": 8154,
      "inti": 8155,
      "ints": 8156,
      "incada": 8157,
      "innom": 8158,
      "inval": 8159,
      "invet": 8160,
      "invest": 8161,
      "incop": 8162,
      "incr": 8163,
      "inusa": 8164,
      "indres": 8165,
      "indub": 8166,
      "incert": 8167,
      "indom": 8168,
      "injust": 8169,
      "incompar": 8170,
      "incone": 8171,
      "inimagin": 8172,
      "incen": 8173,
      "inaments": 8174,
      "inaves": 8175,
      "incess": 8176,
      "inev": 8177,
      "intranquil": 8178,
      "intru": 8179,
      "inder": 8180,
      "inestron": 8181,
      "inexplica": 8182,
      "incapaç": 8183,
      "inversa": 8184,
      "inexplora": 8185,
      "ininterromput": 8186,
      "intranquila": 8187,
      "inavesat": 8188,
      "inestima": 8189,
      "infern": 8190,
      "innecessaria": 8191,
      "indecisió": 8192,
      "intrigat": 8193,
      "inhabitada": 8194,
      "intangible": 8195,
      "omb": 8196,
      "omar": 8197,
      "omat": 8198,
      "omis": 8199,
      "omac": 8200,
      "ombava": 8201,
      "ominós": 8202,
      "quefer": 8203,
      "queja": 8204,
      "queig": 8205,
      "quets": 8206,
      "queida": 8207,
      "quetes": 8208,
      "quedat": 8209,
      "quejant": 8210,
      "quedava": 8211,
      "quejaven": 8212,
      "quejaren": 8213,
      "quedaré": 8214,
      "quegés": 8215,
      "iada": 8216,
      "iament": 8217,
      "iadament": 8218,
      "iasta": 8219,
      "caix": 8220,
      "capr": 8221,
      "caci": 8222,
      "caga": 8223,
      "cadu": 8224,
      "casos": 8225,
      "caseu": 8226,
      "caura": 8227,
      "caben": 8228,
      "cable": 8229,
      "caval": 8230,
      "cadora": 8231,
      "calat": 8232,
      "cauria": 8233,
      "caçar": 8234,
      "casola": 8235,
      "caments": 8236,
      "cavat": 8237,
      "cadores": 8238,
      "caurien": 8239,
      "caçaria": 8240,
      "casetes": 8241,
      "cadellet": 8242,
      "entot": 8243,
      "entera": 8244,
      "entava": 8245,
      "entri": 8246,
      "entaren": 8247,
      "entreu": 8248,
      "entint": 8249,
      "entades": 8250,
      "enterra": 8251,
      "enterrada": 8252,
      "entaula": 8253,
      "entelaren": 8254,
      "onal": 8255,
      "onat": 8256,
      "onia": 8257,
      "onant": 8258,
      "onera": 8259,
      "onga": 8260,
      "onis": 8261,
      "onament": 8262,
      "onja": 8263,
      "ondre": 8264,
      "onvi": 8265,
      "onós": 8266,
      "onats": 8267,
      "ongueu": 8268,
      "onies": 8269,
      "onejants": 8270,
      "onicament": 8271,
      "onyegar": 8272,
      "sea": 8273,
      "sedi": 8274,
      "semi": 8275,
      "secar": 8276,
      "segar": 8277,
      "sejar": 8278,
      "secre": 8279,
      "segada": 8280,
      "seuria": 8281,
      "sept": 8282,
      "sediment": 8283,
      "sepul": 8284,
      "seients": 8285,
      "guera": 8286,
      "guis": 8287,
      "guís": 8288,
      "guejar": 8289,
      "gusta": 8290,
      "guejant": 8291,
      "gurants": 8292,
      "guanet": 8293,
      "ostre": 8294,
      "osti": 8295,
      "osses": 8296,
      "ossal": 8297,
      "osides": 8298,
      "osíssima": 8299,
      "avia": 8300,
      "avant": 8301,
      "avir": 8302,
      "avella": 8303,
      "avents": 8304,
      "avalot": 8305,
      "pera": 8306,
      "peren": 8307,
      "perol": 8308,
      "perles": 8309,
      "perman": 8310,
      "perfi": 8311,
      "perdon": 8312,
      "perdia": 8313,
      "perpet": 8314,
      "perdeu": 8315,
      "perto": 8316,
      "perques": 8317,
      "periment": 8318,
      "pertenir": 8319,
      "perseguit": 8320,
      "perilla": 8321,
      "perdonar": 8322,
      "perinten": 8323,
      "perden": 8324,
      "perdonat": 8325,
      "perforada": 8326,
      "perdonava": 8327,
      "perversa": 8328,
      "perspec": 8329,
      "període": 8330,
      "ams": 8331,
      "ampo": 8332,
      "amoll": 8333,
      "amarr": 8334,
      "ampat": 8335,
      "amarra": 8336,
      "amides": 8337,
      "amist": 8338,
      "amanir": 8339,
      "amples": 8340,
      "amenac": 8341,
      "americ": 8342,
      "amanida": 8343,
      "raga": 8344,
      "raça": 8345,
      "raons": 8346,
      "rafe": 8347,
      "rafa": 8348,
      "rable": 8349,
      "rabe": 8350,
      "rafeta": 8351,
      "radeta": 8352,
      "rajola": 8353,
      "noció": 8354,
      "novi": 8355,
      "nodr": 8356,
      "nocions": 8357,
      "noces": 8358,
      "notori": 8359,
      "novament": 8360,
      "notí": 8361,
      "novel": 8362,
      "novenç": 8363,
      "noctamb": 8364,
      "noguera": 8365,
      "estés": 8366,
      "estella": 8367,
      "estelles": 8368,
      "estren": 8369,
      "esties": 8370,
      "estorn": 8371,
      "estaveu": 8372,
      "estones": 8373,
      "estores": 8374,
      "estomac": 8375,
      "estavella": 8376,
      "estampat": 8377,
      "estrafeta": 8378,
      "did": 8379,
      "diem": 8380,
      "dici": 8381,
      "diri": 8382,
      "dili": 8383,
      "divi": 8384,
      "diaria": 8385,
      "ditat": 8386,
      "divis": 8387,
      "dieta": 8388,
      "didament": 8389,
      "dilat": 8390,
      "diari": 8391,
      "diguem": 8392,
      "digue": 8393,
      "diaris": 8394,
      "diplom": 8395,
      "divuit": 8396,
      "dimissió": 8397,
      "diariament": 8398,
      "dicional": 8399,
      "itec": 8400,
      "itaria": 8401,
      "itants": 8402,
      "itiva": 8403,
      "itual": 8404,
      "itori": 8405,
      "itució": 8406,
      "itablement": 8407,
      "ixi": 8408,
      "ixo": 8409,
      "ixó": 8410,
      "ixer": 8411,
      "ixins": 8412,
      "ixada": 8413,
      "ixosos": 8414,
      "otat": 8415,
      "otant": 8416,
      "otera": 8417,
      "otava": 8418,
      "otins": 8419,
      "otllar": 8420,
      "otesca": 8421,
      "otjat": 8422,
      "otxes": 8423,
      "otecar": 8424,
      "otgement": 8425,
      "otonament": 8426,
      "llom": 8427,
      "llem": 8428,
      "llinter": 8429,
      "llenca": 8430,
      "llestesa": 8431,
      "dades": 8432,
      "daurada": 8433,
      "vacant": 8434,
      "vagues": 8435,
      "vast": 8436,
      "vagin": 8437,
      "vadores": 8438,
      "vaguejar": 8439,
      "antici": 8440,
      "antílo": 8441,
      "euenca": 8442,
      "oles": 8443,
      "oleg": 8444,
      "olomat": 8445,
      "prest": 8446,
      "prota": 8447,
      "prestar": 8448,
      "presteu": 8449,
      "prestatges": 8450,
      "pruiges": 8451,
      "prorrompé": 8452,
      "desde": 8453,
      "descom": 8454,
      "descon": 8455,
      "descar": 8456,
      "desman": 8457,
      "despob": 8458,
      "desfet": 8459,
      "desple": 8460,
      "desfeia": 8461,
      "despendre": 8462,
      "desert": 8463,
      "desbor": 8464,
      "desclos": 8465,
      "desesperança": 8466,
      "desdic": 8467,
      "desxi": 8468,
      "deserta": 8469,
      "desenr": 8470,
      "desesperar": 8471,
      "desenterr": 8472,
      "descen": 8473,
      "descontent": 8474,
      "deserts": 8475,
      "desori": 8476,
      "desplom": 8477,
      "desconfiança": 8478,
      "desvergony": 8479,
      "desplaents": 8480,
      "despentinat": 8481,
      "desjuny": 8482,
      "desgracia": 8483,
      "descolgada": 8484,
      "descloure": 8485,
      "desmanegat": 8486,
      "deshabitat": 8487,
      "desball": 8488,
      "deseperança": 8489,
      "desencambra": 8490,
      "desertor": 8491,
      "descaval": 8492,
      "desenterra": 8493,
      "ema": 8494,
      "empar": 8495,
      "empen": 8496,
      "emman": 8497,
      "emple": 8498,
      "embar": 8499,
      "empassa": 8500,
      "emencia": 8501,
      "empes": 8502,
      "embot": 8503,
      "empassar": 8504,
      "emplen": 8505,
      "empetit": 8506,
      "embut": 8507,
      "emmura": 8508,
      "emmalal": 8509,
      "empresa": 8510,
      "emportat": 8511,
      "embus": 8512,
      "emfas": 8513,
      "empreson": 8514,
      "emprenent": 8515,
      "empitjor": 8516,
      "emmalalt": 8517,
      "empassant": 8518,
      "empent": 8519,
      "embadoc": 8520,
      "emperes": 8521,
      "empenediria": 8522,
      "embig": 8523,
      "comú": 8524,
      "comis": 8525,
      "compla": 8526,
      "comple": 8527,
      "comtat": 8528,
      "cometa": 8529,
      "compren": 8530,
      "comprim": 8531,
      "complau": 8532,
      "comprom": 8533,
      "compensar": 8534,
      "comics": 8535,
      "compensa": 8536,
      "comprengueren": 8537,
      "comencen": 8538,
      "compromes": 8539,
      "comprometés": 8540,
      "comentava": 8541,
      "comitiva": 8542,
      "irar": 8543,
      "irat": 8544,
      "irant": 8545,
      "irol": 8546,
      "irosa": 8547,
      "irresol": 8548,
      "irris": 8549,
      "irrita": 8550,
      "ironicament": 8551,
      "iritual": 8552,
      "sala": 8553,
      "sació": 8554,
      "sagr": 8555,
      "safar": 8556,
      "sagrat": 8557,
      "sadoll": 8558,
      "sagrada": 8559,
      "saquets": 8560,
      "ambaren": 8561,
      "ambits": 8562,
      "ambient": 8563,
      "ambdós": 8564,
      "etx": 8565,
      "etien": 8566,
      "etats": 8567,
      "ette": 8568,
      "etria": 8569,
      "etari": 8570,
      "etejat": 8571,
      "urar": 8572,
      "urament": 8573,
      "urban": 8574,
      "urce": 8575,
      "urçava": 8576,
      "urpada": 8577,
      "aster": 8578,
      "aspre": 8579,
      "assem": 8580,
      "assos": 8581,
      "astat": 8582,
      "astar": 8583,
      "assegur": 8584,
      "assentiment": 8585,
      "assum": 8586,
      "assemblés": 8587,
      "guéreu": 8588,
      "erada": 8589,
      "eració": 8590,
      "eradament": 8591,
      "eradeta": 8592,
      "cient": 8593,
      "cifer": 8594,
      "ciona": 8595,
      "cible": 8596,
      "ciencia": 8597,
      "cidesa": 8598,
      "cipal": 8599,
      "cicles": 8600,
      "cidents": 8601,
      "cigaven": 8602,
      "cificat": 8603,
      "cialitat": 8604,
      "civada": 8605,
      "cidental": 8606,
      "obit": 8607,
      "obri": 8608,
      "obses": 8609,
      "obrada": 8610,
      "obeia": 8611,
      "oberts": 8612,
      "oblit": 8613,
      "observava": 8614,
      "obagament": 8615,
      "ellir": 8616,
      "ellera": 8617,
      "elloses": 8618,
      "tral": 8619,
      "trus": 8620,
      "traven": 8621,
      "trencara": 8622,
      "truc": 8623,
      "trop": 8624,
      "truit": 8625,
      "tratges": 8626,
      "trista": 8627,
      "trarem": 8628,
      "travada": 8629,
      "trineu": 8630,
      "total": 8631,
      "totduna": 8632,
      "haven": 8633,
      "havíen": 8634,
      "dellant": 8635,
      "delirava": 8636,
      "delibera": 8637,
      "delirar": 8638,
      "sius": 8639,
      "sipa": 8640,
      "sibles": 8641,
      "siguin": 8642,
      "sign": 8643,
      "sibil": 8644,
      "sionada": 8645,
      "sificada": 8646,
      "aquós": 8647,
      "aqueres": 8648,
      "gai": 8649,
      "gala": 8650,
      "gaia": 8651,
      "gais": 8652,
      "gadissos": 8653,
      "gaires": 8654,
      "capes": 8655,
      "capella": 8656,
      "capac": 8657,
      "captenia": 8658,
      "capses": 8659,
      "captenir": 8660,
      "capfica": 8661,
      "capides": 8662,
      "captingut": 8663,
      "capgros": 8664,
      "capvespre": 8665,
      "capgirar": 8666,
      "capítol": 8667,
      "ises": 8668,
      "isel": 8669,
      "istra": 8670,
      "istia": 8671,
      "istat": 8672,
      "isses": 8673,
      "isbor": 8674,
      "iscament": 8675,
      "istil": 8676,
      "haig": 8677,
      "haurem": 8678,
      "mapa": 8679,
      "magat": 8680,
      "magi": 8681,
      "maseg": 8682,
      "macu": 8683,
      "madura": 8684,
      "maxima": 8685,
      "madíssim": 8686,
      "pares": 8687,
      "paria": 8688,
      "parés": 8689,
      "parem": 8690,
      "parli": 8691,
      "parres": 8692,
      "paraven": 8693,
      "partia": 8694,
      "parells": 8695,
      "parada": 8696,
      "parelles": 8697,
      "partiu": 8698,
      "parvera": 8699,
      "parentela": 8700,
      "parpella": 8701,
      "parcialitat": 8702,
      "taca": 8703,
      "tada": 8704,
      "taps": 8705,
      "tacions": 8706,
      "tabaix": 8707,
      "tadora": 8708,
      "tacat": 8709,
      "tablement": 8710,
      "tacades": 8711,
      "tauper": 8712,
      "hidr": 8713,
      "hipno": 8714,
      "conca": 8715,
      "convi": 8716,
      "contat": 8717,
      "confos": 8718,
      "consu": 8719,
      "contenia": 8720,
      "confu": 8721,
      "convingué": 8722,
      "conill": 8723,
      "convida": 8724,
      "congrat": 8725,
      "consentit": 8726,
      "consentiment": 8727,
      "contenien": 8728,
      "conserv": 8729,
      "consegüent": 8730,
      "confront": 8731,
      "conduia": 8732,
      "convindria": 8733,
      "conservar": 8734,
      "concav": 8735,
      "convé": 8736,
      "conquer": 8737,
      "conclusió": 8738,
      "conhort": 8739,
      "poll": 8740,
      "poosa": 8741,
      "pous": 8742,
      "posem": 8743,
      "pogueren": 8744,
      "pogues": 8745,
      "pogueu": 8746,
      "poesia": 8747,
      "rient": 8748,
      "ricar": 8749,
      "rival": 8750,
      "riços": 8751,
      "riols": 8752,
      "rigor": 8753,
      "riurien": 8754,
      "rificada": 8755,
      "riquejaren": 8756,
      "llac": 8757,
      "llador": 8758,
      "llacs": 8759,
      "llapis": 8760,
      "llast": 8761,
      "llamina": 8762,
      "llaurant": 8763,
      "lladrar": 8764,
      "llaurava": 8765,
      "llaradeta": 8766,
      "mentó": 8767,
      "mental": 8768,
      "mentat": 8769,
      "mentit": 8770,
      "mentals": 8771,
      "usar": 8772,
      "uscament": 8773,
      "usualment": 8774,
      "liol": 8775,
      "lisa": 8776,
      "licor": 8777,
      "lible": 8778,
      "lidesa": 8779,
      "licció": 8780,
      "limita": 8781,
      "limitat": 8782,
      "lecció": 8783,
      "legí": 8784,
      "leptic": 8785,
      "miant": 8786,
      "miola": 8787,
      "migr": 8788,
      "midor": 8789,
      "midament": 8790,
      "midora": 8791,
      "migrat": 8792,
      "mirem": 8793,
      "migrada": 8794,
      "card": 8795,
      "carat": 8796,
      "caram": 8797,
      "carien": 8798,
      "carro": 8799,
      "caric": 8800,
      "carrec": 8801,
      "carru": 8802,
      "caraver": 8803,
      "carones": 8804,
      "cargola": 8805,
      "carcassa": 8806,
      "carriquejaren": 8807,
      "eixeu": 8808,
      "eixís": 8809,
      "eixint": 8810,
      "eixiu": 8811,
      "eixord": 8812,
      "eixorda": 8813,
      "ellar": 8814,
      "ellas": 8815,
      "ellats": 8816,
      "orada": 8817,
      "orades": 8818,
      "oració": 8819,
      "orable": 8820,
      "ferm": 8821,
      "feres": 8822,
      "ferma": 8823,
      "ferson": 8824,
      "feresta": 8825,
      "fermeu": 8826,
      "ferula": 8827,
      "ferros": 8828,
      "feridora": 8829,
      "feredat": 8830,
      "feriria": 8831,
      "fereixi": 8832,
      "fermaven": 8833,
      "ferrats": 8834,
      "ferotgement": 8835,
      "arenós": 8836,
      "alló": 8837,
      "allen": 8838,
      "allonga": 8839,
      "allotjat": 8840,
      "minat": 8841,
      "minva": 8842,
      "minants": 8843,
      "minvar": 8844,
      "minvat": 8845,
      "minvant": 8846,
      "minstr": 8847,
      "minuci": 8848,
      "minvats": 8849,
      "ministra": 8850,
      "Nou": 8851,
      "Noies": 8852,
      "inson": 8853,
      "inspir": 8854,
      "inspirat": 8855,
      "insuf": 8856,
      "instancia": 8857,
      "inserta": 8858,
      "insult": 8859,
      "instint": 8860,
      "insuporta": 8861,
      "insatis": 8862,
      "instruit": 8863,
      "senador": 8864,
      "sensiblement": 8865,
      "trait": 8866,
      "trades": 8867,
      "trair": 8868,
      "traus": 8869,
      "traça": 8870,
      "tragués": 8871,
      "traura": 8872,
      "trauria": 8873,
      "tragina": 8874,
      "traidora": 8875,
      "trapell": 8876,
      "tracció": 8877,
      "tradició": 8878,
      "traeixen": 8879,
      "traidors": 8880,
      "trauríem": 8881,
      "trafec": 8882,
      "traureu": 8883,
      "traordin": 8884,
      "traurem": 8885,
      "tradicions": 8886,
      "traguejant": 8887,
      "tradicional": 8888,
      "pastor": 8889,
      "pasme": 8890,
      "passem": 8891,
      "pastells": 8892,
      "resson": 8893,
      "resolt": 8894,
      "rescament": 8895,
      "resign": 8896,
      "respira": 8897,
      "resistí": 8898,
      "resurrecció": 8899,
      "resonant": 8900,
      "resistia": 8901,
      "veir": 8902,
      "veina": 8903,
      "vegi": 8904,
      "vexa": 8905,
      "vegeta": 8906,
      "vexada": 8907,
      "vehement": 8908,
      "corc": 8909,
      "corba": 8910,
      "corona": 8911,
      "corpor": 8912,
      "corcs": 8913,
      "correr": 8914,
      "cordeu": 8915,
      "cordat": 8916,
      "corfon": 8917,
      "cordant": 8918,
      "corns": 8919,
      "cortrencat": 8920,
      "coronat": 8921,
      "corsecar": 8922,
      "corriols": 8923,
      "mati": 8924,
      "mats": 8925,
      "matat": 8926,
      "matura": 8927,
      "mataria": 8928,
      "matron": 8929,
      "mataré": 8930,
      "matéssiu": 8931,
      "materies": 8932,
      "matories": 8933,
      "maturament": 8934,
      "seres": 8935,
      "sereu": 8936,
      "serem": 8937,
      "servi": 8938,
      "serven": 8939,
      "seríeu": 8940,
      "servida": 8941,
      "servint": 8942,
      "seriosament": 8943,
      "serpent": 8944,
      "serrar": 8945,
      "serenes": 8946,
      "unts": 8947,
      "untaria": 8948,
      "ortiga": 8949,
      "penal": 8950,
      "penda": 8951,
      "penós": 8952,
      "penna": 8953,
      "pendria": 8954,
      "pensió": 8955,
      "pendent": 8956,
      "pendra": 8957,
      "penges": 8958,
      "penjant": 8959,
      "penombra": 8960,
      "pendré": 8961,
      "pennada": 8962,
      "penjaments": 8963,
      "tern": 8964,
      "termes": 8965,
      "termom": 8966,
      "teritz": 8967,
      "terbol": 8968,
      "terran": 8969,
      "tercera": 8970,
      "teriors": 8971,
      "terregada": 8972,
      "terminants": 8973,
      "jagué": 8974,
      "jagueren": 8975,
      "jaços": 8976,
      "jauria": 8977,
      "jadores": 8978,
      "jaqueta": 8979,
      "jaurien": 8980,
      "manar": 8981,
      "manat": 8982,
      "manament": 8983,
      "mandr": 8984,
      "mandol": 8985,
      "manoi": 8986,
      "mancaven": 8987,
      "manastre": 8988,
      "manufac": 8989,
      "çades": 8990,
      "çaprem": 8991,
      "onses": 8992,
      "vols": 8993,
      "volca": 8994,
      "volgué": 8995,
      "volitat": 8996,
      "voltat": 8997,
      "volgueren": 8998,
      "volcant": 8999,
      "volguda": 9000,
      "voldreu": 9001,
      "voldré": 9002,
      "voltejar": 9003,
      "voluble": 9004,
      "tanes": 9005,
      "tancava": 9006,
      "tancaven": 9007,
      "tancial": 9008,
      "tancats": 9009,
      "tanqueu": 9010,
      "tanyada": 9011,
      "taniament": 9012,
      "diguéreu": 9013,
      "previ": 9014,
      "pretat": 9015,
      "pread": 9016,
      "preada": 9017,
      "precia": 9018,
      "pretes": 9019,
      "prece": 9020,
      "preades": 9021,
      "preveié": 9022,
      "pretenien": 9023,
      "prepon": 9024,
      "predomin": 9025,
      "prepara": 9026,
      "preadora": 9027,
      "precaria": 9028,
      "preparant": 9029,
      "preferir": 9030,
      "pretengué": 9031,
      "prematura": 9032,
      "trec": 9033,
      "treta": 9034,
      "tremen": 9035,
      "trepit": 9036,
      "tretes": 9037,
      "tremitats": 9038,
      "préssec": 9039,
      "paella": 9040,
      "papa": 9041,
      "padr": 9042,
      "pacions": 9043,
      "pagan": 9044,
      "palan": 9045,
      "pago": 9046,
      "paula": 9047,
      "palada": 9048,
      "paguen": 9049,
      "paquet": 9050,
      "papall": 9051,
      "paparres": 9052,
      "fecia": 9053,
      "febres": 9054,
      "feeer": 9055,
      "tores": 9056,
      "torar": 9057,
      "toresc": 9058,
      "torneig": 9059,
      "fiant": 9060,
      "fidor": 9061,
      "fico": 9062,
      "fican": 9063,
      "filos": 9064,
      "ficaren": 9065,
      "ficis": 9066,
      "ficats": 9067,
      "fiquen": 9068,
      "imes": 9069,
      "imosa": 9070,
      "immen": 9071,
      "imposa": 9072,
      "importat": 9073,
      "implora": 9074,
      "implorant": 9075,
      "immun": 9076,
      "imperfecte": 9077,
      "impaciencia": 9078,
      "imperceptible": 9079,
      "imonies": 9080,
      "immaturament": 9081,
      "dul": 9082,
      "duel": 9083,
      "duent": 9084,
      "ducs": 9085,
      "dutes": 9086,
      "absent": 9087,
      "abreu": 9088,
      "ablan": 9089,
      "abatu": 9090,
      "abatre": 9091,
      "abord": 9092,
      "abjecte": 9093,
      "abillar": 9094,
      "abrusava": 9095,
      "abaltida": 9096,
      "abombava": 9097,
      "abonyegar": 9098,
      "abastar": 9099,
      "abellir": 9100,
      "tendes": 9101,
      "tendra": 9102,
      "tendres": 9103,
      "tendencia": 9104,
      "tenberg": 9105,
      "proveu": 9106,
      "profet": 9107,
      "proves": 9108,
      "proposat": 9109,
      "profit": 9110,
      "projec": 9111,
      "profan": 9112,
      "procedir": 9113,
      "procés": 9114,
      "procura": 9115,
      "progres": 9116,
      "proveir": 9117,
      "propagan": 9118,
      "profecia": 9119,
      "medor": 9120,
      "medalla": 9121,
      "Perill": 9122,
      "Perdé": 9123,
      "Percaça": 9124,
      "gror": 9125,
      "groc": 9126,
      "groll": 9127,
      "grana": 9128,
      "grua": 9129,
      "gravada": 9130,
      "grotesca": 9131,
      "doni": 9132,
      "donen": 9133,
      "donit": 9134,
      "donaria": 9135,
      "donada": 9136,
      "verda": 9137,
      "verson": 9138,
      "verna": 9139,
      "verdor": 9140,
      "verge": 9141,
      "verdet": 9142,
      "vertiren": 9143,
      "veritablement": 9144,
      "igs": 9145,
      "igis": 9146,
      "igament": 9147,
      "igne": 9148,
      "dara": 9149,
      "dari": 9150,
      "darien": 9151,
      "daríeu": 9152,
      "amuntegava": 9153,
      "amuntegaren": 9154,
      "amuntegats": 9155,
      "amuntegui": 9156,
      "blat": 9157,
      "blana": 9158,
      "blaves": 9159,
      "sonar": 9160,
      "sonat": 9161,
      "sonava": 9162,
      "sonaren": 9163,
      "dregada": 9164,
      "dreçava": 9165,
      "drecera": 9166,
      "diadament": 9167,
      "diables": 9168,
      "diamant": 9169,
      "diametre": 9170,
      "exec": 9171,
      "exce": 9172,
      "exalt": 9173,
      "exces": 9174,
      "exist": 9175,
      "expli": 9176,
      "exalta": 9177,
      "excep": 9178,
      "explorant": 9179,
      "exquis": 9180,
      "exempla": 9181,
      "extracte": 9182,
      "exag": 9183,
      "excés": 9184,
      "extensos": 9185,
      "explorés": 9186,
      "excitats": 9187,
      "exemple": 9188,
      "extraordin": 9189,
      "extremitats": 9190,
      "sostenia": 9191,
      "sosté": 9192,
      "sossec": 9193,
      "sostingut": 9194,
      "sostingué": 9195,
      "sospesant": 9196,
      "sossegat": 9197,
      "sospira": 9198,
      "sospesa": 9199,
      "sossegada": 9200,
      "Quina": 9201,
      "Quants": 9202,
      "Quelcom": 9203,
      "Quanta": 9204,
      "escull": 9205,
      "escru": 9206,
      "escros": 9207,
      "escanyar": 9208,
      "escolta": 9209,
      "escrita": 9210,
      "escenes": 9211,
      "escultura": 9212,
      "escórrer": 9213,
      "escenari": 9214,
      "escoles": 9215,
      "escurçava": 9216,
      "anyable": 9217,
      "avença": 9218,
      "facin": 9219,
      "fadora": 9220,
      "vici": 9221,
      "vidu": 9222,
      "vidre": 9223,
      "vives": 9224,
      "visible": 9225,
      "victima": 9226,
      "vianant": 9227,
      "viuríem": 9228,
      "visiblement": 9229,
      "vidareu": 9230,
      "uts": 9231,
      "utar": 9232,
      "utant": 9233,
      "utir": 9234,
      "homenatge": 9235,
      "Laudes": 9236,
      "umar": 9237,
      "umna": 9238,
      "joies": 9239,
      "joiells": 9240,
      "veuen": 9241,
      "veura": 9242,
      "veuré": 9243,
      "ectiu": 9244,
      "nauf": 9245,
      "poso": 9246,
      "posen": 9247,
      "posta": 9248,
      "posats": 9249,
      "positiu": 9250,
      "posteriors": 9251,
      "temo": 9252,
      "temes": 9253,
      "tement": 9254,
      "temien": 9255,
      "temple": 9256,
      "temessin": 9257,
      "temuda": 9258,
[...]
