{
  "version": "1.0",
  "truncation": null,
  "padding": null,
  "added_tokens": [
    {
      "id": 0,
      "content": "<pad>",
      "single_word": false,
      "lstrip": false,
      "rstrip": false,
      "normalized": false,
      "special": true
    },
    {
      "id": 1,
      "content": "<sos>",
      "single_word": false,
      "lstrip": false,
      "rstrip": false,
      "normalized": false,
      "special": true
    },
    {
      "id": 2,
      "content": "<eos>",
      "single_word": false,
      "lstrip": false,
      "rstrip": false,
      "normalized": false,
      "special": true
    },
    {
      "id": 3,
      "content": "<unk>",
      "single_word": false,
      "lstrip": false,
      "rstrip": false,
      "normalized": false,
      "special": true
    }
  ],
  "normalizer": null,
  "pre_tokenizer": {
    "type": "Whitespace"
  },
  "post_processor": null,
  "decoder": null,
  "model": {
    "type": "BPE",
    "dropout": null,
    "unk_token": "<unk>",
    "continuing_subword_prefix": null,
    "end_of_word_suffix": null,
    "fuse_unk": false,
    "byte_fallback": false,
    "ignore_merges": false,
    "vocab": {
      "<pad>": 0,
      "<sos>": 1,
      "<eos>": 2,
      "<unk>": 3,
      "!": 4,
      "\"": 5,
      "&": 6,
      "'": 7,
      "(": 8,
      ")": 9,
      "*": 10,
      "+": 11,
      ",": 12,
      "-": 13,
      ".": 14,
      "/": 15,
      "0": 16,
      "1": 17,
      "2": 18,
      "3": 19,
      "4": 20,
      "5": 21,
      "6": 22,
      "7": 23,
      "8": 24,
      "9": 25,
      ":": 26,
      ";": 27,
      "=": 28,
      "?": 29,
      "A": 30,
      "B": 31,
      "C": 32,
      "D": 33,
      "E": 34,
      "F": 35,
      "G": 36,
      "H": 37,
      "I": 38,
      "J": 39,
      "K": 40,
      "L": 41,
      "M": 42,
      "N": 43,
      "O": 44,
      "P": 45,
      "Q": 46,
      "R": 47,
      "S": 48,
      "T": 49,
      "U": 50,
      "V": 51,
      "W": 52,
      "X": 53,
      "Y": 54,
      "Z": 55,
      "[": 56,
      "]": 57,
      "_": 58,
      "a": 59,
      "b": 60,
      "c": 61,
      "d": 62,
      "e": 63,
      "f": 64,
      "g": 65,
      "h": 66,
      "i": 67,
      "j": 68,
      "k": 69,
      "l": 70,
      "m": 71,
      "n": 72,
      "o": 73,
      "p": 74,
      "q": 75,
      "r": 76,
      "s": 77,
      "t": 78,
      "u": 79,
      "v": 80,
      "w": 81,
      "x": 82,
      "y": 83,
      "z": 84,
      "«": 85,
      "°": 86,
      "»": 87,
      "Ä": 88,
      "Ç": 89,
      "Ö": 90,
      "Ü": 91,
      "ß": 92,
      "à": 93,
      "â": 94,
      "ä": 95,
      "ç": 96,
      "è": 97,
      "é": 98,
      "ê": 99,
      "ë": 100,
      "î": 101,
      "ï": 102,
      "ñ": 103,
      "ò": 104,
      "ô": 105,
      "ö": 106,
      "ü": 107,
      "œ": 108,
      "Α": 109,
      "Γ": 110,
      "Η": 111,
      "Κ": 112,
      "Ν": 113,
      "α": 114,
      "β": 115,
      "γ": 116,
      "δ": 117,
      "ε": 118,
      "κ": 119,
      "λ": 120,
      "μ": 121,
      "ν": 122,
      "ο": 123,
      "ς": 124,
      "τ": 125,
      "Ἀ": 126,
      "Ὀ": 127,
      "έ": 128,
      "ί": 129,
      "–": 130,
      "’": 131,
      "“": 132,
      "„": 133,
      "‹": 134,
      "›": 135,
      "en": 136,
      "er": 137,
      "ch": 138,
      "ei": 139,
      "ie": 140,
      "te": 141,
      "nd": 142,
      "ich": 143,
      "ein": 144,
      "es": 145,
      "an": 146,
      "in": 147,
      "au": 148,
      "und": 149,
      "st": 150,
      "ge": 151,
      "der": 152,
      "die": 153,
      "sch": 154,
      "da": 155,
      "zu": 156,
      "gen": 157,
      "un": 158,
      "ar": 159,
      "al": 160,
      "hr": 161,
      "den": 162,
      "em": 163,
      "ten": 164,
      "it": 165,
      "el": 166,
      "or": 167,
      "icht": 168,
      "on": 169,
      "ha": 170,
      "ber": 171,
      "sie": 172,
      "ck": 173,
      "ach": 174,
      "lich": 175,
      "ll": 176,
      "ter": 177,
      "war": 178,
      "be": 179,
      "ig": 180,
      "sich": 181,
      "nicht": 182,
      "eine": 183,
      "mm": 184,
      "and": 185,
      "auf": 186,
      "ir": 187,
      "ur": 188,
      "se": 189,
      "so": 190,
      "as": 191,
      "ben": 192,
      "mit": 193,
      "ver": 194,
      "de": 195,
      "hn": 196,
      "sa": 197,
      "le": 198,
      "das": 199,
      "re": 200,
      "ihr": 201,
      "ung": 202,
      "ür": 203,
      "wie": 204,
      "och": 205,
      "hat": 206,
      "eit": 207,
      "sein": 208,
      "ann": 209,
      "tz": 210,
      "dem": 211,
      "von": 212,
      "sen": 213,
      "daß": 214,
      "aus": 215,
      "Sie": 216,
      "ist": 217,
      "gte": 218,
      "hm": 219,
      "Sch": 220,
      "ra": 221,
      "um": 222,
      "ges": 223,
      "des": 224,
      "wei": 225,
      "hatte": 226,
      "hen": 227,
      "ne": 228,
      "her": 229,
      "als": 230,
      "ro": 231,
      "ind": 232,
      "all": 233,
      "wo": 234,
      "über": 235,
      "einen": 236,
      "je": 237,
      "hl": 238,
      "am": 239,
      "Er": 240,
      "St": 241,
      "vor": 242,
      "Au": 243,
      "lei": 244,
      "imm": 245,
      "is": 246,
      "ern": 247,
      ".«": 248,
      "lie": 249,
      "bei": 250,
      "chen": 251,
      "ft": 252,
      "rei": 253,
      "li": 254,
      "ihn": 255,
      "cht": 256,
      "he": 257,
      "hin": 258,
      "enn": 259,
      "aber": 260,
      "ste": 261,
      "ück": 262,
      "Ich": 263,
      "ihm": 264,
      "ier": 265,
      "dies": 266,
      "isch": 267,
      "was": 268,
      "at": 269,
      "anz": 270,
      "pf": 271,
      "Ge": 272,
      "wer": 273,
      "ger": 274,
      "noch": 275,
      "ut": 276,
      "für": 277,
      "ol": 278,
      "nach": 279,
      "et": 280,
      "sagte": 281,
      "im": 282,
      "An": 283,
      "wir": 284,
      "lo": 285,
      "bes": 286,
      "uß": 287,
      "rau": 288,
      "sp": 289,
      "sel": 290,
      "mmen": 291,
      "la": 292,
      "mich": 293,
      "Ver": 294,
      "gew": 295,
      "ff": 296,
      "iel": 297,
      "ön": 298,
      "!«": 299,
      "igen": 300,
      "fü": 301,
      "Ges": 302,
      "ab": 303,
      "mir": 304,
      "ehr": 305,
      "ru": 306,
      "che": 307,
      "du": 308,
      "auch": 309,
      "ort": 310,
      "nur": 311,
      "einer": 312,
      "ing": 313,
      "?«": 314,
      "immer": 315,
      "urch": 316,
      "ent": 317,
      "Die": 318,
      "rie": 319,
      "einem": 320,
      "ko": 321,
      "lick": 322,
      "ör": 323,
      "ganz": 324,
      "na": 325,
      "lä": 326,
      "wel": 327,
      "nen": 328,
      "tzt": 329,
      "wä": 330,
      "ahr": 331,
      "durch": 332,
      "ige": 333,
      "chte": 334,
      "br": 335,
      "ien": 336,
      "ken": 337,
      "wieder": 338,
      "wi": 339,
      "Ar": 340,
      "mach": 341,
      "gt": 342,
      "man": 343,
      "end": 344,
      "hä": 345,
      "we": 346,
      "eu": 347,
      "lan": 348,
      "seine": 349,
      "rä": 350,
      "unter": 351,
      "«,": 352,
      "wenn": 353,
      "sten": 354,
      "vo": 355,
      "hal": 356,
      "ungen": 357,
      "Her": 358,
      "ander": 359,
      "doch": 360,
      "zur": 361,
      "dar": 362,
      "keit": 363,
      "Be": 364,
      "Und": 365,
      "blick": 366,
      "Augen": 367,
      "ster": 368,
      "Es": 369,
      "..": 370,
      "stand": 371,
      "Aber": 372,
      "erk": 373,
      "ßen": 374,
      "eil": 375,
      "lau": 376,
      "mal": 377,
      "eben": 378,
      "habe": 379,
      "tete": 380,
      "ja": 381,
      "rü": 382,
      "jew": 383,
      "ob": 384,
      "änd": 385,
      "ser": 386,
      "llte": 387,
      "il": 388,
      "kl": 389,
      "gel": 390,
      "Un": 391,
      "dann": 392,
      "llen": 393,
      "mehr": 394,
      "ohn": 395,
      "ihre": 396,
      "ot": 397,
      "heit": 398,
      "Ein": 399,
      "haben": 400,
      "bst": 401,
      "hör": 402,
      "jetzt": 403,
      "denn": 404,
      "Das": 405,
      "kann": 406,
      "kommen": 407,
      "fen": 408,
      "lichen": 409,
      "sk": 410,
      "diese": 411,
      "wür": 412,
      "seiner": 413,
      "las": 414,
      "nie": 415,
      "glei": 416,
      "kön": 417,
      "zen": 418,
      "Der": 419,
      "scha": 420,
      "sehr": 421,
      "bar": 422,
      "pp": 423,
      "hei": 424,
      "ischen": 425,
      "bt": 426,
      "sei": 427,
      "schon": 428,
      "uch": 429,
      "lle": 430,
      "Ihr": 431,
      "tte": 432,
      "oder": 433,
      "esen": 434,
      "nte": 435,
      "wur": 436,
      "mein": 437,
      "wen": 438,
      "waren": 439,
      "acht": 440,
      "liche": 441,
      "zum": 442,
      "wor": 443,
      "schen": 444,
      "werden": 445,
      "sah": 446,
      "itt": 447,
      "alle": 448,
      "sam": 449,
      "selbst": 450,
      ",«": 451,
      "gegen": 452,
      "fort": 453,
      "ner": 454,
      "zwei": 455,
      "gesch": 456,
      "Frau": 457,
      "muß": 458,
      "dieser": 459,
      "In": 460,
      "kam": 461,
      "ul": 462,
      "gro": 463,
      "ri": 464,
      "om": 465,
      "gef": 466,
      "los": 467,
      "ant": 468,
      "dr": 469,
      "ell": 470,
      "ag": 471,
      "wohl": 472,
      "beg": 473,
      "ren": 474,
      "sind": 475,
      "gar": 476,
      "itsch": 477,
      "tet": 478,
      "Ljew": 479,
      "Ljewin": 480,
      "ert": 481,
      "alles": 482,
      "gleich": 483,
      "kon": 484,
      "seinen": 485,
      "hier": 486,
      "fra": 487,
      "welche": 488,
      "nichts": 489,
      "etwas": 490,
      "fe": 491,
      "sehen": 492,
      ",,": 493,
      "Ko": 494,
      "schaft": 495,
      "Al": 496,
      "meine": 497,
      "ers": 498,
      "mü": 499,
      "angen": 500,
      "lex": 501,
      "mö": 502,
      "us": 503,
      "tra": 504,
      "Hand": 505,
      "Zeit": 506,
      "jen": 507,
      "Alex": 508,
      "ohne": 509,
      "--": 510,
      "Was": 511,
      "iger": 512,
      "ank": 513,
      "eines": 514,
      "zurück": 515,
      "Vor": 516,
      "will": 517,
      "seinem": 518,
      "tes": 519,
      "fühl": 520,
      "eigen": 521,
      "cken": 522,
      "ad": 523,
      "lassen": 524,
      "ingen": 525,
      "Sp": 526,
      "cher": 527,
      "glich": 528,
      "ang": 529,
      "ließ": 530,
      "ze": 531,
      "wurde": 532,
      "setz": 533,
      "ging": 534,
      "igkeit": 535,
      "ffen": 536,
      "rach": 537,
      "eln": 538,
      "ht": 539,
      "wird": 540,
      "Re": 541,
      "hätte": 542,
      "viel": 543,
      "ihrer": 544,
      "nä": 545,
      "ße": 546,
      "konnte": 547,
      "ün": 548,
      "gehen": 549,
      "ski": 550,
      "voll": 551,
      "erst": 552,
      "gend": 553,
      "bis": 554,
      "Ste": 555,
      "nis": 556,
      "zw": 557,
      "lück": 558,
      "est": 559,
      "ihren": 560,
      "Men": 561,
      "Mann": 562,
      "reu": 563,
      "hrend": 564,
      "ßt": 565,
      "dich": 566,
      "bin": 567,
      "Hau": 568,
      "Ja": 569,
      "hnen": 570,
      "Ta": 571,
      "sagen": 572,
      "ho": 573,
      "nun": 574,
      "zo": 575,
      "th": 576,
      "allen": 577,
      "geben": 578,
      "Herr": 579,
      "Kind": 580,
      "Wie": 581,
      "weg": 582,
      "fragte": 583,
      "Gesicht": 584,
      "Zu": 585,
      "Wei": 586,
      "würde": 587,
      "geb": 588,
      "Aus": 589,
      "wollte": 590,
      "alt": 591,
      "diesem": 592,
      "Augenblick": 593,
      "su": 594,
      "werde": 595,
      "Pf": 596,
      "me": 597,
      "einmal": 598,
      "tel": 599,
      "schien": 600,
      "är": 601,
      "halten": 602,
      "wand": 603,
      "weil": 604,
      "iß": 605,
      "men": 606,
      "rief": 607,
      "sicht": 608,
      "rö": 609,
      "keine": 610,
      "kt": 611,
      "ade": 612,
      "Leben": 613,
      "lü": 614,
      "ute": 615,
      "issen": 616,
      "Auf": 617,
      "ald": 618,
      "So": 619,
      "hmen": 620,
      "neu": 621,
      "anken": 622,
      "ron": 623,
      "än": 624,
      "gewesen": 625,
      "Ged": 626,
      "Kopf": 627,
      "lö": 628,
      "lang": 629,
      "Gr": 630,
      "fol": 631,
      "sammen": 632,
      "ahren": 633,
      "lu": 634,
      "gest": 635,
      "nt": 636,
      "erin": 637,
      "fa": 638,
      "unde": 639,
      "hiel": 640,
      "können": 641,
      "ange": 642,
      "wenig": 643,
      "Th": 644,
      "uns": 645,
      "dieses": 646,
      "glau": 647,
      "mä": 648,
      "lieb": 649,
      "nde": 650,
      "Mit": 651,
      "Da": 652,
      "zei": 653,
      "ßer": 654,
      "ihrem": 655,
      "führ": 656,
      "Zimmer": 657,
      "ihnen": 658,
      "Bes": 659,
      "nahm": 660,
      "unden": 661,
      "sche": 662,
      "dir": 663,
      "machen": 664,
      "...": 665,
      "äu": 666,
      "elt": 667,
      "dig": 668,
      "wa": 669,
      "ache": 670,
      "während": 671,
      "Wron": 672,
      "Wir": 673,
      "Lie": 674,
      "sond": 675,
      "gese": 676,
      "witsch": 677,
      "uhr": 678,
      "wuß": 679,
      "Als": 680,
      "ick": 681,
      "Nach": 682,
      "stehen": 683,
      "Du": 684,
      "antwor": 685,
      "hö": 686,
      "ond": 687,
      "machte": 688,
      "gut": 689,
      "ständ": 690,
      "hatten": 691,
      "wäre": 692,
      "Se": 693,
      "Mr": 694,
      "tern": 695,
      "sol": 696,
      "tig": 697,
      "ele": 698,
      "inn": 699,
      "recht": 700,
      "weiter": 701,
      "get": 702,
      "zusammen": 703,
      "gerade": 704,
      "Ihnen": 705,
      "fuhr": 706,
      "hielt": 707,
      "bet": 708,
      "bem": 709,
      "rechen": 710,
      "Blick": 711,
      "dachte": 712,
      "elte": 713,
      "Tom": 714,
      "versch": 715,
      "wahr": 716,
      "erg": 717,
      "Bo": 718,
      "erz": 719,
      "weiß": 720,
      "Ger": 721,
      "Für": 722,
      "Stimm": 723,
      "ill": 724,
      "Anna": 725,
      "Bet": 726,
      "pt": 727,
      "Wronski": 728,
      "ke": 729,
      "lange": 730,
      "tlich": 731,
      "Wor": 732,
      "brach": 733,
      "ische": 734,
      "Sei": 735,
      "schein": 736,
      "zer": 737,
      "geg": 738,
      "Nun": 739,
      "vom": 740,
      "La": 741,
      "diesen": 742,
      "Wenn": 743,
      "Gesch": 744,
      "mals": 745,
      "äd": 746,
      "Unter": 747,
      "fel": 748,
      "ssen": 749,
      "bel": 750,
      "hol": 751,
      "hörte": 752,
      "Ab": 753,
      "Alexand": 754,
      "ins": 755,
      "macht": 756,
      "wider": 757,
      "richt": 758,
      "äch": 759,
      "bald": 760,
      "Alexandro": 761,
      "Ka": 762,
      "orgen": 763,
      "begann": 764,
      "orden": 765,
      "Kitt": 766,
      "Ha": 767,
      "Kitty": 768,
      "legen": 769,
      "halb": 770,
      "kein": 771,
      "besch": 772,
      "lag": 773,
      "schn": 774,
      "irgend": 775,
      "blickte": 776,
      "setzte": 777,
      "ester": 778,
      "find": 779,
      "ochen": 780,
      "Mut": 781,
      "sondern": 782,
      "Man": 783,
      "vie": 784,
      "fand": 785,
      "gung": 786,
      "kel": 787,
      "sprach": 788,
      "ka": 789,
      "ßte": 790,
      "Ru": 791,
      "unge": 792,
      "llt": 793,
      "drei": 794,
      "hlen": 795,
      "komm": 796,
      "ng": 797,
      "art": 798,
      "zie": 799,
      "klich": 800,
      "ts": 801,
      "zwischen": 802,
      "antwortete": 803,
      "Je": 804,
      "aum": 805,
      "nehmen": 806,
      "Wa": 807,
      "aller": 808,
      "welch": 809,
      "Rei": 810,
      "fr": 811,
      "Bei": 812,
      "Bru": 813,
      "Tür": 814,
      "ruck": 815,
      "fte": 816,
      "Mäd": 817,
      "Gedanken": 818,
      "Händ": 819,
      "od": 820,
      "mmer": 821,
      "gab": 822,
      "Dann": 823,
      "Ma": 824,
      "Wo": 825,
      "War": 826,
      "ma": 827,
      "bend": 828,
      "ion": 829,
      "schön": 830,
      "best": 831,
      "licher": 832,
      "Got": 833,
      "meiner": 834,
      "Dam": 835,
      "Haus": 836,
      "zog": 837,
      "Nein": 838,
      "nü": 839,
      "alten": 840,
      "ruh": 841,
      "ganze": 842,
      "fühlte": 843,
      "Mädchen": 844,
      "Le": 845,
      "Land": 846,
      "teil": 847,
      "mußte": 848,
      "dort": 849,
      "wollen": 850,
      "meinen": 851,
      "itte": 852,
      "cke": 853,
      "ennen": 854,
      "Schw": 855,
      "Lei": 856,
      "Um": 857,
      "nete": 858,
      "pa": 859,
      "schw": 860,
      "itz": 861,
      "Gel": 862,
      "tzlich": 863,
      "eits": 864,
      "möglich": 865,
      "andere": 866,
      "Stimme": 867,
      "nung": 868,
      "ckte": 869,
      "drück": 870,
      "Emm": 871,
      "di": 872,
      "hau": 873,
      "bte": 874,
      "ftig": 875,
      "Menschen": 876,
      "Kar": 877,
      "oll": 878,
      "det": 879,
      "also": 880,
      "uten": 881,
      "öhn": 882,
      "davon": 883,
      "dessen": 884,
      "Alexei": 885,
      "jewitsch": 886,
      "agt": 887,
      "Mutter": 888,
      "beiden": 889,
      "prä": 890,
      "ften": 891,
      "äl": 892,
      "Kön": 893,
      "hinter": 894,
      "Ent": 895,
      "vier": 896,
      "soll": 897,
      "tre": 898,
      "fiel": 899,
      "glück": 900,
      "hand": 901,
      "sollte": 902,
      "trat": 903,
      "wußte": 904,
      "blei": 905,
      "kehr": 906,
      "We": 907,
      "öff": 908,
      "kad": 909,
      "hü": 910,
      "einz": 911,
      "einander": 912,
      "Nacht": 913,
      "fahren": 914,
      "sprechen": 915,
      "Arkad": 916,
      "qu": 917,
      "ce": 918,
      "Ro": 919,
      "chten": 920,
      "welcher": 921,
      "ere": 922,
      "eicht": 923,
      "gesehen": 924,
      "letz": 925,
      "Leu": 926,
      "ild": 927,
      "merk": 928,
      "achen": 929,
      "Lu": 930,
      "fall": 931,
      "zimmer": 932,
      "besond": 933,
      "ater": 934,
      "ersten": 935,
      "mpf": 936,
      "indem": 937,
      "ät": 938,
      "onst": 939,
      "heraus": 940,
      "tie": 941,
      "under": 942,
      "tze": 943,
      "gesagt": 944,
      "großen": 945,
      "ganzen": 946,
      "lleicht": 947,
      "Ach": 948,
      "auer": 949,
      "hast": 950,
      "legte": 951,
      "reund": 952,
      "Ende": 953,
      "bo": 954,
      "gekommen": 955,
      "...«": 956,
      "lötzlich": 957,
      "dabei": 958,
      "itten": 959,
      "hle": 960,
      "ppen": 961,
      "Hause": 962,
      "läch": 963,
      "pan": 964,
      "denen": 965,
      "andern": 966,
      "Fen": 967,
      "rich": 968,
      "darauf": 969,
      "Alexandrowitsch": 970,
      "Jahr": 971,
      "Par": 972,
      "assen": 973,
      "lieben": 974,
      "Ad": 975,
      "Ho": 976,
      "wissen": 977,
      "Emma": 978,
      "Worte": 979,
      "Art": 980,
      "Hö": 981,
      "brau": 982,
      "kü": 983,
      "Stepan": 984,
      "Gegen": 985,
      "verg": 986,
      "Sa": 987,
      "unser": 988,
      "Arkadjewitsch": 989,
      "Pro": 990,
      "ire": 991,
      "Na": 992,
      "empf": 993,
      "Schul": 994,
      "lagen": 995,
      "kleinen": 996,
      "ungs": 997,
      "wär": 998,
      "damit": 999,
      "allein": 1000,
      "daran": 1001,
      "ähr": 1002,
      "tro": 1003,
      "wegen": 1004,
      "bl": 1005,
      "eist": 1006,
      "seines": 1007,
      "darüber": 1008,
      "Fra": 1009,
      "frü": 1010,
      "Fürst": 1011,
      "ug": 1012,
      "anderen": 1013,
      "gesp": 1014,
      "itter": 1015,
      "att": 1016,
      "fern": 1017,
      "Über": 1018,
      "net": 1019,
      "ppe": 1020,
      "Mar": 1021,
      "alte": 1022,
      "bemerk": 1023,
      "verm": 1024,
      "Fr": 1025,
      "ommen": 1026,
      "ichte": 1027,
      "Fenster": 1028,
      "schwer": 1029,
      "geworden": 1030,
      "ik": 1031,
      "lossen": 1032,
      "mann": 1033,
      "aufen": 1034,
      "Stu": 1035,
      "wirklich": 1036,
      "Tage": 1037,
      "beim": 1038,
      "lt": 1039,
      "König": 1040,
      "Qu": 1041,
      "fest": 1042,
      "haft": 1043,
      "Gott": 1044,
      "weit": 1045,
      "Kir": 1046,
      "ckt": 1047,
      "Arb": 1048,
      "lichkeit": 1049,
      "gehör": 1050,
      "iges": 1051,
      "Liebe": 1052,
      "hob": 1053,
      "finden": 1054,
      "bringen": 1055,
      "wandte": 1056,
      "ses": 1057,
      "Ant": 1058,
      "müssen": 1059,
      "dien": 1060,
      "besser": 1061,
      "per": 1062,
      "spiel": 1063,
      "Dien": 1064,
      "tun": 1065,
      "fer": 1066,
      "kur": 1067,
      "stie": 1068,
      "gemacht": 1069,
      "Stra": 1070,
      "star": 1071,
      "welches": 1072,
      "Mal": 1073,
      "schle": 1074,
      "ker": 1075,
      "erwider": 1076,
      "trau": 1077,
      "Bruder": 1078,
      "Or": 1079,
      "eister": 1080,
      "kleine": 1081,
      "All": 1082,
      "hervor": 1083,
      "leid": 1084,
      "schnell": 1085,
      "druck": 1086,
      "essen": 1087,
      "suchte": 1088,
      "denken": 1089,
      "gessen": 1090,
      "langen": 1091,
      "urcht": 1092,
      "hinzu": 1093,
      "Abend": 1094,
      "Pa": 1095,
      "nieder": 1096,
      "Sache": 1097,
      "ersch": 1098,
      "ürlich": 1099,
      "Ton": 1100,
      "frei": 1101,
      "jem": 1102,
      "län": 1103,
      "blieb": 1104,
      "große": 1105,
      "frie": 1106,
      "seit": 1107,
      "dete": 1108,
      "wan": 1109,
      "inter": 1110,
      "dazu": 1111,
      "tzen": 1112,
      "gewöhn": 1113,
      "eiten": 1114,
      "ebenso": 1115,
      "tr": 1116,
      "außer": 1117,
      "Iwan": 1118,
      "chter": 1119,
      "ings": 1120,
      "worden": 1121,
      "!\"": 1122,
      "Jo": 1123,
      "ähl": 1124,
      "bede": 1125,
      "gek": 1126,
      "vielleicht": 1127,
      "Fuß": 1128,
      "Li": 1129,
      "gern": 1130,
      "har": 1131,
      "urm": 1132,
      "Weise": 1133,
      "offen": 1134,
      "Miß": 1135,
      "mand": 1136,
      "riff": 1137,
      ".\"": 1138,
      "ihres": 1139,
      "zogen": 1140,
      "fl": 1141,
      "habt": 1142,
      "wna": 1143,
      "leben": 1144,
      "plötzlich": 1145,
      "hinaus": 1146,
      "Bl": 1147,
      "Haupt": 1148,
      "ergei": 1149,
      "Sergei": 1150,
      "inge": 1151,
      "gebr": 1152,
      "Gesprä": 1153,
      "Vater": 1154,
      "keinen": 1155,
      "Herz": 1156,
      "fast": 1157,
      "Seite": 1158,
      "erwiderte": 1159,
      "mlich": 1160,
      "Leute": 1161,
      "Dar": 1162,
      "Gefühl": 1163,
      "selben": 1164,
      "Jetzt": 1165,
      "Welt": 1166,
      "Wort": 1167,
      "for": 1168,
      "annte": 1169,
      "Kinder": 1170,
      "Karl": 1171,
      "Bau": 1172,
      "sogar": 1173,
      "schwar": 1174,
      "wohn": 1175,
      "itzen": 1176,
      "rän": 1177,
      "Iwano": 1178,
      "Son": 1179,
      "wün": 1180,
      "hren": 1181,
      "hören": 1182,
      "inner": 1183,
      "igt": 1184,
      "einige": 1185,
      "Thür": 1186,
      "Ali": 1187,
      "eren": 1188,
      "standen": 1189,
      "Alice": 1190,
      "Mein": 1191,
      "uck": 1192,
      "atten": 1193,
      "Ihre": 1194,
      "olly": 1195,
      "erschien": 1196,
      "heute": 1197,
      "ane": 1198,
      "ellschaft": 1199,
      "Bett": 1200,
      "entsch": 1201,
      "zehn": 1202,
      "Läch": 1203,
      "Gra": 1204,
      "ss": 1205,
      "stra": 1206,
      "niemals": 1207,
      "To": 1208,
      "ücken": 1209,
      "loß": 1210,
      "Seele": 1211,
      "Freu": 1212,
      "schm": 1213,
      "Schr": 1214,
      "Lächeln": 1215,
      "kte": 1216,
      "sse": 1217,
      "könnte": 1218,
      "Roch": 1219,
      "Tag": 1220,
      "schau": 1221,
      "latz": 1222,
      "gten": 1223,
      "oren": 1224,
      "Am": 1225,
      "Pfer": 1226,
      "kommt": 1227,
      "Rochester": 1228,
      "Arbeit": 1229,
      "zt": 1230,
      "reden": 1231,
      "groß": 1232,
      "Mü": 1233,
      "meinem": 1234,
      "schte": 1235,
      "ler": 1236,
      "tten": 1237,
      "zeu": 1238,
      "sofort": 1239,
      "früher": 1240,
      "schl": 1241,
      "innen": 1242,
      "anke": 1243,
      "Zwei": 1244,
      "erwar": 1245,
      "Wä": 1246,
      "weise": 1247,
      "Nam": 1248,
      "lief": 1249,
      "uf": 1250,
      "anzu": 1251,
      "Herzen": 1252,
      "gst": 1253,
      "näher": 1254,
      "fä": 1255,
      "hte": 1256,
      "geste": 1257,
      "stens": 1258,
      "deren": 1259,
      "liches": 1260,
      "nden": 1261,
      "elle": 1262,
      "fes": 1263,
      "könne": 1264,
      "öpf": 1265,
      "Jane": 1266,
      "ieren": 1267,
      "heim": 1268,
      "Paris": 1269,
      "Glück": 1270,
      "rochen": 1271,
      "zte": 1272,
      "hän": 1273,
      "heiten": 1274,
      "gehört": 1275,
      "wort": 1276,
      "raft": 1277,
      "Diese": 1278,
      "ruhig": 1279,
      "dun": 1280,
      "halt": 1281,
      "möchte": 1282,
      "adt": 1283,
      "Wagen": 1284,
      "Fü": 1285,
      "Kr": 1286,
      "hinein": 1287,
      "Morgen": 1288,
      "ille": 1289,
      "ingo": 1290,
      "setzen": 1291,
      "Hände": 1292,
      "nat": 1293,
      "stu": 1294,
      "vers": 1295,
      "brachte": 1296,
      "Dame": 1297,
      "za": 1298,
      "ausen": 1299,
      "ord": 1300,
      "Beweg": 1301,
      "klar": 1302,
      "wunder": 1303,
      "llung": 1304,
      "falls": 1305,
      "bist": 1306,
      "fin": 1307,
      "gegeben": 1308,
      "deut": 1309,
      "Vol": 1310,
      "Ei": 1311,
      "flü": 1312,
      "saß": 1313,
      "Gesellschaft": 1314,
      "kaum": 1315,
      "schlu": 1316,
      "ters": 1317,
      "Kl": 1318,
      "Schu": 1319,
      "Gringo": 1320,
      "bemerkte": 1321,
      "einf": 1322,
      "reg": 1323,
      "Dolly": 1324,
      "Gem": 1325,
      "dern": 1326,
      "reich": 1327,
      "euer": 1328,
      "Mo": 1329,
      "schü": 1330,
      "genommen": 1331,
      "stande": 1332,
      "niemand": 1333,
      "Gringoire": 1334,
      "Mensch": 1335,
      "ph": 1336,
      "eid": 1337,
      "jeder": 1338,
      "Richt": 1339,
      "Tisch": 1340,
      "Uhr": 1341,
      "mer": 1342,
      "eig": 1343,
      "?\"": 1344,
      "Euch": 1345,
      "Min": 1346,
      "zeit": 1347,
      "Herren": 1348,
      "suchen": 1349,
      "betrach": 1350,
      "jemand": 1351,
      "stren": 1352,
      "chtig": 1353,
      "lär": 1354,
      "bleiben": 1355,
      "neben": 1356,
      "herr": 1357,
      "Frage": 1358,
      "Sir": 1359,
      "gi": 1360,
      "grö": 1361,
      "sinn": 1362,
      "dia": 1363,
      "orn": 1364,
      "fün": 1365,
      "Herrn": 1366,
      "Augenblicke": 1367,
      "solche": 1368,
      "Licht": 1369,
      "geht": 1370,
      "reck": 1371,
      "Gespräch": 1372,
      "schrei": 1373,
      "llig": 1374,
      "näch": 1375,
      "Lebens": 1376,
      "glaube": 1377,
      "Empf": 1378,
      "Kam": 1379,
      "Nat": 1380,
      "ta": 1381,
      "gele": 1382,
      "warf": 1383,
      "tragen": 1384,
      "schrie": 1385,
      "herum": 1386,
      "rug": 1387,
      "wurden": 1388,
      "jener": 1389,
      "Geb": 1390,
      "hst": 1391,
      "mut": 1392,
      "tem": 1393,
      "brigen": 1394,
      "Eine": 1395,
      "mäß": 1396,
      "Gericht": 1397,
      "gegangen": 1398,
      "keiten": 1399,
      "Geld": 1400,
      "emp": 1401,
      "llten": 1402,
      "gegenüber": 1403,
      "Fa": 1404,
      "bereits": 1405,
      "immel": 1406,
      "Gest": 1407,
      "hält": 1408,
      "hor": 1409,
      "genug": 1410,
      "unst": 1411,
      "Jahre": 1412,
      "Ausdruck": 1413,
      "unbe": 1414,
      "letzten": 1415,
      "Geist": 1416,
      "Im": 1417,
      "hne": 1418,
      "Haar": 1419,
      "bestimm": 1420,
      "fünf": 1421,
      "freu": 1422,
      "oft": 1423,
      "sto": 1424,
      "scher": 1425,
      "liebe": 1426,
      "besonders": 1427,
      "Höhe": 1428,
      "Kirche": 1429,
      "ehm": 1430,
      "stellen": 1431,
      "Bild": 1432,
      "Fl": 1433,
      "gewiß": 1434,
      "neuen": 1435,
      "Lage": 1436,
      "Freude": 1437,
      "Zige": 1438,
      "öl": 1439,
      "undert": 1440,
      "Zigeun": 1441,
      "Tro": 1442,
      "pe": 1443,
      "umen": 1444,
      "liegen": 1445,
      "beide": 1446,
      "vern": 1447,
      "scheinlich": 1448,
      "land": 1449,
      "vergessen": 1450,
      "olz": 1451,
      "weder": 1452,
      "paar": 1453,
      "Iwanowitsch": 1454,
      "aß": 1455,
      "ess": 1456,
      "Verg": 1457,
      "eigentlich": 1458,
      "‹,": 1459,
      "achte": 1460,
      "trotz": 1461,
      "samkeit": 1462,
      "Platz": 1463,
      "Wer": 1464,
      "tschaft": 1465,
      "schul": 1466,
      "fügte": 1467,
      "ausend": 1468,
      "Nicht": 1469,
      "ga": 1470,
      "hung": 1471,
      "Freund": 1472,
      "Huck": 1473,
      "kr": 1474,
      "scht": 1475,
      "irn": 1476,
      "verlassen": 1477,
      "rot": 1478,
      "Wasser": 1479,
      "eigenen": 1480,
      "Stelle": 1481,
      "Antwort": 1482,
      "ai": 1483,
      "verl": 1484,
      "selt": 1485,
      "ließlich": 1486,
      "haupt": 1487,
      "äftig": 1488,
      "inken": 1489,
      "sonst": 1490,
      "unft": 1491,
      "Grund": 1492,
      "darin": 1493,
      "ständig": 1494,
      "gebracht": 1495,
      "Hei": 1496,
      "Hier": 1497,
      "elnd": 1498,
      "verb": 1499,
      "würden": 1500,
      "Auge": 1501,
      "heira": 1502,
      "dür": 1503,
      "tt": 1504,
      "gehabt": 1505,
      "auszu": 1506,
      "Not": 1507,
      "ieden": 1508,
      "ennt": 1509,
      "fürchte": 1510,
      "führen": 1511,
      "Schwester": 1512,
      "He": 1513,
      "Schl": 1514,
      "gere": 1515,
      "wiederhol": 1516,
      "gra": 1517,
      "steht": 1518,
      "Mrs": 1519,
      "viele": 1520,
      "gesprochen": 1521,
      "Gen": 1522,
      "gr": 1523,
      "Arm": 1524,
      "Frauen": 1525,
      "Fürstin": 1526,
      "Pers": 1527,
      "ou": 1528,
      "uh": 1529,
      "indung": 1530,
      "neue": 1531,
      "schlug": 1532,
      "Himmel": 1533,
      "Tre": 1534,
      "junge": 1535,
      "sicher": 1536,
      "ami": 1537,
      "Lippen": 1538,
      "Volk": 1539,
      "regor": 1540,
      "Ber": 1541,
      "Gregor": 1542,
      "dings": 1543,
      "fert": 1544,
      "ante": 1545,
      "beste": 1546,
      "ffe": 1547,
      "rieben": 1548,
      "Namen": 1549,
      "Ju": 1550,
      "Ur": 1551,
      "Wi": 1552,
      "oben": 1553,
      "stür": 1554,
      "gelegen": 1555,
      "Schla": 1556,
      "nachdem": 1557,
      "endlich": 1558,
      "Beg": 1559,
      "tief": 1560,
      "hoch": 1561,
      "Den": 1562,
      "Wahr": 1563,
      "tter": 1564,
      "wend": 1565,
      "inne": 1566,
      "kamen": 1567,
      "Ruhe": 1568,
      "treten": 1569,
      "hel": 1570,
      "zwar": 1571,
      "arbei": 1572,
      "Boden": 1573,
      "That": 1574,
      "Trä": 1575,
      "ast": 1576,
      "freund": 1577,
      "such": 1578,
      "hinauf": 1579,
      "Händen": 1580,
      "Po": 1581,
      "hind": 1582,
      "licht": 1583,
      "nö": 1584,
      "befand": 1585,
      "regung": 1586,
      "spr": 1587,
      "erinner": 1588,
      "Bür": 1589,
      "Fami": 1590,
      "anf": 1591,
      "ochte": 1592,
      "herab": 1593,
      "Ap": 1594,
      "trug": 1595,
      "daher": 1596,
      "Gef": 1597,
      "odo": 1598,
      "Buch": 1599,
      "De": 1600,
      "Während": 1601,
      "Alle": 1602,
      "Teil": 1603,
      "igte": 1604,
      "leicht": 1605,
      "ließen": 1606,
      "Nä": 1607,
      "Pe": 1608,
      "dre": 1609,
      "nehm": 1610,
      "Stunde": 1611,
      "othe": 1612,
      "jene": 1613,
      "glücklich": 1614,
      "El": 1615,
      "jungen": 1616,
      "eiden": 1617,
      "nein": 1618,
      "zier": 1619,
      "erste": 1620,
      "Schm": 1621,
      "jeden": 1622,
      "hätten": 1623,
      "Kap": 1624,
      "Frei": 1625,
      "Mon": 1626,
      "Män": 1627,
      "Erinner": 1628,
      "Zigeunerin": 1629,
      "Kü": 1630,
      "Seine": 1631,
      "arten": 1632,
      "vorher": 1633,
      "wenigstens": 1634,
      "solchen": 1635,
      "still": 1636,
      "stellte": 1637,
      "kannte": 1638,
      "Alles": 1639,
      "Ist": 1640,
      "Mitt": 1641,
      "var": 1642,
      "ass": 1643,
      "leise": 1644,
      "Konst": 1645,
      "vö": 1646,
      "erhob": 1647,
      "frieden": 1648,
      "Fe": 1649,
      "Fel": 1650,
      "furcht": 1651,
      "zü": 1652,
      "asim": 1653,
      "Advo": 1654,
      "Wesen": 1655,
      "uer": 1656,
      "itze": 1657,
      "pfen": 1658,
      "Quasim": 1659,
      "aufzu": 1660,
      "führt": 1661,
      "Bewegung": 1662,
      "Quasimodo": 1663,
      "beu": 1664,
      "antin": 1665,
      "ziehen": 1666,
      "sä": 1667,
      "Gew": 1668,
      "leiden": 1669,
      "Weg": 1670,
      "ba": 1671,
      "digen": 1672,
      "schr": 1673,
      "gefunden": 1674,
      "folgen": 1675,
      "Seiten": 1676,
      "Warum": 1677,
      "Pr": 1678,
      "riester": 1679,
      "angenehm": 1680,
      "zeigte": 1681,
      "Blicke": 1682,
      "Feuer": 1683,
      "Teu": 1684,
      "teten": 1685,
      "inden": 1686,
      "Arme": 1687,
      "chi": 1688,
      "schwei": 1689,
      "alter": 1690,
      "vorüber": 1691,
      "erzähl": 1692,
      "Konstantin": 1693,
      ".‹": 1694,
      "Priester": 1695,
      "deine": 1696,
      "gute": 1697,
      "utz": 1698,
      "ffnung": 1699,
      "öffnete": 1700,
      "hüb": 1701,
      "Luft": 1702,
      "natürlich": 1703,
      "seltsam": 1704,
      "Teufel": 1705,
      "Tr": 1706,
      "bus": 1707,
      "org": 1708,
      "leb": 1709,
      "folgte": 1710,
      "Wes": 1711,
      "gang": 1712,
      "esse": 1713,
      "ine": 1714,
      "schie": 1715,
      "örper": 1716,
      "vary": 1717,
      "Mö": 1718,
      "nten": 1719,
      "tat": 1720,
      "nder": 1721,
      "trä": 1722,
      "Stück": 1723,
      "stets": 1724,
      "glaubte": 1725,
      "drückte": 1726,
      "gu": 1727,
      "schla": 1728,
      "Stadt": 1729,
      "Bovary": 1730,
      "gegnete": 1731,
      "Br": 1732,
      "asse": 1733,
      "allem": 1734,
      "müsse": 1735,
      "Menge": 1736,
      "glauben": 1737,
      "zeich": 1738,
      "Vergnü": 1739,
      "Hut": 1740,
      "con": 1741,
      "ühr": 1742,
      "chs": 1743,
      "rat": 1744,
      "entfern": 1745,
      "Bü": 1746,
      "Brief": 1747,
      "langsam": 1748,
      "Hü": 1749,
      "gü": 1750,
      "grü": 1751,
      "Mien": 1752,
      "Te": 1753,
      "mme": 1754,
      "Stirn": 1755,
      "änder": 1756,
      "vollständig": 1757,
      "Tages": 1758,
      "Kraft": 1759,
      "hell": 1760,
      "hundert": 1761,
      "stern": 1762,
      "hinunter": 1763,
      "laß": 1764,
      "Archi": 1765,
      "vollen": 1766,
      "geln": 1767,
      "Tone": 1768,
      "gibt": 1769,
      "annt": 1770,
      "thun": 1771,
      "Frü": 1772,
      "iv": 1773,
      "ale": 1774,
      "überhaupt": 1775,
      "lächelnd": 1776,
      "Fin": 1777,
      "Hil": 1778,
      "lung": 1779,
      "dafür": 1780,
      "verste": 1781,
      "weniger": 1782,
      "Person": 1783,
      "Dinge": 1784,
      "Phö": 1785,
      "ed": 1786,
      "schreck": 1787,
      "meines": 1788,
      "Damen": 1789,
      "Phöbus": 1790,
      "Lo": 1791,
      "hann": 1792,
      "stimm": 1793,
      "dacht": 1794,
      "versetzte": 1795,
      "hnte": 1796,
      "ochter": 1797,
      "Sta": 1798,
      "liebt": 1799,
      "Mich": 1800,
      "Meister": 1801,
      "äter": 1802,
      "reichen": 1803,
      "Recht": 1804,
      "Kopfe": 1805,
      "Ku": 1806,
      "statt": 1807,
      "dadurch": 1808,
      "rech": 1809,
      "wußt": 1810,
      "Johann": 1811,
      "Treppe": 1812,
      "John": 1813,
      "Ne": 1814,
      "Ph": 1815,
      "gingen": 1816,
      "zufrieden": 1817,
      "genau": 1818,
      "gestellt": 1819,
      "bil": 1820,
      "morgen": 1821,
      "ichtet": 1822,
      "unken": 1823,
      "ischer": 1824,
      "getan": 1825,
      "offenbar": 1826,
      "brigens": 1827,
      "Archidia": 1828,
      "Ba": 1829,
      "Trau": 1830,
      "Von": 1831,
      "ais": 1832,
      "äuß": 1833,
      "ört": 1834,
      "nahe": 1835,
      "führte": 1836,
      "höch": 1837,
      "traur": 1838,
      "Gestalt": 1839,
      "Nur": 1840,
      "grau": 1841,
      "schä": 1842,
      "dahin": 1843,
      "Sto": 1844,
      "lieber": 1845,
      "reifen": 1846,
      "entgegen": 1847,
      "äusch": 1848,
      "Apothe": 1849,
      "gie": 1850,
      "ic": 1851,
      "ßten": 1852,
      "unver": 1853,
      "mögen": 1854,
      "stre": 1855,
      "warum": 1856,
      "ligen": 1857,
      "lächelte": 1858,
      "Minuten": 1859,
      "Ker": 1860,
      "mag": 1861,
      "zig": 1862,
      "zung": 1863,
      "bekommen": 1864,
      "welchen": 1865,
      "laut": 1866,
      "heißt": 1867,
      "betrachtete": 1868,
      "fertig": 1869,
      "ausge": 1870,
      "Schrei": 1871,
      "umpf": 1872,
      "Gedanke": 1873,
      "Pap": 1874,
      "bitte": 1875,
      "fallen": 1876,
      "bereit": 1877,
      "Besch": 1878,
      "Miene": 1879,
      "Gro": 1880,
      "Tochter": 1881,
      "Zei": 1882,
      "len": 1883,
      "ande": 1884,
      "sehe": 1885,
      "anders": 1886,
      "Natur": 1887,
      "Wohn": 1888,
      "glän": 1889,
      "unten": 1890,
      "arm": 1891,
      "sagt": 1892,
      "Auch": 1893,
      "ernen": 1894,
      "nisse": 1895,
      "Bauern": 1896,
      "Lau": 1897,
      "Sel": 1898,
      "nern": 1899,
      "tag": 1900,
      "elen": 1901,
      "herein": 1902,
      "gefallen": 1903,
      "Darja": 1904,
      "Co": 1905,
      "Char": 1906,
      "Gol": 1907,
      "Sohn": 1908,
      "Wind": 1909,
      "sü": 1910,
      "chsel": 1911,
      "augen": 1912,
      "sollen": 1913,
      "durchaus": 1914,
      "fragen": 1915,
      "folge": 1916,
      "Vergnügen": 1917,
      "Lehr": 1918,
      "zitter": 1919,
      "dul": 1920,
      "beschäftig": 1921,
      "verloren": 1922,
      "Gut": 1923,
      "jung": 1924,
      "ös": 1925,
      "Mühe": 1926,
      "Gal": 1927,
      "fing": 1928,
      "gehe": 1929,
      "Unglück": 1930,
      "Eind": 1931,
      "bein": 1932,
      "kunft": 1933,
      "wach": 1934,
      "schar": 1935,
      "stes": 1936,
      ".,": 1937,
      "Ly": 1938,
      "ak": 1939,
      "unmöglich": 1940,
      "eilen": 1941,
      "Mittel": 1942,
      "Leiden": 1943,
      "Diener": 1944,
      "furchtbar": 1945,
      "eien": 1946,
      "sage": 1947,
      "jedoch": 1948,
      "iert": 1949,
      "werk": 1950,
      "darf": 1951,
      "gefähr": 1952,
      "Alexandrowna": 1953,
      "einzige": 1954,
      "Ganz": 1955,
      "Ober": 1956,
      "äft": 1957,
      "ächt": 1958,
      "damals": 1959,
      "Schön": 1960,
      "reise": 1961,
      "ruch": 1962,
      "Geschichte": 1963,
      "conus": 1964,
      "Fre": 1965,
      "schließlich": 1966,
      "Anblick": 1967,
      "abzu": 1968,
      "entgegnete": 1969,
      "holen": 1970,
      "Zweifel": 1971,
      "kennen": 1972,
      "erhalten": 1973,
      "sta": 1974,
      "gesche": 1975,
      "heran": 1976,
      "Stein": 1977,
      "fühle": 1978,
      "ttel": 1979,
      "geblieben": 1980,
      "weilen": 1981,
      "Brust": 1982,
      "stieg": 1983,
      "Furcht": 1984,
      "Grä": 1985,
      "ian": 1986,
      "auber": 1987,
      "verstehen": 1988,
      "unglück": 1989,
      "ingt": 1990,
      "räul": 1991,
      "gesetzt": 1992,
      "richtig": 1993,
      "kurz": 1994,
      "räulein": 1995,
      "Vie": 1996,
      "gl": 1997,
      "nas": 1998,
      "roh": 1999,
      "jedes": 2000,
      "liegt": 2001,
      "Dieser": 2002,
      "sucht": 2003,
      "ktor": 2004,
      "einfach": 2005,
      "Mosk": 2006,
      "nächsten": 2007,
      "Sinn": 2008,
      "Ue": 2009,
      "ndlich": 2010,
      "willen": 2011,
      "ärger": 2012,
      "Hilfe": 2013,
      "Archidiaconus": 2014,
      "Jahren": 2015,
      "Mund": 2016,
      "bur": 2017,
      "mp": 2018,
      "rt": 2019,
      "zug": 2020,
      "ierte": 2021,
      "gleichen": 2022,
      "hoben": 2023,
      "lust": 2024,
      "stieß": 2025,
      "Familie": 2026,
      "frau": 2027,
      "itel": 2028,
      "erfü": 2029,
      "ckten": 2030,
      "mittel": 2031,
      "geschlossen": 2032,
      "fehl": 2033,
      "Worten": 2034,
      "frem": 2035,
      "öne": 2036,
      "ard": 2037,
      "ordentlich": 2038,
      "Fräulein": 2039,
      "kä": 2040,
      "brechen": 2041,
      "hie": 2042,
      "haus": 2043,
      "tausend": 2044,
      "meinte": 2045,
      "jenem": 2046,
      "ickt": 2047,
      "schönen": 2048,
      "empfand": 2049,
      "ah": 2050,
      "Schatten": 2051,
      "ragen": 2052,
      "pfte": 2053,
      "etwa": 2054,
      "Nachdem": 2055,
      "welchem": 2056,
      "Heu": 2057,
      "Ind": 2058,
      "Kn": 2059,
      "pers": 2060,
      "Dienst": 2061,
      "Garten": 2062,
      "Wun": 2063,
      "ähn": 2064,
      "wart": 2065,
      "versuchte": 2066,
      "mensch": 2067,
      "?‹": 2068,
      "Meine": 2069,
      "Ob": 2070,
      "Sol": 2071,
      "ucht": 2072,
      "bekann": 2073,
      "allge": 2074,
      "isse": 2075,
      "selbe": 2076,
      "obgleich": 2077,
      "willst": 2078,
      "Erinnerung": 2079,
      "En": 2080,
      "Nie": 2081,
      "san": 2082,
      "einzu": 2083,
      "verständ": 2084,
      "Schwei": 2085,
      "ume": 2086,
      "wil": 2087,
      "langt": 2088,
      "gelassen": 2089,
      "zwanz": 2090,
      "Hoffnung": 2091,
      "gewöhnlich": 2092,
      "Sonne": 2093,
      "Durch": 2094,
      "pen": 2095,
      "stü": 2096,
      "unkt": 2097,
      "unkel": 2098,
      "onnen": 2099,
      "beob": 2100,
      "leich": 2101,
      "kannst": 2102,
      "wahrscheinlich": 2103,
      "Männer": 2104,
      "Eindruck": 2105,
      "For": 2106,
      "Klei": 2107,
      "Neu": 2108,
      "Sein": 2109,
      "sieht": 2110,
      "überzeu": 2111,
      "imstande": 2112,
      "läng": 2113,
      "kehrte": 2114,
      "Bem": 2115,
      "Zü": 2116,
      "aten": 2117,
      "wicht": 2118,
      "schloß": 2119,
      "arme": 2120,
      "Erde": 2121,
      "faßte": 2122,
      "wärts": 2123,
      "flüster": 2124,
      "erinnerte": 2125,
      "Bä": 2126,
      "gier": 2127,
      "klei": 2128,
      "to": 2129,
      "wü": 2130,
      "ene": 2131,
      "gezogen": 2132,
      "samm": 2133,
      "reis": 2134,
      "erklär": 2135,
      "schaften": 2136,
      "Leo": 2137,
      "richtete": 2138,
      "Pferde": 2139,
      "hängen": 2140,
      "wiederholte": 2141,
      "völlig": 2142,
      "Gräfin": 2143,
      "kla": 2144,
      "rte": 2145,
      "ub": 2146,
      "zel": 2147,
      "achten": 2148,
      "herz": 2149,
      "atte": 2150,
      "low": 2151,
      "anderes": 2152,
      "Wieder": 2153,
      "Gerichts": 2154,
      "!‹": 2155,
      "Fall": 2156,
      "Rücken": 2157,
      "The": 2158,
      "do": 2159,
      "lesen": 2160,
      "uche": 2161,
      "beruh": 2162,
      "deten": 2163,
      "umher": 2164,
      "ücke": 2165,
      "gering": 2166,
      "unterbrach": 2167,
      "eilte": 2168,
      "Straße": 2169,
      "Finger": 2170,
      "fahr": 2171,
      "mei": 2172,
      "sy": 2173,
      "ichten": 2174,
      "ament": 2175,
      "gerichtet": 2176,
      "etter": 2177,
      "nämlich": 2178,
      "scheint": 2179,
      "unsere": 2180,
      "Tränen": 2181,
      "dige": 2182,
      "),": 2183,
      "Do": 2184,
      "bat": 2185,
      "gän": 2186,
      "not": 2187,
      "volle": 2188,
      "Gele": 2189,
      "mel": 2190,
      "oß": 2191,
      "reichte": 2192,
      "Hin": 2193,
      "gehalten": 2194,
      "reten": 2195,
      "deshalb": 2196,
      "weißen": 2197,
      "ünst": 2198,
      "Manne": 2199,
      "digt": 2200,
      "allerdings": 2201,
      "Hauptmann": 2202,
      "geschehen": 2203,
      "Gelegen": 2204,
      "Nik": 2205,
      "kten": 2206,
      "eins": 2207,
      "anden": 2208,
      "pfer": 2209,
      "Angelegen": 2210,
      "Komm": 2211,
      "schwarzen": 2212,
      "Meinung": 2213,
      "Schlaf": 2214,
      "Hinter": 2215,
      "Kat": 2216,
      "bau": 2217,
      "dü": 2218,
      "auern": 2219,
      "wirst": 2220,
      "später": 2221,
      "mächt": 2222,
      "Besuch": 2223,
      "Maler": 2224,
      "Empfindung": 2225,
      "Clau": 2226,
      "Fol": 2227,
      "Hal": 2228,
      "Hom": 2229,
      "bten": 2230,
      "blau": 2231,
      "biß": 2232,
      "fle": 2233,
      "kn": 2234,
      "verstanden": 2235,
      "ickte": 2236,
      "Ord": 2237,
      "üre": 2238,
      "int": 2239,
      "igkeiten": 2240,
      "seien": 2241,
      "jenes": 2242,
      "letzte": 2243,
      "zwanzig": 2244,
      "Glau": 2245,
      "Kleid": 2246,
      "guten": 2247,
      "hlich": 2248,
      "schlä": 2249,
      "zugleich": 2250,
      "sobald": 2251,
      "nötig": 2252,
      "Me": 2253,
      "Zw": 2254,
      "sitzen": 2255,
      "enden": 2256,
      "erbar": 2257,
      "llo": 2258,
      "wert": 2259,
      "euch": 2260,
      "neuem": 2261,
      "liebte": 2262,
      "Claude": 2263,
      "Glo": 2264,
      "Ohr": 2265,
      "dein": 2266,
      "zeigen": 2267,
      "jede": 2268,
      "läßt": 2269,
      "erkannte": 2270,
      "Spiel": 2271,
      "than": 2272,
      "Warjen": 2273,
      "dunkel": 2274,
      "Selbst": 2275,
      "brei": 2276,
      "hem": 2277,
      "krä": 2278,
      "ssel": 2279,
      "uchte": 2280,
      "chmal": 2281,
      "geführt": 2282,
      "vert": 2283,
      "tzte": 2284,
      "Gese": 2285,
      "wick": 2286,
      "Fürsten": 2287,
      "stark": 2288,
      "heimnis": 2289,
      "gelegt": 2290,
      "fei": 2291,
      "flo": 2292,
      "wesen": 2293,
      "ward": 2294,
      "warten": 2295,
      "sechs": 2296,
      "mitten": 2297,
      "anzös": 2298,
      "brochen": 2299,
      "wenden": 2300,
      "digung": 2301,
      "Apotheker": 2302,
      "Bur": 2303,
      "Gleich": 2304,
      "Rück": 2305,
      "Rat": 2306,
      "entz": 2307,
      "denk": 2308,
      "haf": 2309,
      "Scha": 2310,
      "neten": 2311,
      "stellung": 2312,
      "selten": 2313,
      "igem": 2314,
      "drücken": 2315,
      "Male": 2316,
      "Füßen": 2317,
      "Nikol": 2318,
      "Homais": 2319,
      "Ordnung": 2320,
      "Dor": 2321,
      "Gl": 2322,
      "Hals": 2323,
      "ue": 2324,
      "arb": 2325,
      "zweiten": 2326,
      "interess": 2327,
      "wünschte": 2328,
      "Eigen": 2329,
      "Tische": 2330,
      "erre": 2331,
      "essel": 2332,
      "zuerst": 2333,
      "igung": 2334,
      "rock": 2335,
      "Stunden": 2336,
      "ette": 2337,
      "anderer": 2338,
      "altung": 2339,
      "Weil": 2340,
      "Verhält": 2341,
      "machten": 2342,
      "Weib": 2343,
      "Straßen": 2344,
      "Joe": 2345,
      "Wunsch": 2346,
      "ow": 2347,
      "sache": 2348,
      "zerst": 2349,
      "ählen": 2350,
      "Arzt": 2351,
      "Wege": 2352,
      "Moskau": 2353,
      "Endlich": 2354,
      "Ansicht": 2355,
      "großer": 2356,
      "Nähe": 2357,
      "Freunde": 2358,
      "Denn": 2359,
      "Körper": 2360,
      "ged": 2361,
      "gebe": 2362,
      "bevor": 2363,
      "Inter": 2364,
      "Wider": 2365,
      "Wahrheit": 2366,
      "And": 2367,
      "Kut": 2368,
      "kung": 2369,
      "ober": 2370,
      "ossen": 2371,
      "tü": 2372,
      "erte": 2373,
      "ches": 2374,
      "berei": 2375,
      "seinander": 2376,
      "Erk": 2377,
      "diesel": 2378,
      "Mannes": 2379,
      "schlecht": 2380,
      "forder": 2381,
      "schüttel": 2382,
      "Zeichen": 2383,
      "Aben": 2384,
      "Häu": 2385,
      "Wel": 2386,
      "fal": 2387,
      "kat": 2388,
      "bed": 2389,
      "verstand": 2390,
      "rasch": 2391,
      "kenne": 2392,
      "eilt": 2393,
      "würdig": 2394,
      "niedr": 2395,
      "geschlagen": 2396,
      "Wohl": 2397,
      "bogen": 2398,
      "vergnü": 2399,
      "Gelegenheit": 2400,
      "Thr": 2401,
      "bö": 2402,
      "ehe": 2403,
      "tigen": 2404,
      "endet": 2405,
      "schlagen": 2406,
      "alien": 2407,
      "solle": 2408,
      "erkennen": 2409,
      "skis": 2410,
      "traf": 2411,
      "Stellung": 2412,
      "Aufmerk": 2413,
      "größer": 2414,
      "Peters": 2415,
      "Ehr": 2416,
      "Fä": 2417,
      "Macht": 2418,
      "erblickte": 2419,
      "einigen": 2420,
      "gedacht": 2421,
      "schu": 2422,
      "Anf": 2423,
      "Reed": 2424,
      "komme": 2425,
      "Gottes": 2426,
      "erschienen": 2427,
      "Schritte": 2428,
      "Pferd": 2429,
      "Warjenka": 2430,
      "Eur": 2431,
      "Gru": 2432,
      "laufen": 2433,
      "wig": 2434,
      "zähl": 2435,
      "schwie": 2436,
      "wartete": 2437,
      "sahen": 2438,
      "heur": 2439,
      "eilig": 2440,
      "kleines": 2441,
      "zweifel": 2442,
      "erwartet": 2443,
      "sprang": 2444,
      "Kapitel": 2445,
      "Gou": 2446,
      "Hoch": 2447,
      "Tante": 2448,
      "Zie": 2449,
      "dicht": 2450,
      "hil": 2451,
      "id": 2452,
      "iz": 2453,
      "unwill": 2454,
      "achtete": 2455,
      "wohin": 2456,
      "Erst": 2457,
      "losen": 2458,
      "Also": 2459,
      "sichtbar": 2460,
      "Mary": 2461,
      "wendig": 2462,
      "Flü": 2463,
      "Jungen": 2464,
      "ahe": 2465,
      "scheu": 2466,
      "armen": 2467,
      "Schü": 2468,
      "Dies": 2469,
      "verschieden": 2470,
      "ätigkeit": 2471,
      "Fragen": 2472,
      "Schmerz": 2473,
      "Petersbur": 2474,
      "Bank": 2475,
      "mte": 2476,
      "mar": 2477,
      "ufen": 2478,
      "eile": 2479,
      "einsam": 2480,
      "dagegen": 2481,
      "jedem": 2482,
      "Angst": 2483,
      "Wirklich": 2484,
      "katen": 2485,
      "Reise": 2486,
      "merkte": 2487,
      "länger": 2488,
      "Dunkel": 2489,
      "Ehe": 2490,
      "Kunst": 2491,
      "On": 2492,
      "Tod": 2493,
      "bü": 2494,
      "wes": 2495,
      "ink": 2496,
      "inen": 2497,
      "miteinander": 2498,
      "recken": 2499,
      "weißt": 2500,
      "wollten": 2501,
      "spät": 2502,
      "bisher": 2503,
      "hof": 2504,
      "haltung": 2505,
      "zahl": 2506,
      "finster": 2507,
      "eidung": 2508,
      "helfen": 2509,
      "längst": 2510,
      "Fer": 2511,
      "Fle": 2512,
      "Krie": 2513,
      "bild": 2514,
      "icken": 2515,
      "usch": 2516,
      "gemein": 2517,
      "schöne": 2518,
      "Str": 2519,
      "seid": 2520,
      "Regen": 2521,
      "hohen": 2522,
      "ächter": 2523,
      "Stuhl": 2524,
      "Dach": 2525,
      "Fro": 2526,
      "Gu": 2527,
      "Sich": 2528,
      "Tat": 2529,
      "iff": 2530,
      "res": 2531,
      "derselben": 2532,
      "hab": 2533,
      "demselben": 2534,
      "Bessie": 2535,
      "älte": 2536,
      "Onkel": 2537,
      "Eng": 2538,
      "Sal": 2539,
      "bie": 2540,
      "diger": 2541,
      "els": 2542,
      "Schn": 2543,
      "wolle": 2544,
      "ischt": 2545,
      "gewissen": 2546,
      "rift": 2547,
      "glichkeit": 2548,
      "sonderbar": 2549,
      "bemü": 2550,
      "Absicht": 2551,
      "findet": 2552,
      "Gegenstand": 2553,
      "Blut": 2554,
      "deutlich": 2555,
      "drehte": 2556,
      "überzeugt": 2557,
      "bißchen": 2558,
      "Aufmerksamkeit": 2559,
      "rück": 2560,
      "trü": 2561,
      "anten": 2562,
      "inz": 2563,
      "ftigen": 2564,
      "Verzwei": 2565,
      "zurückzu": 2566,
      "zeß": 2567,
      "Saint": 2568,
      "mäßig": 2569,
      "empor": 2570,
      "schlafen": 2571,
      "beinahe": 2572,
      "Schönheit": 2573,
      "Bitte": 2574,
      "Dingen": 2575,
      "Glas": 2576,
      "Kna": 2577,
      "Obl": 2578,
      "Plötzlich": 2579,
      "ct": 2580,
      "dol": 2581,
      "ili": 2582,
      "erfahren": 2583,
      "sowohl": 2584,
      "verk": 2585,
      "versp": 2586,
      "sichtig": 2587,
      "solcher": 2588,
      "Schule": 2589,
      "erzählte": 2590,
      "schied": 2591,
      "Charak": 2592,
      "beschäftigt": 2593,
      "Oblon": 2594,
      "Sam": 2595,
      "Swi": 2596,
      "Wissen": 2597,
      "Zä": 2598,
      "klo": 2599,
      "kürlich": 2600,
      "sal": 2601,
      "trei": 2602,
      "geöff": 2603,
      "soeben": 2604,
      "gestern": 2605,
      "reisen": 2606,
      "isches": 2607,
      "wären": 2608,
      "jasch": 2609,
      "konnten": 2610,
      "sollten": 2611,
      "Rou": 2612,
      "beugte": 2613,
      "Swijasch": 2614,
      "Sü": 2615,
      "Wand": 2616,
      "bitten": 2617,
      "irfa": 2618,
      "raten": 2619,
      "ernst": 2620,
      "Verb": 2621,
      "Ihrer": 2622,
      "gleichfalls": 2623,
      "maßen": 2624,
      "Fairfa": 2625,
      "trotzdem": 2626,
      "Notre": 2627,
      "Fairfax": 2628,
      "Bil": 2629,
      "Lachen": 2630,
      "Part": 2631,
      "Su": 2632,
      "blo": 2633,
      "ilo": 2634,
      "miß": 2635,
      "meister": 2636,
      "rer": 2637,
      "iegel": 2638,
      "elten": 2639,
      "cker": 2640,
      "verheira": 2641,
      "hler": 2642,
      "lasse": 2643,
      "geradezu": 2644,
      "küßte": 2645,
      "geist": 2646,
      "nungen": 2647,
      "eres": 2648,
      "ans": 2649,
      "artig": 2650,
      "Anstren": 2651,
      "lose": 2652,
      "Bekann": 2653,
      "riffen": 2654,
      "ionen": 2655,
      "haup": 2656,
      "treffen": 2657,
      "flung": 2658,
      "fürchtete": 2659,
      "flüsterte": 2660,
      "Verzweiflung": 2661,
      "Doch": 2662,
      "Hä": 2663,
      "gol": 2664,
      "mochte": 2665,
      "tä": 2666,
      "erwä": 2667,
      "ina": 2668,
      "steigen": 2669,
      "aufmerk": 2670,
      "weisen": 2671,
      "immt": 2672,
      "Rede": 2673,
      "antworten": 2674,
      "Schuld": 2675,
      "arbeiten": 2676,
      "Bemerk": 2677,
      "Grü": 2678,
      "frö": 2679,
      "ium": 2680,
      "ivers": 2681,
      "denke": 2682,
      "orben": 2683,
      "mmte": 2684,
      "mittag": 2685,
      "reif": 2686,
      "darum": 2687,
      "geschrieben": 2688,
      "ziemlich": 2689,
      "teilen": 2690,
      "Prozeß": 2691,
      "bemerkt": 2692,
      "Studen": 2693,
      "entschlossen": 2694,
      "Richter": 2695,
      "glänzen": 2696,
      "Vielleicht": 2697,
      "düster": 2698,
      "Dom": 2699,
      "Knie": 2700,
      "Mu": 2701,
      "Mauer": 2702,
      "os": 2703,
      "prü": 2704,
      "verw": 2705,
      "Außer": 2706,
      "reißen": 2707,
      "gewalt": 2708,
      "erstau": 2709,
      "Tagen": 2710,
      "Reihe": 2711,
      "Lande": 2712,
      "hstück": 2713,
      "krank": 2714,
      "Advokaten": 2715,
      "guter": 2716,
      "Kon": 2717,
      "Krä": 2718,
      "Kreu": 2719,
      "iet": 2720,
      "inkel": 2721,
      "geh": 2722,
      "verließ": 2723,
      "legt": 2724,
      "reut": 2725,
      "herunter": 2726,
      "pflegte": 2727,
      "Dieses": 2728,
      "rieb": 2729,
      "ören": 2730,
      "häng": 2731,
      "kleiner": 2732,
      "jenen": 2733,
      "ärtlich": 2734,
      "gestanden": 2735,
      "Beispiel": 2736,
      "schwarz": 2737,
      "strahl": 2738,
      "Gold": 2739,
      "Gouvern": 2740,
      "aufmerksam": 2741,
      "Ch": 2742,
      "Holz": 2743,
      "keiner": 2744,
      "mor": 2745,
      "treu": 2746,
      "erlau": 2747,
      "stadt": 2748,
      "getragen": 2749,
      "behaup": 2750,
      "isten": 2751,
      "Schne": 2752,
      "Gesichte": 2753,
      "entde": 2754,
      "ganzes": 2755,
      "klein": 2756,
      "Zusammen": 2757,
      "nahme": 2758,
      "Adele": 2759,
      "trauen": 2760,
      "dürfen": 2761,
      "Stock": 2762,
      "dolf": 2763,
      "Kä": 2764,
      "Mond": 2765,
      "Werk": 2766,
      "deinen": 2767,
      "lungen": 2768,
      "ve": 2769,
      "Är": 2770,
      "hafte": 2771,
      "haften": 2772,
      "dasselbe": 2773,
      "pfel": 2774,
      "spruch": 2775,
      "Arbei": 2776,
      "achtung": 2777,
      "jenigen": 2778,
      "voller": 2779,
      "Mitleid": 2780,
      "Rudolf": 2781,
      "Hauses": 2782,
      "Schultern": 2783,
      "Advokat": 2784,
      "Michai": 2785,
      "Kauf": 2786,
      "Noch": 2787,
      "zk": 2788,
      "aub": 2789,
      "aunen": 2790,
      "hnt": 2791,
      "vorbei": 2792,
      "besten": 2793,
      "weck": 2794,
      "wechsel": 2795,
      "Zustand": 2796,
      "Gemü": 2797,
      "Ah": 2798,
      "Brau": 2799,
      "Best": 2800,
      "mt": 2801,
      "angef": 2802,
      "letzt": 2803,
      "lebte": 2804,
      "ausp": 2805,
      "getreten": 2806,
      "verschwand": 2807,
      "richten": 2808,
      "Kirchen": 2809,
      "Schritt": 2810,
      "großes": 2811,
      "Richtung": 2812,
      "Bürger": 2813,
      "Baum": 2814,
      "Tätigkeit": 2815,
      "bot": 2816,
      "flu": 2817,
      "verd": 2818,
      "oche": 2819,
      "Schwä": 2820,
      "wobei": 2821,
      "sterben": 2822,
      "Gesichts": 2823,
      "verschw": 2824,
      "handen": 2825,
      "diener": 2826,
      "Kranken": 2827,
      "Anfang": 2828,
      "schwieg": 2829,
      "unwillkürlich": 2830,
      "Bal": 2831,
      "Fla": 2832,
      "Mus": 2833,
      "bung": 2834,
      "deiner": 2835,
      "hungen": 2836,
      "ia": 2837,
      "mmern": 2838,
      "heben": 2839,
      "ellen": 2840,
      "----": 2841,
      "gebil": 2842,
      "hielten": 2843,
      "Geschäft": 2844,
      "Frem": 2845,
      "Tode": 2846,
      "schreiben": 2847,
      "Solda": 2848,
      "Charakter": 2849,
      "Ed": 2850,
      "Fei": 2851,
      "Gä": 2852,
      "Kor": 2853,
      "übr": 2854,
      "zurecht": 2855,
      "orte": 2856,
      "leuchte": 2857,
      "ett": 2858,
      "wirtschaft": 2859,
      "absicht": 2860,
      "Armen": 2861,
      "blicken": 2862,
      "riß": 2863,
      "Ljewins": 2864,
      "müde": 2865,
      "Pflicht": 2866,
      "vermochte": 2867,
      "schritt": 2868,
      "Fest": 2869,
      "Hel": 2870,
      "Les": 2871,
      "Ra": 2872,
      "dwig": 2873,
      "fft": 2874,
      "för": 2875,
      "wein": 2876,
      "einge": 2877,
      "rufen": 2878,
      "höher": 2879,
      "handelt": 2880,
      "Ludwig": 2881,
      "boden": 2882,
      "jemals": 2883,
      "Blumen": 2884,
      "Kamin": 2885,
      "bestimmt": 2886,
      "Glauben": 2887,
      "Interesse": 2888,
      "Vort": 2889,
      "dan": 2890,
      "ltig": 2891,
      "errö": 2892,
      "infolge": 2893,
      "strei": 2894,
      "Verw": 2895,
      "ilber": 2896,
      "erzählen": 2897,
      "itzt": 2898,
      "einzigen": 2899,
      "Schulter": 2900,
      "Königs": 2901,
      "spielen": 2902,
      "öpfe": 2903,
      "Swijaschski": 2904,
      ",\"": 2905,
      "Neben": 2906,
      "Pal": 2907,
      "Ster": 2908,
      "gungen": 2909,
      "berü": 2910,
      "weis": 2911,
      "roffen": 2912,
      "vorzu": 2913,
      "traten": 2914,
      "Lieb": 2915,
      "ergriff": 2916,
      "kehrt": 2917,
      "Lust": 2918,
      "Sonnt": 2919,
      "Schweigen": 2920,
      "Gei": 2921,
      "Ohren": 2922,
      "Vier": 2923,
      "fers": 2924,
      "ole": 2925,
      "ville": 2926,
      "eng": 2927,
      "cky": 2928,
      "setzt": 2929,
      "verur": 2930,
      "Erregung": 2931,
      "Gefühle": 2932,
      "gerin": 2933,
      "Becky": 2934,
      "ppich": 2935,
      "stände": 2936,
      "Geräusch": 2937,
      "Stimmung": 2938,
      "Untersuch": 2939,
      "hindurch": 2940,
      "assung": 2941,
      "verstehe": 2942,
      "Oblonski": 2943,
      "Chr": 2944,
      "Kan": 2945,
      "Sä": 2946,
      "dick": 2947,
      "pft": 2948,
      "sti": 2949,
      "unauf": 2950,
      "amten": 2951,
      "Annas": 2952,
      "raußen": 2953,
      "läss": 2954,
      "baren": 2955,
      "dringen": 2956,
      "Aufregung": 2957,
      "Mitte": 2958,
      "Betsy": 2959,
      "französ": 2960,
      "schwach": 2961,
      "drückt": 2962,
      "Karen": 2963,
      "Rock": 2964,
      "näherte": 2965,
      "freundlich": 2966,
      "entfernt": 2967,
      "wachsen": 2968,
      "meisten": 2969,
      "Thrä": 2970,
      "Ir": 2971,
      "Lö": 2972,
      "Temp": 2973,
      "Winter": 2974,
      "dauer": 2975,
      "murm": 2976,
      "pre": 2977,
      "utete": 2978,
      "ym": 2979,
      "vorhanden": 2980,
      "hinab": 2981,
      "stell": 2982,
      "latze": 2983,
      "chtes": 2984,
      "langte": 2985,
      "Bezie": 2986,
      "Bedeut": 2987,
      "obwohl": 2988,
      "schaffen": 2989,
      "heiter": 2990,
      "agd": 2991,
      "vielmehr": 2992,
      "schluß": 2993,
      "schrieb": 2994,
      "Geistliche": 2995,
      "Ueber": 2996,
      "Bel": 2997,
      "Dank": 2998,
      "fla": 2999,
      "lachte": 3000,
      "seits": 3001,
      "tlichen": 3002,
      "wann": 3003,
      "gethan": 3004,
      "itzer": 3005,
      "bew": 3006,
      "überra": 3007,
      "lock": 3008,
      "Ihren": 3009,
      "fortwährend": 3010,
      "ängst": 3011,
      "äude": 3012,
      "richter": 3013,
      "Herzens": 3014,
      "hübsch": 3015,
      "Frühstück": 3016,
      "giebt": 3017,
      "Lydia": 3018,
      "Nikolai": 3019,
      "Petersburg": 3020,
      "Sicher": 3021,
      "Vo": 3022,
      "abend": 3023,
      "glichen": 3024,
      "griff": 3025,
      "achtet": 3026,
      "terin": 3027,
      "annten": 3028,
      "Schlü": 3029,
      "Schrecken": 3030,
      "werfen": 3031,
      "eigene": 3032,
      "kehren": 3033,
      "tritt": 3034,
      "bedeuten": 3035,
      "form": 3036,
      "Sonnen": 3037,
      "schmerz": 3038,
      "Weslow": 3039,
      "Angelegenheit": 3040,
      "Kaufmann": 3041,
      "aßt": 3042,
      "fassen": 3043,
      "kunst": 3044,
      "nannte": 3045,
      "ust": 3046,
      "ßig": 3047,
      "esser": 3048,
      "gefühl": 3049,
      "redete": 3050,
      "Schausp": 3051,
      "überall": 3052,
      "häuf": 3053,
      "bare": 3054,
      "gefahren": 3055,
      "Schwier": 3056,
      "gaben": 3057,
      "Verhältnis": 3058,
      "schüttelte": 3059,
      "Fort": 3060,
      "erhoben": 3061,
      "auseinander": 3062,
      "unangenehm": 3063,
      "bewußt": 3064,
      "seuf": 3065,
      "Gewi": 3066,
      "wirr": 3067,
      "besaß": 3068,
      "Versuch": 3069,
      "halte": 3070,
      "eller": 3071,
      "wagte": 3072,
      "Nachbar": 3073,
      "Leuten": 3074,
      "Gegenwart": 3075,
      "fällig": 3076,
      "Wirklichkeit": 3077,
      "Gewiß": 3078,
      "Brie": 3079,
      "Ecke": 3080,
      "Plä": 3081,
      "gnä": 3082,
      "kalt": 3083,
      "sorg": 3084,
      "alen": 3085,
      "berühr": 3086,
      "bewe": 3087,
      "beglei": 3088,
      "verz": 3089,
      "saßen": 3090,
      "inde": 3091,
      "Sti": 3092,
      "heftig": 3093,
      "Verzei": 3094,
      "ents": 3095,
      "manchmal": 3096,
      "Herzog": 3097,
      "ärm": 3098,
      "Grunde": 3099,
      "Thorn": 3100,
      "Wirtschaft": 3101,
      "Unterhaltung": 3102,
      "field": 3103,
      "Eisen": 3104,
      "geöffnet": 3105,
      "Ey": 3106,
      "Oh": 3107,
      "Wür": 3108,
      "ahl": 3109,
      "dchen": 3110,
      "nei": 3111,
      "tige": 3112,
      "erw": 3113,
      "scheinen": 3114,
      "Verstand": 3115,
      "häß": 3116,
      "Ihrem": 3117,
      "geschickt": 3118,
      "zwungen": 3119,
      "Weile": 3120,
      "Beim": 3121,
      "einzel": 3122,
      "Füße": 3123,
      "schuld": 3124,
      "Heim": 3125,
      "Traum": 3126,
      "Schlüssel": 3127,
      "Thornfield": 3128,
      "Eing": 3129,
      "Frie": 3130,
      "Häl": 3131,
      "Pet": 3132,
      "Wald": 3133,
      "gliche": 3134,
      "izier": 3135,
      "that": 3136,
      "uchen": 3137,
      "zend": 3138,
      "schob": 3139,
      "tend": 3140,
      "wies": 3141,
      "Schick": 3142,
      "herbei": 3143,
      "hing": 3144,
      "ehren": 3145,
      "ändert": 3146,
      "seite": 3147,
      "vollkommen": 3148,
      "folg": 3149,
      "prächt": 3150,
      "ährt": 3151,
      "Iwanowna": 3152,
      "schweigend": 3153,
      "traurig": 3154,
      "persön": 3155,
      "bekannt": 3156,
      "Kreuz": 3157,
      "Bar": 3158,
      "Hen": 3159,
      "Mam": 3160,
      "Wal": 3161,
      "ate": 3162,
      "draußen": 3163,
      "nennen": 3164,
      "pr": 3165,
      "tscher": 3166,
      "ven": 3167,
      "erie": 3168,
      "einst": 3169,
      "regel": 3170,
      "roten": 3171,
      "rocken": 3172,
      "Gewohn": 3173,
      "gerufen": 3174,
      "laden": 3175,
      "ändern": 3176,
      "gefaßt": 3177,
      "Spei": 3178,
      "hause": 3179,
      "Hof": 3180,
      "erwartete": 3181,
      "Gewalt": 3182,
      "Glanz": 3183,
      "Kutscher": 3184,
      "Ziege": 3185,
      "Eyre": 3186,
      "Len": 3187,
      "Mas": 3188,
      "Off": 3189,
      "Winkel": 3190,
      "Zelle": 3191,
      "aden": 3192,
      "misch": 3193,
      "stei": 3194,
      "schlief": 3195,
      "zusehen": 3196,
      "elig": 3197,
      "lige": 3198,
      "fürchter": 3199,
      "gelesen": 3200,
      "Einzel": 3201,
      "Herrschaft": 3202,
      "Zukunft": 3203,
      "Trotz": 3204,
      "Peter": 3205,
      "Möglichkeit": 3206,
      "Papier": 3207,
      "scharf": 3208,
      "ärgerlich": 3209,
      "notwendig": 3210,
      "Rau": 3211,
      "Tor": 3212,
      "gs": 3213,
      "ib": 3214,
      "rein": 3215,
      "talien": 3216,
      "übrigen": 3217,
      "andre": 3218,
      "satz": 3219,
      "vorsichtig": 3220,
      "ffte": 3221,
      "Bewußt": 3222,
      "jewna": 3223,
      "Alte": 3224,
      "usse": 3225,
      "Sprach": 3226,
      "legenheit": 3227,
      "wünschen": 3228,
      "Bedeutung": 3229,
      "Bein": 3230,
      "Dian": 3231,
      "kle": 3232,
      "passen": 3233,
      "säch": 3234,
      "tut": 3235,
      "eis": 3236,
      "onner": 3237,
      "aufs": 3238,
      "neun": 3239,
      "reizen": 3240,
      "entsetz": 3241,
      "brü": 3242,
      "erklä": 3243,
      "theil": 3244,
      "Gedächt": 3245,
      "schew": 3246,
      "Wollen": 3247,
      "Lehn": 3248,
      "besondere": 3249,
      "tiefer": 3250,
      "Gegenteil": 3251,
      "früh": 3252,
      "Überzeu": 3253,
      "Arbeits": 3254,
      "Begriff": 3255,
      "streckte": 3256,
      "verständlich": 3257,
      "Form": 3258,
      "Kleider": 3259,
      "iloso": 3260,
      "Weslowski": 3261,
      "Brot": 3262,
      "Junge": 3263,
      "Lü": 3264,
      "Wunder": 3265,
      "nament": 3266,
      "vat": 3267,
      "erken": 3268,
      "einiger": 3269,
      "stolz": 3270,
      "uner": 3271,
      "sichten": 3272,
      "uren": 3273,
      "verst": 3274,
      "rechten": 3275,
      "tzten": 3276,
      "Schließlich": 3277,
      "henden": 3278,
      "chtigkeit": 3279,
      "gewand": 3280,
      "russ": 3281,
      "mache": 3282,
      "losigkeit": 3283,
      "Kindern": 3284,
      "wegs": 3285,
      "sprachen": 3286,
      "mack": 3287,
      "unserer": 3288,
      "Krank": 3289,
      "Bewegungen": 3290,
      "Gesetz": 3291,
      "Sonntag": 3292,
      "namentlich": 3293,
      "Ide": 3294,
      "Ohne": 3295,
      "Wol": 3296,
      "feu": 3297,
      "zlich": 3298,
      "arren": 3299,
      "mmt": 3300,
      "sow": 3301,
      "leisch": 3302,
      "stete": 3303,
      "mußt": 3304,
      "mußten": 3305,
      "schienen": 3306,
      "getroffen": 3307,
      "Mada": 3308,
      "ruhigen": 3309,
      "quäl": 3310,
      "Königin": 3311,
      "außerordentlich": 3312,
      "gebrochen": 3313,
      "Name": 3314,
      "Teppich": 3315,
      "Italien": 3316,
      "Sachen": 3317,
      "Tie": 3318,
      "Will": 3319,
      "affen": 3320,
      "froh": 3321,
      "übrigens": 3322,
      "derte": 3323,
      "onne": 3324,
      "sieben": 3325,
      "verzei": 3326,
      "sagten": 3327,
      "Erschein": 3328,
      "lien": 3329,
      "etten": 3330,
      "gewis": 3331,
      "zweif": 3332,
      "zweite": 3333,
      "fühlen": 3334,
      "Reden": 3335,
      "Jac": 3336,
      "quem": 3337,
      "brauche": 3338,
      "Freiheit": 3339,
      "ähnlich": 3340,
      "erklärte": 3341,
      "Leser": 3342,
      "Atem": 3343,
      "Gang": 3344,
      "Hem": 3345,
      "Mill": 3346,
      "Tier": 3347,
      "Wut": 3348,
      "dung": 3349,
      "gei": 3350,
      "pl": 3351,
      "pro": 3352,
      "tot": 3353,
      "estern": 3354,
      "schlag": 3355,
      "genü": 3356,
      "hrte": 3357,
      "indessen": 3358,
      "heut": 3359,
      "höre": 3360,
      "allerlei": 3361,
      "Franz": 3362,
      "haftigkeit": 3363,
      "geklei": 3364,
      "Bücher": 3365,
      "Musik": 3366,
      "Schauspiel": 3367,
      "Gast": 3368,
      "Haltung": 3369,
      "Jung": 3370,
      "Jagd": 3371,
      "Rö": 3372,
      "Zauber": 3373,
      "zten": 3374,
      "bekam": 3375,
      "beweg": 3376,
      "urfte": 3377,
      "wiesen": 3378,
      "Scheidung": 3379,
      "Schtscher": 3380,
      "weiße": 3381,
      "ückt": 3382,
      "ation": 3383,
      "gewor": 3384,
      "nahmen": 3385,
      "länd": 3386,
      "müßte": 3387,
      "Kittys": 3388,
      "dunkl": 3389,
      "Hex": 3390,
      "gram": 3391,
      "Willen": 3392,
      "gültig": 3393,
      "Bahn": 3394,
      "augenblick": 3395,
      "unglücklich": 3396,
      "Ferne": 3397,
      "Knaben": 3398,
      "murmelte": 3399,
      "Bewußtsein": 3400,
      "Schtscherba": 3401,
      "Fahr": 3402,
      "oten": 3403,
      "utet": 3404,
      "auft": 3405,
      "set": 3406,
      "verli": 3407,
      "abge": 3408,
      "heiligen": 3409,
      "begrü": 3410,
      "möge": 3411,
      "mädchen": 3412,
      "Wronskis": 3413,
      "bemerken": 3414,
      "erscheinen": 3415,
      "Fehler": 3416,
      "erzählt": 3417,
      "schrecklich": 3418,
      "jedesmal": 3419,
      "hafter": 3420,
      "dieselbe": 3421,
      "Außerdem": 3422,
      "Soldaten": 3423,
      "geworfen": 3424,
      "Bu": 3425,
      "Sessel": 3426,
      "pein": 3427,
      "platz": 3428,
      "tanz": 3429,
      "ungefähr": 3430,
      "haftig": 3431,
      "sehn": 3432,
      "voraus": 3433,
      "leichter": 3434,
      "liefen": 3435,
      "Ingram": 3436,
      "Vorstellung": 3437,
      "Gras": 3438,
      "mächtig": 3439,
      "mählich": 3440,
      "Saal": 3441,
      "Nase": 3442,
      "trinken": 3443,
      "zeitig": 3444,
      "Groß": 3445,
      "beruhigen": 3446,
      "unaufhör": 3447,
      "Chor": 3448,
      "Gute": 3449,
      "Lauf": 3450,
      "Sinne": 3451,
      "Zweck": 3452,
      "dank": 3453,
      "dün": 3454,
      "fangen": 3455,
      "anne": 3456,
      "Schon": 3457,
      "wirk": 3458,
      "Verständ": 3459,
      "jenige": 3460,
      "vielen": 3461,
      "gesto": 3462,
      "Entsetzen": 3463,
      "Aller": 3464,
      "Mitta": 3465,
      "bildete": 3466,
      "Wohnung": 3467,
      "Dunkelheit": 3468,
      "Salon": 3469,
      "Anstrengung": 3470,
      "erstaunt": 3471,
      "Diana": 3472,
      "Überzeugung": 3473,
      "',": 3474,
      "Et": 3475,
      "Gatt": 3476,
      "kind": 3477,
      "lauf": 3478,
      "teuer": 3479,
      "inal": 3480,
      "stein": 3481,
      "Stü": 3482,
      "Sturm": 3483,
      "sprü": 3484,
      "laster": 3485,
      "ebenfalls": 3486,
      "könnten": 3487,
      "geschm": 3488,
      "ult": 3489,
      "hierher": 3490,
      "Reg": 3491,
      "Thor": 3492,
      "Daß": 3493,
      "Wirkung": 3494,
      "handeln": 3495,
      "brauchte": 3496,
      "kurzen": 3497,
      "erschrocken": 3498,
      "schaute": 3499,
      "Zwischen": 3500,
      "Häuser": 3501,
      "Gäste": 3502,
      "Thränen": 3503,
      "Einzelheiten": 3504,
      "Sprache": 3505,
      "Dicht": 3506,
      "Ga": 3507,
      "Hund": 3508,
      "Wein": 3509,
      "Wit": 3510,
      "Woche": 3511,
      "hang": 3512,
      "hart": 3513,
      "kö": 3514,
      "og": 3515,
      "sor": 3516,
      "ött": 3517,
      "gewohn": 3518,
      "zukommen": 3519,
      "dennoch": 3520,
      "ität": 3521,
      "verwand": 3522,
      "hnsinn": 3523,
      "lebt": 3524,
      "deswegen": 3525,
      "Geh": 3526,
      "gewisse": 3527,
      "euf": 3528,
      "Spitze": 3529,
      "erinnen": 3530,
      "Thurm": 3531,
      "holte": 3532,
      "Schwestern": 3533,
      "größten": 3534,
      "Prinz": 3535,
      "Kummer": 3536,
      "Leni": 3537,
      "Offizier": 3538,
      "Dä": 3539,
      "Klo": 3540,
      "Kla": 3541,
      "Tau": 3542,
      "drän": 3543,
      "kra": 3544,
      "krie": 3545,
      "lernen": 3546,
      "mon": 3547,
      "sion": 3548,
      "gefü": 3549,
      "geheimnis": 3550,
      "sogleich": 3551,
      "soviel": 3552,
      "wollt": 3553,
      "Auff": 3554,
      "reicht": 3555,
      "stet": 3556,
      "steckte": 3557,
      "langer": 3558,
      "Einen": 3559,
      "gefä": 3560,
      "glaubt": 3561,
      "zeigt": 3562,
      "wagen": 3563,
      "älter": 3564,
      "Entschluß": 3565,
      "hüter": 3566,
      "dienen": 3567,
      "Ort": 3568,
      "schwarze": 3569,
      "zehnten": 3570,
      "Kampf": 3571,
      "Nichts": 3572,
      "Mittag": 3573,
      "wichtig": 3574,
      "Bemerkung": 3575,
      "angefangen": 3576,
      "Christ": 3577,
      "Verständnis": 3578,
      "Mittagessen": 3579,
      "Beine": 3580,
      "Bald": 3581,
      "Lärm": 3582,
      "Mil": 3583,
      "Sor": 3584,
      "Sid": 3585,
      "Wil": 3586,
      "Wochen": 3587,
      "Zur": 3588,
      "jähr": 3589,
      "eich": 3590,
      "stär": 3591,
      "begeg": 3592,
      "dest": 3593,
      "seln": 3594,
      "uchten": 3595,
      "Weiber": 3596,
      "schöner": 3597,
      "horchte": 3598,
      "Post": 3599,
      "Eltern": 3600,
      "lebhaft": 3601,
      "Weilchen": 3602,
      "Erklär": 3603,
      "Blä": 3604,
      "Lam": 3605,
      "Mir": 3606,
      "Oli": 3607,
      "Zeu": 3608,
      "bru": 3609,
      "mus": 3610,
      "erlich": 3611,
      "aul": 3612,
      "gelang": 3613,
      "unk": 3614,
      "arr": 3615,
      "arben": 3616,
      "Scham": 3617,
      "lieder": 3618,
      "ingern": 3619,
      "Essen": 3620,
      "eilung": 3621,
      "Stell": 3622,
      "Stimmen": 3623,
      "Kaffe": 3624,
      "frisch": 3625,
      "öffent": 3626,
      "einziges": 3627,
      "Kleine": 3628,
      "Dorf": 3629,
      "übrig": 3630,
      "erklären": 3631,
      "Jacob": 3632,
      "Hind": 3633,
      "Lin": 3634,
      "Nu": 3635,
      "Sc": 3636,
      "Seit": 3637,
      "Zeiten": 3638,
      "blä": 3639,
      "co": 3640,
      "hunder": 3641,
      "runken": 3642,
      "sachen": 3643,
      "yp": 3644,
      "bek": 3645,
      "Schild": 3646,
      "hend": 3647,
      "vorwärts": 3648,
      "lowna": 3649,
      "geschn": 3650,
      "ulen": 3651,
      "Alt": 3652,
      "Blicken": 3653,
      "beständ": 3654,
      "fielen": 3655,
      "besonderen": 3656,
      "Antl": 3657,
      "spielte": 3658,
      "schlechter": 3659,
      "fäh": 3660,
      "enntnis": 3661,
      "Personen": 3662,
      "augenscheinlich": 3663,
      "Guts": 3664,
      "Leidenschaft": 3665,
      "lustig": 3666,
      "kämpf": 3667,
      "mächtigen": 3668,
      "wesenheit": 3669,
      "vergnügt": 3670,
      "weshalb": 3671,
      "Hälfte": 3672,
      "Schicksal": 3673,
      "Mama": 3674,
      "Card": 3675,
      "Drei": 3676,
      "Ding": 3677,
      "Falle": 3678,
      "Sy": 3679,
      "San": 3680,
      "Zum": 3681,
      "blü": 3682,
      "bitter": 3683,
      "got": 3684,
      "munter": 3685,
      "tö": 3686,
      "ys": 3687,
      "iedenen": 3688,
      "schimmer": 3689,
      "denselben": 3690,
      "aufge": 3691,
      "lehnte": 3692,
      "Ern": 3693,
      "Stille": 3694,
      "gelaufen": 3695,
      "drang": 3696,
      "Zug": 3697,
      "Sommer": 3698,
      "Thüre": 3699,
      "Zimmers": 3700,
      "Kammer": 3701,
      "Katze": 3702,
      "boten": 3703,
      "brauchen": 3704,
      "Frank": 3705,
      "fluß": 3706,
      "Gespräche": 3707,
      "wunderung": 3708,
      "freue": 3709,
      "schuldig": 3710,
      "grund": 3711,
      "Tee": 3712,
      "höchst": 3713,
      "grauen": 3714,
      "junger": 3715,
      "Theater": 3716,
      "böse": 3717,
      "Rouen": 3718,
      "danach": 3719,
      "Dr": 3720,
      "Oder": 3721,
      "Sob": 3722,
      "Yon": 3723,
      "awa": 3724,
      "flich": 3725,
      "kün": 3726,
      "nes": 3727,
      "pel": 3728,
      "stin": 3729,
      "stück": 3730,
      "strö": 3731,
      "schicken": 3732,
      "urst": 3733,
      "gesund": 3734,
      "Stie": 3735,
      "geriet": 3736,
      "fürchten": 3737,
      "wiederum": 3738,
      "lauter": 3739,
      "mehrere": 3740,
      "wurf": 3741,
      "stehenden": 3742,
      "Hast": 3743,
      "Haben": 3744,
      "Leib": 3745,
      "straße": 3746,
      "Todes": 3747,
      "Küche": 3748,
      "Staat": 3749,
      "Wohnzimmer": 3750,
      "Katawa": 3751,
      "Sicherheit": 3752,
      "Frieden": 3753,
      "Frankreich": 3754,
      "Sobald": 3755,
      "Katawasow": 3756,
      "Aga": 3757,
      "Har": 3758,
      "Haufen": 3759,
      "Prü": 3760,
      "Wangen": 3761,
      "fja": 3762,
      "körper": 3763,
      "plau": 3764,
      "iele": 3765,
      "gekehrt": 3766,
      "versuchen": 3767,
      "lege": 3768,
      "rede": 3769,
      "Stand": 3770,
      "reiche": 3771,
      "spricht": 3772,
      "Esmer": 3773,
      "hört": 3774,
      "erträ": 3775,
      "hoffe": 3776,
      "ständen": 3777,
      "Entsch": 3778,
      "Freuden": 3779,
      "Denk": 3780,
      "anfangen": 3781,
      "Beschäftig": 3782,
      "Galgen": 3783,
      "dopp": 3784,
      "Untersuchungs": 3785,
      "Erscheinung": 3786,
      "Schtscherbazk": 3787,
      "Agafja": 3788,
      "Esmeral": 3789,
      "Acht": 3790,
      "Clo": 3791,
      "Dire": 3792,
      "Fingern": 3793,
      "Rennen": 3794,
      "Seuf": 3795,
      "Tra": 3796,
      "glü": 3797,
      "hten": 3798,
      "ile": 3799,
      "lern": 3800,
      "ling": 3801,
      "ritt": 3802,
      "vol": 3803,
      "err": 3804,
      "schrift": 3805,
      "zuzu": 3806,
      "zuweilen": 3807,
      "versucht": 3808,
      "Schei": 3809,
      "Ereig": 3810,
      "Stro": 3811,
      "gewendet": 3812,
      "kopf": 3813,
      "häu": 3814,
      "hohe": 3815,
      "Seelen": 3816,
      "bleibt": 3817,
      "tiefen": 3818,
      "...«,": 3819,
      "gewöhnt": 3820,
      "außerdem": 3821,
      "Bettler": 3822,
      "früheren": 3823,
      "gabe": 3824,
      "ührung": 3825,
      "Entz": 3826,
      "Niemand": 3827,
      "Gedächtnis": 3828,
      "Brü": 3829,
      "Dem": 3830,
      "Ex": 3831,
      "Kinn": 3832,
      "Mat": 3833,
      "mlichen": 3834,
      "nimmt": 3835,
      "po": 3836,
      "pin": 3837,
      "uern": 3838,
      "ied": 3839,
      "schickte": 3840,
      "verliebt": 3841,
      "ausdruck": 3842,
      "indungen": 3843,
      "Vermögen": 3844,
      "uchs": 3845,
      "angenommen": 3846,
      "änge": 3847,
      "begannen": 3848,
      "Emmas": 3849,
      "freien": 3850,
      "gewöhnlichen": 3851,
      "Darauf": 3852,
      "festen": 3853,
      "natür": 3854,
      "nächst": 3855,
      "Natürlich": 3856,
      "Gebäude": 3857,
      "stürzte": 3858,
      "berühm": 3859,
      "sächlich": 3860,
      "unaufhörlich": 3861,
      "Esmeralda": 3862,
      "At": 3863,
      "jest": 3864,
      "rings": 3865,
      "tliche": 3866,
      "weinen": 3867,
      "eigung": 3868,
      "anger": 3869,
      "stö": 3870,
      "strich": 3871,
      "schließen": 3872,
      "veran": 3873,
      "Erfolg": 3874,
      "Stolz": 3875,
      "gerte": 3876,
      "Vertrauen": 3877,
      "abri": 3878,
      "eux": 3879,
      "unterbrochen": 3880,
      "dritten": 3881,
      "begreifen": 3882,
      "gleichsam": 3883,
      "Spiegel": 3884,
      "Mantel": 3885,
      "mmerte": 3886,
      "hängt": 3887,
      "stoßen": 3888,
      "grunde": 3889,
      "bereitet": 3890,
      "bemühte": 3891,
      "Beziehungen": 3892,
      "seufzte": 3893,
      "ilosoph": 3894,
      "Krankheit": 3895,
      "Antlitz": 3896,
      "jestät": 3897,
      "Abt": 3898,
      "Bin": 3899,
      "Grau": 3900,
      "Tri": 3901,
      "bill": 3902,
      "punkt": 3903,
      "the": 3904,
      "tod": 3905,
      "ugend": 3906,
      "ieb": 3907,
      "stner": 3908,
      "dert": 3909,
      "zugehen": 3910,
      "lichkeiten": 3911,
      "irr": 3912,
      "sech": 3913,
      "verab": 3914,
      "Geheimnis": 3915,
      "Anschau": 3916,
      "selber": 3917,
      "klu": 3918,
      "Eines": 3919,
      "barkeit": 3920,
      "samen": 3921,
      "begab": 3922,
      "begriff": 3923,
      "Jaschw": 3924,
      "Tasche": 3925,
      "Gesichter": 3926,
      "Nachricht": 3927,
      "fuhren": 3928,
      "Laß": 3929,
      "Bruders": 3930,
      "verlor": 3931,
      "heiraten": 3932,
      "Volks": 3933,
      "Gefahr": 3934,
      "duld": 3935,
      "Züge": 3936,
      "Bäume": 3937,
      "gänzlich": 3938,
      "verzeihen": 3939,
      "Gattin": 3940,
      "Blei": 3941,
      "Bisch": 3942,
      "Donner": 3943,
      "Fig": 3944,
      "Lheur": 3945,
      "Pat": 3946,
      "Sire": 3947,
      "blaß": 3948,
      "grä": 3949,
      "io": 3950,
      "lach": 3951,
      "täu": 3952,
      "ndet": 3953,
      "stag": 3954,
      "zuvor": 3955,
      "asen": 3956,
      "ums": 3957,
      "wol": 3958,
      "geraten": 3959,
      "nachher": 3960,
      "Arz": 3961,
      "daraus": 3962,
      "Beamten": 3963,
      "malen": 3964,
      "gegenwär": 3965,
      "hofe": 3966,
      "Rubel": 3967,
      "ordnung": 3968,
      "Bürstner": 3969,
      "nehme": 3970,
      "zeichnet": 3971,
      "Galerie": 3972,
      "menschlichen": 3973,
      "beobachtete": 3974,
      "Halb": 3975,
      "Glocken": 3976,
      "Ehre": 3977,
      "Erstaunen": 3978,
      "Zähne": 3979,
      "verheiratet": 3980,
      "Löwen": 3981,
      "Madame": 3982,
      "verlieren": 3983,
      "Witwe": 3984,
      "Lheureux": 3985,
      "Gü": 3986,
      "Kein": 3987,
      "Mä": 3988,
      "Port": 3989,
      "Plan": 3990,
      "Raum": 3991,
      "buch": 3992,
      "bloß": 3993,
      "ew": 3994,
      "fro": 3995,
      "lachen": 3996,
      "sank": 3997,
      "Äuß": 3998,
      "übel": 3999,
      "erer": 4000,
      "chtern": 4001,
      "geliebt": 4002,
      "befrie": 4003,
      "Erd": 4004,
      "Anspruch": 4005,
      "riet": 4006,
      "geboren": 4007,
      "gestorben": 4008,
      "Dabei": 4009,
      "Sehen": 4010,
      "verschiedenen": 4011,
      "artigen": 4012,
      "Mahl": 4013,
      "handelte": 4014,
      "Jahrhunder": 4015,
      "zeug": 4016,
      "anzusehen": 4017,
      "stuhl": 4018,
      "bestimmte": 4019,
      "ölf": 4020,
      "essin": 4021,
      "Hügel": 4022,
      "ischtschew": 4023,
      "Bekannten": 4024,
      "Schnee": 4025,
      "Arbeiter": 4026,
      "Vogel": 4027,
      "Tiefe": 4028,
      "Kaffee": 4029,
      "Kanz": 4030,
      "Punkt": 4031,
      "glä": 4032,
      "hllo": 4033,
      "off": 4034,
      "ry": 4035,
      "enischtschew": 4036,
      "gezwungen": 4037,
      "unkte": 4038,
      "aren": 4039,
      "tens": 4040,
      "behalten": 4041,
      "urt": 4042,
      "vertrau": 4043,
      "Schlei": 4044,
      "raben": 4045,
      "wozu": 4046,
      "überlegte": 4047,
      "lied": 4048,
      "Angek": 4049,
      "Verwand": 4050,
      "abhäng": 4051,
      "heißen": 4052,
      "uchzen": 4053,
      "gebung": 4054,
      "röte": 4055,
      "Besond": 4056,
      "Bogen": 4057,
      "brachten": 4058,
      "Geschmack": 4059,
      "holt": 4060,
      "schweren": 4061,
      "schlimmer": 4062,
      "eidigen": 4063,
      "Urteil": 4064,
      "Weshalb": 4065,
      "gült": 4066,
      "höchsten": 4067,
      "Kerze": 4068,
      "Golenischtschew": 4069,
      "Verbindung": 4070,
      "verschwunden": 4071,
      "Briefe": 4072,
      "Gewohnheit": 4073,
      "Prinzessin": 4074,
      "Clopin": 4075,
      "Bene": 4076,
      "Fün": 4077,
      "Fleisch": 4078,
      "Munde": 4079,
      "Sen": 4080,
      "Tuch": 4081,
      "bre": 4082,
      "deinem": 4083,
      "isa": 4084,
      "klang": 4085,
      "pu": 4086,
      "erhielt": 4087,
      "chnung": 4088,
      "eintreten": 4089,
      "ump": 4090,
      "Stri": 4091,
      "nachzu": 4092,
      "Verlangen": 4093,
      "breit": 4094,
      "erkannt": 4095,
      "gelt": 4096,
      "heiß": 4097,
      "Kommen": 4098,
      "eigenes": 4099,
      "gebrau": 4100,
      "Liebes": 4101,
      "Toms": 4102,
      "Geschöpf": 4103,
      "ungehe": 4104,
      "Jeder": 4105,
      "Wahl": 4106,
      "bestand": 4107,
      "teilte": 4108,
      "Park": 4109,
      "Adels": 4110,
      "braucht": 4111,
      "vergaß": 4112,
      "Proz": 4113,
      "Marja": 4114,
      "entschieden": 4115,
      "Pariser": 4116,
      "Kamer": 4117,
      "muth": 4118,
      "Feld": 4119,
      "leidenschaft": 4120,
      "Kerzen": 4121,
      "marsch": 4122,
      "klopfte": 4123,
      "Bilder": 4124,
      "stillen": 4125,
      "Temple": 4126,
      "augenblicklich": 4127,
      "Yonville": 4128,
      "Direktor": 4129,
      "Jaschwin": 4130,
      "Block": 4131,
      "Ell": 4132,
      "Fabri": 4133,
      "Helen": 4134,
      "Pol": 4135,
      "Rom": 4136,
      "Ser": 4137,
      "Sehr": 4138,
      "durfte": 4139,
      "slos": 4140,
      "eifr": 4141,
      "inke": 4142,
      "undern": 4143,
      "gem": 4144,
      "mmert": 4145,
      "ürzt": 4146,
      "gesucht": 4147,
      "Still": 4148,
      "Ankunft": 4149,
      "ienen": 4150,
      "laub": 4151,
      "otter": 4152,
      "würdigen": 4153,
      "Innern": 4154,
      "gefiel": 4155,
      "trag": 4156,
      "Wasen": 4157,
      "suche": 4158,
      "neues": 4159,
      "angekommen": 4160,
      "ndete": 4161,
      "Liebl": 4162,
      "gutmü": 4163,
      "Entfern": 4164,
      "öffnen": 4165,
      "dienst": 4166,
      "Abends": 4167,
      "bedeckte": 4168,
      "Eifers": 4169,
      "herrschte": 4170,
      "Gebie": 4171,
      "Jugend": 4172,
      "Ursache": 4173,
      "Familien": 4174,
      "folgenden": 4175,
      "erfüllt": 4176,
      "Heute": 4177,
      "Doktor": 4178,
      "Glocke": 4179,
      "Seufzer": 4180,
      "Entzücken": 4181,
      "Euer": 4182,
      "Heil": 4183,
      "Kälte": 4184,
      "Messer": 4185,
      "Rä": 4186,
      "Zärtlich": 4187,
      "gä": 4188,
      "hut": 4189,
      "iden": 4190,
      "ichtes": 4191,
      "undzwanzig": 4192,
      "genden": 4193,
      "unz": 4194,
      "siehst": 4195,
      "rote": 4196,
      "liehen": 4197,
      "Gewissen": 4198,
      "Verlegenheit": 4199,
      "gewe": 4200,
      "blickt": 4201,
      "rühren": 4202,
      "gleicher": 4203,
      "gleichgültig": 4204,
      "Weißt": 4205,
      "ickten": 4206,
      "schnitt": 4207,
      "dreißig": 4208,
      "Gelie": 4209,
      "Gelächter": 4210,
      "starr": 4211,
      "Fuße": 4212,
      "ränkt": 4213,
      "Lehrer": 4214,
      "bekannten": 4215,
      "Student": 4216,
      "Michailowna": 4217,
      "Hindern": 4218,
      "Dmit": 4219,
      "Eis": 4220,
      "Grö": 4221,
      "Mehr": 4222,
      "Platze": 4223,
      "Vern": 4224,
      "Wach": 4225,
      "Wert": 4226,
      "Wetter": 4227,
      "freut": 4228,
      "gil": 4229,
      "sko": 4230,
      "ttern": 4231,
      "wem": 4232,
      "erei": 4233,
      "anges": 4234,
      "str": 4235,
      "unmittel": 4236,
      "bergen": 4237,
      "lichem": 4238,
      "reckt": 4239,
      "Schlä": 4240,
      "umpen": 4241,
      "gerissen": 4242,
      "ruhe": 4243,
      "Einige": 4244,
      "kannt": 4245,
      "rifft": 4246,
      "ertragen": 4247,
      "fehlen": 4248,
      "--\"": 4249,
      "angs": 4250,
      "solch": 4251,
      "Gere": 4252,
      "richtung": 4253,
      "ziehung": 4254,
      "dient": 4255,
      "Könige": 4256,
      "Prokur": 4257,
      "schwere": 4258,
      "Stufen": 4259,
      "wünsche": 4260,
      "öpfen": 4261,
      "Minute": 4262,
      "tage": 4263,
      "bestimmten": 4264,
      "Decke": 4265,
      "Erinnerungen": 4266,
      "Phant": 4267,
      "duldig": 4268,
      "Knien": 4269,
      "flog": 4270,
      "Erklärung": 4271,
      "Des": 4272,
      "Eben": 4273,
      "Kann": 4274,
      "Ruß": 4275,
      "Rivers": 4276,
      "Sorgen": 4277,
      "Zorn": 4278,
      "dä": 4279,
      "dro": 4280,
      "sinken": 4281,
      "Übrigens": 4282,
      "–,": 4283,
      "erreicht": 4284,
      "gehörte": 4285,
      "denklich": 4286,
      "vernahm": 4287,
      "Schau": 4288,
      "Schlag": 4289,
      "umt": 4290,
      "reiben": 4291,
      "Verkehr": 4292,
      "Veränder": 4293,
      "gewinnen": 4294,
      "gewonnen": 4295,
      "brennen": 4296,
      "unterhalten": 4297,
      "ände": 4298,
      "gelten": 4299,
      "skraft": 4300,
      "bart": 4301,
      "Ausland": 4302,
      "Pfört": 4303,
      "langweil": 4304,
      "erinnern": 4305,
      "solches": 4306,
      "Ruf": 4307,
      "Reiz": 4308,
      "Türhüter": 4309,
      "schönes": 4310,
      "treff": 4311,
      "Wechsel": 4312,
      "hastig": 4313,
      "brauch": 4314,
      "vergangen": 4315,
      "vermag": 4316,
      "Grade": 4317,
      "stumm": 4318,
      "Himmels": 4319,
      "kurzem": 4320,
      "allgemeinen": 4321,
      "erregt": 4322,
      "Kräfte": 4323,
      "Braut": 4324,
      "Schwierigkeiten": 4325,
      "Stiwa": 4326,
      "Verzeihung": 4327,
      "gewisser": 4328,
      "setzung": 4329,
      "Benehmen": 4330,
      "Dmitri": 4331,
      "Kör": 4332,
      "Met": 4333,
      "Pau": 4334,
      "Sind": 4335,
      "Sumpf": 4336,
      "Tö": 4337,
      "Zig": 4338,
      "bruch": 4339,
      "jün": 4340,
      "keinem": 4341,
      "link": 4342,
      "silber": 4343,
      "trö": 4344,
      "zö": 4345,
      "zar": 4346,
      "haglich": 4347,
      "bere": 4348,
      "warm": 4349,
      "bekannte": 4350,
      "Schwa": 4351,
      "herauf": 4352,
      "allmählich": 4353,
      "wood": 4354,
      "ftige": 4355,
      "stecken": 4356,
      "loser": 4357,
      "lafen": 4358,
      "önte": 4359,
      "Gesund": 4360,
      "örung": 4361,
      "länder": 4362,
      "weh": 4363,
      "klat": 4364,
      "ska": 4365,
      "gleichzeitig": 4366,
      "Alter": 4367,
      "Lager": 4368,
      "Landwirtschaft": 4369,
      "Höhle": 4370,
      "empfangen": 4371,
      "Volke": 4372,
      "seltsame": 4373,
      "hellen": 4374,
      "zitterte": 4375,
      "fremden": 4376,
      "England": 4377,
      "überrascht": 4378,
      "Kloster": 4379,
      "stärker": 4380,
      "Schildk": 4381,
      "beständig": 4382,
      "Entfernung": 4383,
      "Eifersucht": 4384,
      "Gren": 4385,
      "Hung": 4386,
      "Meilen": 4387,
      "dauern": 4388,
      "kraft": 4389,
      "mol": 4390,
      "rissen": 4391,
      "singen": 4392,
      "erten": 4393,
      "esch": 4394,
      "arbe": 4395,
      "wartet": 4396,
      "aste": 4397,
      "leer": 4398,
      "rechte": 4399,
      "ragt": 4400,
      "allzu": 4401,
      "amen": 4402,
      "Erzähl": 4403,
      "hef": 4404,
      "hinüber": 4405,
      "gerei": 4406,
      "besitzen": 4407,
      "laßt": 4408,
      "Vert": 4409,
      "erkund": 4410,
      "Unsinn": 4411,
      "Spa": 4412,
      "Aussehen": 4413,
      "zeichen": 4414,
      "Bette": 4415,
      "finde": 4416,
      "fanden": 4417,
      "maß": 4418,
      "möglichst": 4419,
      "handlung": 4420,
      "seitdem": 4421,
      "Graf": 4422,
      "schmutz": 4423,
      "größte": 4424,
      "Haare": 4425,
      "liegenden": 4426,
      "Monate": 4427,
      "Lys": 4428,
      "Engel": 4429,
      "Fleur": 4430,
      "täglich": 4431,
      "Châ": 4432,
      "Beschäftigung": 4433,
      "Ellbogen": 4434,
      "Fabrik": 4435,
      "Wasenka": 4436,
      "Zärtlichkeit": 4437,
      "Pförtner": 4438,
      "Gesundheit": 4439,
      "Flu": 4440,
      "Hab": 4441,
      "Kur": 4442,
      "Kreis": 4443,
      "Polly": 4444,
      "Rie": 4445,
      "Sit": 4446,
      "Vö": 4447,
      "Wicht": 4448,
      "Ze": 4449,
      "bä": 4450,
      "bach": 4451,
      "ku": 4452,
      "nem": 4453,
      "of": 4454,
      "opf": 4455,
      "ps": 4456,
      "sung": 4457,
      "tier": 4458,
      "gelangt": 4459,
      "bef": 4460,
      "beabsicht": 4461,
      "aufrecht": 4462,
      "aufgere": 4463,
      "annen": 4464,
      "desto": 4465,
      "weichen": 4466,
      "hlte": 4467,
      "vorzü": 4468,
      "ator": 4469,
      "werke": 4470,
      "nochmals": 4471,
      "spitzen": 4472,
      "entweder": 4473,
      "macher": 4474,
      "händ": 4475,
      "wecken": 4476,
      "zurückgekehrt": 4477,
      "Regier": 4478,
      "Kinde": 4479,
      "gestü": 4480,
      "wußten": 4481,
      "Dumm": 4482,
      "wahrhaftig": 4483,
      "Abschied": 4484,
      "dicken": 4485,
      "hüllt": 4486,
      "liebens": 4487,
      "kurze": 4488,
      "gewöhnliche": 4489,
      "bedeckt": 4490,
      "Vaters": 4491,
      "Baukunst": 4492,
      "entschul": 4493,
      "Schritten": 4494,
      "hübschen": 4495,
      "gutes": 4496,
      "schrecklichen": 4497,
      "Lowood": 4498,
      "äuschung": 4499,
      "mpat": 4500,
      "Indessen": 4501,
      "sanft": 4502,
      "blauen": 4503,
      "schuhe": 4504,
      "Gouvernem": 4505,
      "flucht": 4506,
      "gekleidet": 4507,
      "Sanct": 4508,
      "Größe": 4509,
      "Châte": 4510,
      "Ae": 4511,
      "Bert": 4512,
      "Halt": 4513,
      "Mag": 4514,
      "Per": 4515,
      "Res": 4516,
      "Wär": 4517,
      "Zau": 4518,
      "chern": 4519,
      "iegen": 4520,
      "ieber": 4521,
      "ansah": 4522,
      "stä": 4523,
      "stören": 4524,
      "schlü": 4525,
      "hrt": 4526,
      "iter": 4527,
      "one": 4528,
      "ont": 4529,
      "igten": 4530,
      "hnung": 4531,
      "umte": 4532,
      "row": 4533,
      "Erwart": 4534,
      "Erfahr": 4535,
      "vorn": 4536,
      "besitzer": 4537,
      "läuf": 4538,
      "bracht": 4539,
      "Univers": 4540,
      "gleiche": 4541,
      "ppel": 4542,
      "Vorzimmer": 4543,
      "setzten": 4544,
      "zwölf": 4545,
      "folgt": 4546,
      "getrieben": 4547,
      "Last": 4548,
      "Abreise": 4549,
      "artige": 4550,
      "Maß": 4551,
      "sollst": 4552,
      "schlechte": 4553,
      "wohnte": 4554,
      "schlimm": 4555,
      "erwarten": 4556,
      "strengen": 4557,
      "stimmung": 4558,
      "breiten": 4559,
      "arbeit": 4560,
      "niedrigen": 4561,
      "Streit": 4562,
      "Frollo": 4563,
      "bieten": 4564,
      "Studenten": 4565,
      "glänzenden": 4566,
      "Allerdings": 4567,
      "Cardinal": 4568,
      "Untersuchungsrichter": 4569,
      "Pause": 4570,
      "Hi": 4571,
      "Hall": 4572,
      "Hunde": 4573,
      "Immer": 4574,
      "Kreise": 4575,
      "Prä": 4576,
      "Relig": 4577,
      "Tit": 4578,
      "Wen": 4579,
      "Wächter": 4580,
      "kalten": 4581,
      "les": 4582,
      "nutz": 4583,
      "pä": 4584,
      "wind": 4585,
      "ßchen": 4586,
      "ätig": 4587,
      "eint": 4588,
      "unerträ": 4589,
      "ittern": 4590,
      "ichts": 4591,
      "lichten": 4592,
      "bewegen": 4593,
      "bequem": 4594,
      "seher": 4595,
      "mitzu": 4596,
      "verwir": 4597,
      "sagst": 4598,
      "legung": 4599,
      "vorstellen": 4600,
      "Auft": 4601,
      "ernt": 4602,
      "ierten": 4603,
      "Gevat": 4604,
      "nachläss": 4605,
      "besuchen": 4606,
      "gewähr": 4607,
      "dumm": 4608,
      "entlang": 4609,
      "gelte": 4610,
      "gelernt": 4611,
      "begonnen": 4612,
      "Haup": 4613,
      "Weiß": 4614,
      "gebunden": 4615,
      "Pfeil": 4616,
      "Aufgabe": 4617,
      "fahl": 4618,
      "Daher": 4619,
      "Bou": 4620,
      "Gerade": 4621,
      "Mangel": 4622,
      "letzter": 4623,
      "diente": 4624,
      "Liv": 4625,
      "strahlen": 4626,
      "Fluß": 4627,
      "vernün": 4628,
      "Schluchzen": 4629,
      "bahn": 4630,
      "schweigen": 4631,
      "entfernte": 4632,
      "Papst": 4633,
      "Großen": 4634,
      "Uebrigens": 4635,
      "Angelegenheiten": 4636,
      "Schlafzimmer": 4637,
      "Folge": 4638,
      "Partei": 4639,
      "Gesichtsausdruck": 4640,
      "gebildet": 4641,
      "Geiste": 4642,
      "verurs": 4643,
      "wirrung": 4644,
      "Würde": 4645,
      "Mason": 4646,
      "Ernst": 4647,
      "Phanta": 4648,
      "Rußland": 4649,
      ".)": 4650,
      "Bis": 4651,
      "Brock": 4652,
      "Cha": 4653,
      "Dort": 4654,
      "Gatten": 4655,
      "Hu": 4656,
      "Hor": 4657,
      "Kom": 4658,
      "Mor": 4659,
      "blö": 4660,
      "gner": 4661,
      "heil": 4662,
      "ise": 4663,
      "iform": 4664,
      "mten": 4665,
      "zärtlich": 4666,
      "«.": 4667,
      "erforder": 4668,
      "erheben": 4669,
      "ichen": 4670,
      "ichtete": 4671,
      "gelangen": 4672,
      "schwä": 4673,
      "schlan": 4674,
      "zunächst": 4675,
      "ali": 4676,
      "altes": 4677,
      "ckchen": 4678,
      "verlangt": 4679,
      "sag": 4680,
      "leeren": 4681,
      "Schrift": 4682,
      "ission": 4683,
      "reiten": 4684,
      "hinten": 4685,
      "ischem": 4686,
      "ußt": 4687,
      "Versamm": 4688,
      "gewußt": 4689,
      "halben": 4690,
      "Eintritt": 4691,
      "würdige": 4692,
      "same": 4693,
      "geschlafen": 4694,
      "gefragt": 4695,
      "Spitzen": 4696,
      "Kindes": 4697,
      "gestat": 4698,
      "betrü": 4699,
      "Reiter": 4700,
      "Umständen": 4701,
      "viertel": 4702,
      "qual": 4703,
      "tiefe": 4704,
      "Marmor": 4705,
      "Rochesters": 4706,
      "eignen": 4707,
      "Empfindungen": 4708,
      "stoß": 4709,
      "Freundin": 4710,
      "helm": 4711,
      "züge": 4712,
      "stimmte": 4713,
      "Kerl": 4714,
      "Charmol": 4715,
      "Gerichtsdiener": 4716,
      "geringsten": 4717,
      "Hinsicht": 4718,
      "kräftig": 4719,
      "dieselben": 4720,
      "falsche": 4721,
      "zweifellos": 4722,
      "Wissenschaft": 4723,
      "fröh": 4724,
      "fröhlich": 4725,
      "errötete": 4726,
      "bewegte": 4727,
      "Sorge": 4728,
      "Wilhelm": 4729,
      "Ereignis": 4730,
      "Jahrhunderte": 4731,
      "Brockle": 4732,
      "Charmolue": 4733,
      "Ball": 4734,
      "Murm": 4735,
      "Voll": 4736,
      "beln": 4737,
      "blieben": 4738,
      "hurst": 4739,
      "jahr": 4740,
      "krei": 4741,
      "mo": 4742,
      "tion": 4743,
      "iehen": 4744,
      "schten": 4745,
      "zun": 4746,
      "befindet": 4747,
      "aufgestanden": 4748,
      "ledig": 4749,
      "ister": 4750,
      "Schmer": 4751,
      "Schreck": 4752,
      "ismus": 4753,
      "hingen": 4754,
      "Gebet": 4755,
      "nacht": 4756,
      "spött": 4757,
      "seligkeit": 4758,
      "beginnen": 4759,
      "hoffte": 4760,
      "thü": 4761,
      "führung": 4762,
      "trocken": 4763,
      "schlepp": 4764,
      "zahlen": 4765,
      "zahllo": 4766,
      "Klein": 4767,
      "freute": 4768,
      "Deut": 4769,
      "jedenfalls": 4770,
      "Feder": 4771,
      "Hutmacher": 4772,
      "Laune": 4773,
      "menschliche": 4774,
      "Obgleich": 4775,
      "treiben": 4776,
      "neigte": 4777,
      "Dichter": 4778,
      "Lampe": 4779,
      "lachend": 4780,
      "Schleier": 4781,
      "Schildkröte": 4782,
      "Religion": 4783,
      "Brocklehurst": 4784,
      "Ehren": 4785,
      "Gau": 4786,
      "Gna": 4787,
      "Klu": 4788,
      "band": 4789,
      "bra": 4790,
      "ex": 4791,
      "ißt": 4792,
      "mil": 4793,
      "sern": 4794,
      "swer": 4795,
      "thä": 4796,
      "ßlich": 4797,
      "ütig": 4798,
      "erhaben": 4799,
      "inchen": 4800,
      "aust": 4801,
      "zuckte": 4802,
      "verbar": 4803,
      "let": 4804,
      "überlegen": 4805,
      "diesmal": 4806,
      "Gesand": 4807,
      "riefen": 4808,
      "darunter": 4809,
      ",,'": 4810,
      "möchten": 4811,
      "eigentü": 4812,
      "Zustande": 4813,
      "folgten": 4814,
      "dire": 4815,
      "verschlossen": 4816,
      "richtige": 4817,
      "Haß": 4818,
      "sprache": 4819,
      "Reihen": 4820,
      "Majestät": 4821,
      "licherweise": 4822,
      "herauszu": 4823,
      "Alexandrowitschs": 4824,
      "Franken": 4825,
      "Fußboden": 4826,
      "Amt": 4827,
      "befanden": 4828,
      "Monat": 4829,
      "hübsche": 4830,
      "Trist": 4831,
      "trägt": 4832,
      "Schül": 4833,
      "Kriegs": 4834,
      "Michailow": 4835,
      "weinte": 4836,
      "häufig": 4837,
      "Wolken": 4838,
      "Hemd": 4839,
      "Di": 4840,
      "Kaum": 4841,
      "Mauern": 4842,
      "Pl": 4843,
      "danke": 4844,
      "farb": 4845,
      "ite": 4846,
      "mat": 4847,
      "rannte": 4848,
      "trieb": 4849,
      "ächtig": 4850,
      "streich": 4851,
      "derben": 4852,
      "schwa": 4853,
      "schauer": 4854,
      "zufällig": 4855,
      "arg": 4856,
      "itä": 4857,
      "ori": 4858,
      "bern": 4859,
      "urme": 4860,
      "sowie": 4861,
      "verlegen": 4862,
      "leuchten": 4863,
      "rag": 4864,
      "gesellschaft": 4865,
      "hlt": 4866,
      "lischen": 4867,
      "stehe": 4868,
      "Gehen": 4869,
      "bese": 4870,
      "selig": 4871,
      "ehrte": 4872,
      "bringt": 4873,
      "Befehl": 4874,
      "hörten": 4875,
      "würd": 4876,
      "riften": 4877,
      "begreif": 4878,
      "trafen": 4879,
      "Aussicht": 4880,
      "sichtlich": 4881,
      "Nachmittag": 4882,
      "wahre": 4883,
      "Bour": 4884,
      "Manchmal": 4885,
      "schwier": 4886,
      "treter": 4887,
      "empfind": 4888,
      "trock": 4889,
      "gelebt": 4890,
      "Stahl": 4891,
      "Nebel": 4892,
      "ianer": 4893,
      "beobachten": 4894,
      "schläge": 4895,
      "Zähnen": 4896,
      "Balken": 4897,
      "--------": 4898,
      "absichtlich": 4899,
      "dicke": 4900,
      "dauerte": 4901,
      "Arbeitszimmer": 4902,
      "gewandt": 4903,
      "Regim": 4904,
      "Erwartung": 4905,
      "Gi": 4906,
      "ahm": 4907,
      "del": 4908,
      "eck": 4909,
      "eher": 4910,
      "fig": 4911,
      "klä": 4912,
      "mu": 4913,
      "sang": 4914,
      "va": 4915,
      "Ähn": 4916,
      "öhnen": 4917,
      "stol": 4918,
      "stücke": 4919,
      "gehor": 4920,
      "geglaubt": 4921,
      "schlich": 4922,
      "ausgesprochen": 4923,
      "Schle": 4924,
      "Schwel": 4925,
      "Stre": 4926,
      "Stroh": 4927,
      "hinweg": 4928,
      "spa": 4929,
      "Verwirrung": 4930,
      "Dasein": 4931,
      "könig": 4932,
      "loses": 4933,
      "dritte": 4934,
      "Haut": 4935,
      "thut": 4936,
      "Aufent": 4937,
      "Sofa": 4938,
      "irgendwo": 4939,
      "ruhiger": 4940,
      "packte": 4941,
      "mpfe": 4942,
      "friedigung": 4943,
      "entscheiden": 4944,
      "hänge": 4945,
      "versunken": 4946,
      "Schutz": 4947,
      "tasche": 4948,
      "mäßigen": 4949,
      "besteht": 4950,
      "Schreibt": 4951,
      "beschäftigte": 4952,
      "hieß": 4953,
      "geringste": 4954,
      "Rücksicht": 4955,
      "Eigenschaften": 4956,
      "Gouvernante": 4957,
      "Verwalter": 4958,
      "Karenin": 4959,
      "berührte": 4960,
      "Etwas": 4961,
      "unmittelbar": 4962,
      "Töchter": 4963,
      "links": 4964,
      "Apfel": 4965,
      "Flä": 4966,
      "Hör": 4967,
      "Kra": 4968,
      "Lassen": 4969,
      "Opfer": 4970,
      "Pre": 4971,
      "Pil": 4972,
      "Tal": 4973,
      "Ufer": 4974,
      "bu": 4975,
      "fäl": 4976,
      "feuer": 4977,
      "kenn": 4978,
      "krän": 4979,
      "linken": 4980,
      "plö": 4981,
      "runz": 4982,
      "son": 4983,
      "tigkeit": 4984,
      "win": 4985,
      "zorn": 4986,
      "ève": 4987,
      "erster": 4988,
      "stunde": 4989,
      "diejenigen": 4990,
      "genossen": 4991,
      "lligen": 4992,
      "mmel": 4993,
      "verbergen": 4994,
      "reckte": 4995,
      "Schiff": 4996,
      "hende": 4997,
      "roman": 4998,
      "jetz": 4999,
      "amte": 5000,
      "ftiger": 5001,
      "ückte": 5002,
      "Ann": 5003,
      "rugen": 5004,
      "brannte": 5005,
      "räu": 5006,
      "halbe": 5007,
      "Unge": 5008,
      "Unruhe": 5009,
      "würdest": 5010,
      "könnt": 5011,
      "worauf": 5012,
      "Inhalt": 5013,
      "frage": 5014,
      "angene": 5015,
      "Vorder": 5016,
      "ungeheur": 5017,
      "dorthin": 5018,
      "Leibe": 5019,
      "Rolle": 5020,
      "blut": 5021,
      "vermeiden": 5022,
      "ölker": 5023,
      "Gener": 5024,
      "rechung": 5025,
      "erfüllte": 5026,
      "Kleidung": 5027,
      "Eure": 5028,
      "Grubach": 5029,
      "versprochen": 5030,
      "Kaninchen": 5031,
      "erwachte": 5032,
      "Henker": 5033,
      "gestoßen": 5034,
      "fähig": 5035,
      "Stiefel": 5036,
      "Fünf": 5037,
      "Gevatter": 5038,
      "Phantasie": 5039,
      "plötz": 5040,
      "Ben": 5041,
      "Band": 5042,
      "Guten": 5043,
      "Köpfe": 5044,
      "Mel": 5045,
      "Preis": 5046,
      "dumpf": 5047,
      "män": 5048,
      "rin": 5049,
      "tau": 5050,
      "öf": 5051,
      "auert": 5052,
      "stung": 5053,
      "gelei": 5054,
      "genannt": 5055,
      "ittes": 5056,
      "achsen": 5057,
      "warte": 5058,
      "verächt": 5059,
      "deck": 5060,
      "Sieh": 5061,
      "Schwer": 5062,
      "rak": 5063,
      "überlassen": 5064,
      "iser": 5065,
      "chtigen": 5066,
      "ischte": 5067,
      "anze": 5068,
      "gewachsen": 5069,
      "fenster": 5070,
      "würfe": 5071,
      "meinst": 5072,
      "möglichen": 5073,
      "Vorwurf": 5074,
      "Spitz": 5075,
      "hättest": 5076,
      "Tafel": 5077,
      "werdet": 5078,
      "Aufseher": 5079,
      "neuer": 5080,
      "belei": 5081,
      "holz": 5082,
      "lagten": 5083,
      "Waffen": 5084,
      "Mahie": 5085,
      "Wozu": 5086,
      "Leiter": 5087,
      "vierzig": 5088,
      "unseren": 5089,
      "freilich": 5090,
      "ebensowenig": 5091,
      "Thürme": 5092,
      "wunderte": 5093,
      "strenge": 5094,
      "Felic": 5095,
      "Micha": 5096,
      "Coppen": 5097,
      "Ganze": 5098,
      "allgemeine": 5099,
      "sanw": 5100,
      "Kathe": 5101,
      "gebeten": 5102,
      "Gruppe": 5103,
      "gold": 5104,
      "Eingang": 5105,
      "russischen": 5106,
      "Milch": 5107,
      "Figur": 5108,
      "Güte": 5109,
      "Tristan": 5110,
      "Felicie": 5111,
      "Buche": 5112,
      "Gla": 5113,
      "Las": 5114,
      "Tän": 5115,
      "Ziel": 5116,
      "Zunge": 5117,
      "blich": 5118,
      "hu": 5119,
      "haufen": 5120,
      "mes": 5121,
      "ois": 5122,
      "tin": 5123,
      "tor": 5124,
      "ende": 5125,
      "ereien": 5126,
      "ault": 5127,
      "gehei": 5128,
      "regen": 5129,
      "aussehen": 5130,
      "Schnur": 5131,
      "gesen": 5132,
      "wohnen": 5133,
      "leichten": 5134,
      "hingehen": 5135,
      "ennung": 5136,
      "Gewand": 5137,
      "Anwesenheit": 5138,
      "wirken": 5139,
      "Vermut": 5140,
      "Verbrechen": 5141,
      "ries": 5142,
      "kow": 5143,
      "wäl": 5144,
      "eue": 5145,
      "Bewunderung": 5146,
      "blickten": 5147,
      "Unser": 5148,
      "Wiese": 5149,
      "menge": 5150,
      "Soll": 5151,
      "Grève": 5152,
      "angezogen": 5153,
      "liebten": 5154,
      "Nachdenken": 5155,
      "geteilt": 5156,
      "itzte": 5157,
      "lächeln": 5158,
      "empfinden": 5159,
      "starken": 5160,
      "Kinderfrau": 5161,
      "wohnt": 5162,
      "ssig": 5163,
      "stud": 5164,
      "betrachten": 5165,
      "Bildung": 5166,
      "Persön": 5167,
      "Gregors": 5168,
      "Neugier": 5169,
      "kleidete": 5170,
      "wüßte": 5171,
      "feier": 5172,
      "Schatz": 5173,
      "Welche": 5174,
      "Flügel": 5175,
      "verschiedene": 5176,
      "Schnell": 5177,
      "behaupten": 5178,
      "Fremden": 5179,
      "Vorteil": 5180,
      "köst": 5181,
      "drängte": 5182,
      "eifrig": 5183,
      "Din": 5184,
      "Feu": 5185,
      "Falten": 5186,
      "Glö": 5187,
      "Mär": 5188,
      "Ner": 5189,
      "Pu": 5190,
      "baum": 5191,
      "flä": 5192,
      "feln": 5193,
      "kür": 5194,
      "kleid": 5195,
      "pol": 5196,
      "vater": 5197,
      "ère": 5198,
      "eind": 5199,
      "eintrat": 5200,
      "ansehen": 5201,
      "gemal": 5202,
      "gezeigt": 5203,
      "schwe": 5204,
      "schließ": 5205,
      "zustellen": 5206,
      "alo": 5207,
      "aufgestellt": 5208,
      "verändert": 5209,
      "ürte": 5210,
      "Sieg": 5211,
      "überw": 5212,
      "stellten": 5213,
      "Georg": 5214,
      "Verhalten": 5215,
      "Versprechen": 5216,
      "Befriedigung": 5217,
      "heile": 5218,
      "wendete": 5219,
      "Alten": 5220,
      "erseits": 5221,
      "Vorbereit": 5222,
      "adel": 5223,
      "Rechnung": 5224,
      "Mitg": 5225,
      "Sek": 5226,
      "eleg": 5227,
      "innung": 5228,
      "rechts": 5229,
      "widerwär": 5230,
      "Arkadjewna": 5231,
      "Roman": 5232,
      "merkt": 5233,
      "Luke": 5234,
      "Fenstern": 5235,
      "kümmern": 5236,
      "empfunden": 5237,
      "Qual": 5238,
      "bedeckten": 5239,
      "Karls": 5240,
      "Grab": 5241,
      "dunkle": 5242,
      "Morgens": 5243,
      "Gemein": 5244,
      "auszusprechen": 5245,
      "beugt": 5246,
      "seltsamen": 5247,
      "Philosoph": 5248,
      "ubli": 5249,
      "fahre": 5250,
      "bildung": 5251,
      "artiges": 5252,
      "entdeckt": 5253,
      "Feind": 5254,
      "leuchteten": 5255,
      "einzelne": 5256,
      "entsetzlich": 5257,
      "dunklen": 5258,
      "dankbar": 5259,
      "Stellver": 5260,
      "Gutsbesitzer": 5261,
      "Bischof": 5262,
      "Strick": 5263,
      "Gerechtigkeit": 5264,
      "Veränderung": 5265,
      "Dmitrijewitsch": 5266,
      "Coppenole": 5267,
      "Kathedr": 5268,
      "Bauer": 5269,
      "Bienen": 5270,
      "Frö": 5271,
      "Kal": 5272,
      "Merk": 5273,
      "Neigung": 5274,
      "Oft": 5275,
      "Offen": 5276,
      "Pel": 5277,
      "Rest": 5278,
      "Sat": 5279,
      "Wün": 5280,
      "dor": 5281,
      "fend": 5282,
      "gru": 5283,
      "kreu": 5284,
      "kaufen": 5285,
      "kleiden": 5286,
      "ms": 5287,
      "nimm": 5288,
      "nirgend": 5289,
      "nickte": 5290,
      "ogen": 5291,
      "par": 5292,
      "ras": 5293,
      "tiger": 5294,
      "zieren": 5295,
      "ießen": 5296,
      "stunden": 5297,
      "beweisen": 5298,
      "befahl": 5299,
      "seel": 5300,
      "mitt": 5301,
      "verstu": 5302,
      "ochten": 5303,
      "Schlu": 5304,
      "roth": 5305,
      "Steine": 5306,
      "leiser": 5307,
      "anzen": 5308,
      "utter": 5309,
      "abscheu": 5310,
      "ruhen": 5311,
      "manche": 5312,
      "Einfluß": 5313,
      "geschah": 5314,
      "gefor": 5315,
      "müßten": 5316,
      "Spr": 5317,
      "volles": 5318,
      "Tasch": 5319,
      "Zuerst": 5320,
      "Augenblicken": 5321,
      "Pflaster": 5322,
      "digte": 5323,
      "wahnsinn": 5324,
      "Unterschied": 5325,
      "mager": 5326,
      "Leb": 5327,
      "vergol": 5328,
      "ferner": 5329,
      "bedeut": 5330,
      "Blitz": 5331,
      "Toile": 5332,
      "fällt": 5333,
      "klaren": 5334,
      "fünfzig": 5335,
      "Trost": 5336,
      "arbeitete": 5337,
      "zeichnete": 5338,
      "Frühl": 5339,
      "Kuchen": 5340,
      "süß": 5341,
      "käme": 5342,
      "kleidet": 5343,
      "Thee": 5344,
      "Gesetze": 5345,
      "Bursche": 5346,
      "Hexe": 5347,
      "Kameraden": 5348,
      "marschall": 5349,
      "Vernunft": 5350,
      "Spazier": 5351,
      "Vögel": 5352,
      "Schmerzen": 5353,
      "verbarg": 5354,
      "Bre": 5355,
      "Bart": 5356,
      "Gar": 5357,
      "Glä": 5358,
      "Gär": 5359,
      "Ou": 5360,
      "Pri": 5361,
      "Thier": 5362,
      "bun": 5363,
      "bele": 5364,
      "eur": 5365,
      "fassung": 5366,
      "günst": 5367,
      "mliche": 5368,
      "erfuhr": 5369,
      "erweise": 5370,
      "erreichen": 5371,
      "test": 5372,
      "angesehen": 5373,
      "dergleichen": 5374,
      "davor": 5375,
      "zuletzt": 5376,
      "unaus": 5377,
      "denkt": 5378,
      "haßt": 5379,
      "begeben": 5380,
      "soweit": 5381,
      "verda": 5382,
      "verhält": 5383,
      "tzend": 5384,
      "Schein": 5385,
      "umzu": 5386,
      "weib": 5387,
      "inder": 5388,
      "Erziehung": 5389,
      "Staub": 5390,
      "nachdenklich": 5391,
      "lage": 5392,
      "ffer": 5393,
      "hätt": 5394,
      "rührte": 5395,
      "Einmal": 5396,
      "würdiger": 5397,
      "wenigen": 5398,
      "Inner": 5399,
      "Inzwischen": 5400,
      "Alexander": 5401,
      "thür": 5402,
      "mete": 5403,
      "äule": 5404,
      "gesetzten": 5405,
      "schneiden": 5406,
      "Masch": 5407,
      "öhnte": 5408,
      "Profes": 5409,
      "ungslos": 5410,
      "Französ": 5411,
      "schnellen": 5412,
      "Paar": 5413,
      "wünscht": 5414,
      "klare": 5415,
      "schüchtern": 5416,
      "sinnig": 5417,
      "freuen": 5418,
      "Beruf": 5419,
      "hindern": 5420,
      "Cous": 5421,
      "Vieh": 5422,
      "Dienstmädchen": 5423,
      "wild": 5424,
      "Burschen": 5425,
      "Rath": 5426,
      "Abendessen": 5427,
      "Bekanntschaft": 5428,
      "Gemüt": 5429,
      "ängstlich": 5430,
      "Idee": 5431,
      "Kanzlei": 5432,
      "skaja": 5433,
      "Sitzung": 5434,
      "unerträglich": 5435,
      "Versammlung": 5436,
      "Laska": 5437,
      "App": 5438,
      "Car": 5439,
      "Krei": 5440,
      "Künst": 5441,
      "Länge": 5442,
      "Mach": 5443,
      "Pul": 5444,
      "Silber": 5445,
      "Zerst": 5446,
      "Zahl": 5447,
      "bür": 5448,
      "flichkeit": 5449,
      "gnis": 5450,
      "keines": 5451,
      "rig": 5452,
      "reine": 5453,
      "tu": 5454,
      "trugen": 5455,
      "wander": 5456,
      "gemä": 5457,
      "derung": 5458,
      "schir": 5459,
      "haber": 5460,
      "solange": 5461,
      "benden": 5462,
      "versamm": 5463,
      "verletzt": 5464,
      "verlangte": 5465,
      "saal": 5466,
      "legten": 5467,
      "senkte": 5468,
      "Schar": 5469,
      "indel": 5470,
      "Ausk": 5471,
      "hegte": 5472,
      "Gegend": 5473,
      "gerä": 5474,
      "Anlaß": 5475,
      "entwick": 5476,
      "nackten": 5477,
      "half": 5478,
      "Augenbrau": 5479,
      "ott": 5480,
      "Einsamkeit": 5481,
      "Insel": 5482,
      "dran": 5483,
      "willigen": 5484,
      "Wiesen": 5485,
      "Zuhör": 5486,
      "neugier": 5487,
      "faßt": 5488,
      "Damit": 5489,
      "zieht": 5490,
      "Umstände": 5491,
      "vierzehn": 5492,
      "bos": 5493,
      "stiegen": 5494,
      "lebens": 5495,
      "ordnet": 5496,
      "Eile": 5497,
      "Heiligen": 5498,
      "Genuß": 5499,
      "springen": 5500,
      "Mitteilung": 5501,
      "Pranger": 5502,
      "grünen": 5503,
      "Locken": 5504,
      "Backen": 5505,
      "Bemü": 5506,
      "mächtige": 5507,
      "Folgen": 5508,
      "Halse": 5509,
      "interessierte": 5510,
      "Hochzeit": 5511,
      "Gründe": 5512,
      "Ärger": 5513,
      "Schwäche": 5514,
      "streicher": 5515,
      "Viertel": 5516,
      "preßte": 5517,
      "abends": 5518,
      "Altstadt": 5519,
      "Verwandten": 5520,
      "Adelsmarschall": 5521,
      "Schwelle": 5522,
      "Kathedrale": 5523,
      "Bist": 5524,
      "Bill": 5525,
      "Gatte": 5526,
      "Hat": 5527,
      "Lou": 5528,
      "Mom": 5529,
      "Sand": 5530,
      "Türe": 5531,
      "brot": 5532,
      "dlichen": 5533,
      "keln": 5534,
      "lungs": 5535,
      "met": 5536,
      "moder": 5537,
      "ns": 5538,
      "tue": 5539,
      "innt": 5540,
      "stro": 5541,
      "gekannt": 5542,
      "schei": 5543,
      "genei": 5544,
      "unnen": 5545,
      "unruhig": 5546,
      "unzufrieden": 5547,
      "orgt": 5548,
      "berau": 5549,
      "mmten": 5550,
      "aufrichtig": 5551,
      "verlei": 5552,
      "vergeben": 5553,
      "versteht": 5554,
      "retten": 5555,
      "ausner": 5556,
      "Schloß": 5557,
      "Schande": 5558,
      "necht": 5559,
      "herren": 5560,
      "leider": 5561,
      "liebst": 5562,
      "head": 5563,
      "stelle": 5564,
      "stellt": 5565,
      "ettet": 5566,
      "ettel": 5567,
      "Verfahren": 5568,
      "füllte": 5569,
      "abel": 5570,
      "örte": 5571,
      "durcheinander": 5572,
      "Begeg": 5573,
      "Uniform": 5574,
      "Einer": 5575,
      "alledem": 5576,
      "gegenseit": 5577,
      "teshead": 5578,
      "vollständ": 5579,
      "unsern": 5580,
      "liebsten": 5581,
      "Betr": 5582,
      "zerbrochen": 5583,
      "zerreißen": 5584,
      "Laden": 5585,
      "zieher": 5586,
      "Beide": 5587,
      "Beifall": 5588,
      "Hölle": 5589,
      "kühl": 5590,
      "starrte": 5591,
      "igtausend": 5592,
      "Toten": 5593,
      "fälle": 5594,
      "Klausner": 5595,
      "Schuhe": 5596,
      "schützen": 5597,
      "phie": 5598,
      "betrachtet": 5599,
      "gelehnt": 5600,
      "Vergangen": 5601,
      "kroch": 5602,
      "tterte": 5603,
      "Möbel": 5604,
      "änderte": 5605,
      "Winde": 5606,
      "zitternd": 5607,
      "Schaden": 5608,
      "Verhältnisse": 5609,
      "Frou": 5610,
      "ctor": 5611,
      "Stockwerk": 5612,
      "Irrt": 5613,
      "einzelnen": 5614,
      "geiz": 5615,
      "Gateshead": 5616,
      "geschnitten": 5617,
      "goth": 5618,
      "Serp": 5619,
      "gestützt": 5620,
      "Horiz": 5621,
      "Oudar": 5622,
      "-«": 5623,
      "Bi": 5624,
      "Beinen": 5625,
      "Dro": 5626,
      "Gitter": 5627,
      "Hann": 5628,
      "Tur": 5629,
      "Za": 5630,
      "bchen": 5631,
      "bungen": 5632,
      "ide": 5633,
      "knü": 5634,
      "kalte": 5635,
      "ok": 5636,
      "phe": 5637,
      "pass": 5638,
      "svoll": 5639,
      "sitz": 5640,
      "völker": 5641,
      "wisse": 5642,
      "zär": 5643,
      "eidigung": 5644,
      "ndel": 5645,
      "angeb": 5646,
      "gewartet": 5647,
      "haten": 5648,
      "beherr": 5649,
      "vergeb": 5650,
      "verlangen": 5651,
      "decke": 5652,
      "ret": 5653,
      "reche": 5654,
      "recher": 5655,
      "eitung": 5656,
      "gesunken": 5657,
      "Stä": 5658,
      "Strü": 5659,
      "vornehmen": 5660,
      "Auseinander": 5661,
      "immern": 5662,
      "beiseite": 5663,
      "heul": 5664,
      "stem": 5665,
      "iere": 5666,
      "nachts": 5667,
      "etit": 5668,
      "selige": 5669,
      "gewün": 5670,
      "lächer": 5671,
      "endung": 5672,
      "wege": 5673,
      "male": 5674,
      "klin": 5675,
      "ertönte": 5676,
      "ankte": 5677,
      "rachen": 5678,
      "gehenden": 5679,
      "thig": 5680,
      "Pfei": 5681,
      "gestört": 5682,
      "angezü": 5683,
      "Sehn": 5684,
      "betrifft": 5685,
      "frische": 5686,
      "Hausfrau": 5687,
      "Umstand": 5688,
      "Gelehr": 5689,
      "küssen": 5690,
      "nett": 5691,
      "Antwor": 5692,
      "Strafe": 5693,
      "Papa": 5694,
      "erschü": 5695,
      "bedeutete": 5696,
      "Hauptsache": 5697,
      "rängt": 5698,
      "gestehen": 5699,
      "Kranke": 5700,
      "Moor": 5701,
      "Heirat": 5702,
      "dürf": 5703,
      "Montag": 5704,
      "Stücke": 5705,
      "Loge": 5706,
      "traurigen": 5707,
      "ictier": 5708,
      "Coictier": 5709,
      "junges": 5710,
      "Unglückliche": 5711,
      "ärgerte": 5712,
      "wilden": 5713,
      "erklärt": 5714,
      "Abenteuer": 5715,
      "Gutes": 5716,
      "bloßen": 5717,
      "Schwägerin": 5718,
      "Geistes": 5719,
      "französisch": 5720,
      "stellungen": 5721,
      "Lüge": 5722,
      "Willst": 5723,
      "Jungfrau": 5724,
      "Olivier": 5725,
      "Achtung": 5726,
      "todt": 5727,
      "gläub": 5728,
      "Angeklagten": 5729,
      "skoi": 5730,
      "Prokurist": 5731,
      "Zigar": 5732,
      "Hunger": 5733,
      "läufig": 5734,
      "lediglich": 5735,
      "Gnade": 5736,
      "Schreibtisch": 5737,
      "Mahiette": 5738,
      "Taschent": 5739,
      "Augenbrauen": 5740,
      "Vergangenheit": 5741,
      "Farbe": 5742,
      "Greif": 5743,
      "Halle": 5744,
      "Klasse": 5745,
      "Lä": 5746,
      "Lichte": 5747,
      "Maus": 5748,
      "Oper": 5749,
      "Potter": 5750,
      "Rauch": 5751,
      "Sag": 5752,
      "Tü": 5753,
      "Wann": 5754,
      "dlich": 5755,
      "fach": 5756,
      "fester": 5757,
      "ix": 5758,
      "ial": 5759,
      "kut": 5760,
      "kna": 5761,
      "knie": 5762,
      "–«": 5763,
      "cho": 5764,
      "eisen": 5765,
      "gepf": 5766,
      "gedrückt": 5767,
      "dermaßen": 5768,
      "schuh": 5769,
      "scheiden": 5770,
      "italien": 5771,
      "bert": 5772,
      "bewahr": 5773,
      "bezahlen": 5774,
      "irren": 5775,
      "urteilen": 5776,
      "versich": 5777,
      "verpf": 5778,
      "leug": 5779,
      "wieviel": 5780,
      "tzig": 5781,
      "geschen": 5782,
      "weite": 5783,
      "vorkam": 5784,
      "vornehm": 5785,
      "het": 5786,
      "atur": 5787,
      "locken": 5788,
      "besp": 5789,
      "gewähl": 5790,
      "kost": 5791,
      "Beob": 5792,
      "seinerseits": 5793,
      "heimlich": 5794,
      "uchow": 5795,
      "wenige": 5796,
      "geschäft": 5797,
      "drauf": 5798,
      "usern": 5799,
      "usses": 5800,
      "Span": 5801,
      "Rechte": 5802,
      "Gesichtern": 5803,
      "Ausnahme": 5804,
      "Pforte": 5805,
      "gestiegen": 5806,
      "führer": 5807,
      "waff": 5808,
      "stehende": 5809,
      "höl": 5810,
      "ergriffen": 5811,
      "Geschick": 5812,
      "beschlossen": 5813,
      "nützlich": 5814,
      "Landstreicher": 5815,
      "bleich": 5816,
      "Jahres": 5817,
      "Hotel": 5818,
      "braunen": 5819,
      "kümmert": 5820,
      "Strahlen": 5821,
      "trank": 5822,
      "Grace": 5823,
      "schmeich": 5824,
      "Wäsche": 5825,
      "feste": 5826,
      "klarer": 5827,
      "wiederholen": 5828,
      "grimm": 5829,
      "anfing": 5830,
      "drehen": 5831,
      "sätze": 5832,
      "zeichnen": 5833,
      "heller": 5834,
      "sternis": 5835,
      "fehlt": 5836,
      "hauses": 5837,
      "stützte": 5838,
      "kräftigen": 5839,
      "feind": 5840,
      "denkst": 5841,
      "zerstreu": 5842,
      "Abende": 5843,
      "Welch": 5844,
      "ilipp": 5845,
      "Rouault": 5846,
      "Bemerkungen": 5847,
      "Geschäfts": 5848,
      "leuchtete": 5849,
      "Pläne": 5850,
      "Herzogin": 5851,
      "Speise": 5852,
      "Lehnstuhl": 5853,
      "Sonntags": 5854,
      "Fahrt": 5855,
      "peinlich": 5856,
      "öffentlichen": 5857,
      "gewissermaßen": 5858,
      "Erfahrung": 5859,
      "Vorbereitungen": 5860,
      "Serpuchow": 5861,
      "angezündet": 5862,
      "Dj": 5863,
      "Mau": 5864,
      "Narren": 5865,
      "Ofen": 5866,
      "Rande": 5867,
      "Sitz": 5868,
      "Teller": 5869,
      "age": 5870,
      "drü": 5871,
      "falt": 5872,
      "kor": 5873,
      "kennt": 5874,
      "pra": 5875,
      "pern": 5876,
      "rang": 5877,
      "sungen": 5878,
      "szimmer": 5879,
      "trieben": 5880,
      "wache": 5881,
      "wuchs": 5882,
      "chnet": 5883,
      "einverstanden": 5884,
      "esses": 5885,
      "ansp": 5886,
      "aneinander": 5887,
      "anscheinen": 5888,
      "inmitten": 5889,
      "stig": 5890,
      "steine": 5891,
      "geholt": 5892,
      "gehüllt": 5893,
      "schwär": 5894,
      "schriften": 5895,
      "zugeben": 5896,
      "arrer": 5897,
      "bereiten": 5898,
      "befest": 5899,
      "aufgehört": 5900,
      "vernachläss": 5901,
      "hme": 5902,
      "umgeben": 5903,
      "weitem": 5904,
      "allte": 5905,
      "woher": 5906,
      "Erwä": 5907,
      "vortreff": 5908,
      "liege": 5909,
      "Geduld": 5910,
      "gert": 5911,
      "Ansichten": 5912,
      "fügen": 5913,
      "läu": 5914,
      "welt": 5915,
      "häl": 5916,
      "Einrichtung": 5917,
      "kannten": 5918,
      "bares": 5919,
      "wendet": 5920,
      "loszu": 5921,
      "Vorsicht": 5922,
      "Vorwürfe": 5923,
      "Stellen": 5924,
      "zwingen": 5925,
      "zow": 5926,
      "Zuschauer": 5927,
      "gebrei": 5928,
      "gebnis": 5929,
      "ktion": 5930,
      "getr": 5931,
      "Geschä": 5932,
      "kaja": 5933,
      "Rue": 5934,
      "kommst": 5935,
      "Jeden": 5936,
      "Reicht": 5937,
      "Maße": 5938,
      "mahl": 5939,
      "Umgebung": 5940,
      "richtet": 5941,
      "Parl": 5942,
      "vermute": 5943,
      "formen": 5944,
      "großem": 5945,
      "deutlicher": 5946,
      "Schuh": 5947,
      "Flam": 5948,
      "Tropfen": 5949,
      "dürfe": 5950,
      "Jup": 5951,
      "wendigkeit": 5952,
      "Felsen": 5953,
      "sähe": 5954,
      "folgende": 5955,
      "utzte": 5956,
      "Oberst": 5957,
      "Neues": 5958,
      "Wiedersehen": 5959,
      "Rückkehr": 5960,
      "Widerstand": 5961,
      "Krieg": 5962,
      "Anstrengungen": 5963,
      "Karenina": 5964,
      "gnädige": 5965,
      "sorgfäl": 5966,
      "annehmen": 5967,
      "Blätter": 5968,
      "volk": 5969,
      "Anschauung": 5970,
      "Arztes": 5971,
      "langweilig": 5972,
      "vorzüglich": 5973,
      "Regierung": 5974,
      "entschuldigen": 5975,
      "verwirrt": 5976,
      "Haupte": 5977,
      "Livres": 5978,
      "zungen": 5979,
      "direktor": 5980,
      "sanwalt": 5981,
      "Glöck": 5982,
      "Auskunft": 5983,
      "Irrtum": 5984,
      "Oudarde": 5985,
      "Sehnsucht": 5986,
      "Serpuchowskoi": 5987,
      "Bir": 5988,
      "Bande": 5989,
      "Kuß": 5990,
      "Kell": 5991,
      "Lesen": 5992,
      "Mün": 5993,
      "Rand": 5994,
      "Thal": 5995,
      "Tasse": 5996,
      "Zun": 5997,
      "bon": 5998,
      "fein": 5999,
      "gyp": 6000,
      "mischen": 6001,
      "nennt": 6002,
      "sig": 6003,
      "sauber": 6004,
      "ton": 6005,
      "twegen": 6006,
      "wahren": 6007,
      "zerin": 6008,
      "»...": 6009,
      "erem": 6010,
      "erle": 6011,
      "erlo": 6012,
      "erzogen": 6013,
      "stigen": 6014,
      "gebeugt": 6015,
      "schlei": 6016,
      "zubringen": 6017,
      "sieh": 6018,
      "warst": 6019,
      "beendet": 6020,
      "urteil": 6021,
      "verein": 6022,
      "vermögen": 6023,
      "lecht": 6024,
      "wiewohl": 6025,
      "demois": 6026,
      "Schä": 6027,
      "wovon": 6028,
      "Erz": 6029,
      "vorbereitet": 6030,
      "eta": 6031,
      "Verschw": 6032,
      "Geschen": 6033,
      "weckte": 6034,
      "euchte": 6035,
      "räumen": 6036,
      "unterdrücken": 6037,
      "gelungen": 6038,
      "fortzu": 6039,
      "nervö": 6040,
      "geschü": 6041,
      "geschaffen": 6042,
      "rizk": 6043,
      "dring": 6044,
      "begangen": 6045,
      "mütig": 6046,
      "Wasili": 6047,
      "ankt": 6048,
      "Weiter": 6049,
      "menschen": 6050,
      "Besser": 6051,
      "Lied": 6052,
      "zerrissen": 6053,
      "Later": 6054,
      "Geschrei": 6055,
      "kammer": 6056,
      "ungeduldig": 6057,
      "Warte": 6058,
      "packt": 6059,
      "Entwick": 6060,
      "Arkadjewitschs": 6061,
      "erschrak": 6062,
      "bedeutet": 6063,
      "Tour": 6064,
      "schauen": 6065,
      "ordnen": 6066,
      "Eifer": 6067,
      "merken": 6068,
      "unbed": 6069,
      "Zigeuner": 6070,
      "verbunden": 6071,
      "verborgen": 6072,
      "Berührung": 6073,
      "Denken": 6074,
      "anfangs": 6075,
      "Männern": 6076,
      "schritten": 6077,
      "tatsächlich": 6078,
      "Finsternis": 6079,
      "versteckt": 6080,
      "bilden": 6081,
      "furchtbare": 6082,
      "unglückliche": 6083,
      "Moskauer": 6084,
      "Indianer": 6085,
      "Zügel": 6086,
      "Glut": 6087,
      "forderte": 6088,
      "trüben": 6089,
      "Parteien": 6090,
      "Flasche": 6091,
      "förmlich": 6092,
      "Palast": 6093,
      "Schwierigkeit": 6094,
      "eisernen": 6095,
      "Gouvernements": 6096,
      "Murmelt": 6097,
      "Gesandten": 6098,
      "itäts": 6099,
      "Professor": 6100,
      "Klausnerin": 6101,
      "Djali": 6102,
      "Glöckner": 6103,
      "demoiselle": 6104,
      "Bö": 6105,
      "Bri": 6106,
      "Buck": 6107,
      "Fas": 6108,
      "Punkte": 6109,
      "Tele": 6110,
      "Terr": 6111,
      "Wöl": 6112,
      "Wände": 6113,
      "bal": 6114,
      "fung": 6115,
      "funkel": 6116,
      "iö": 6117,
      "kauf": 6118,
      "platze": 6119,
      "sitzt": 6120,
      "vi": 6121,
      "yt": 6122,
      "ente": 6123,
      "erl": 6124,
      "angest": 6125,
      "inte": 6126,
      "aut": 6127,
      "gehoben": 6128,
      "zutage": 6129,
      "une": 6130,
      "beten": 6131,
      "begegnete": 6132,
      "irne": 6133,
      "ungest": 6134,
      "ürtel": 6135,
      "aussah": 6136,
      "Schwie": 6137,
      "weich": 6138,
      "leisten": 6139,
      "iste": 6140,
      "lische": 6141,
      "gerichte": 6142,
      "Verein": 6143,
      "Verlauf": 6144,
      "Gespen": 6145,
      "ehrt": 6146,
      "bringe": 6147,
      "brücke": 6148,
      "räng": 6149,
      "Bedürf": 6150,
      "heilige": 6151,
      "Ihres": 6152,
      "zumute": 6153,
      "geschoben": 6154,
      "hoffen": 6155,
      "hofes": 6156,
      "Kinderst": 6157,
      "Pfund": 6158,
      "Pfarrer": 6159,
      "lösen": 6160,
      "führten": 6161,
      "zusammenzu": 6162,
      "belie": 6163,
      "irgendwie": 6164,
      "Wahnsinn": 6165,
      "Reisen": 6166,
      "frischen": 6167,
      "Mademoiselle": 6168,
      "pap": 6169,
      "schwache": 6170,
      "kehrten": 6171,
      "erstenmal": 6172,
      "auerte": 6173,
      "Hosen": 6174,
      "Saale": 6175,
      "Proc": 6176,
      "Prof": 6177,
      "Markt": 6178,
      "schwerer": 6179,
      "schneller": 6180,
      "harm": 6181,
      "wohner": 6182,
      "Mütze": 6183,
      "illef": 6184,
      "Gemach": 6185,
      "eignet": 6186,
      "Minister": 6187,
      "jemandem": 6188,
      "Geistlichen": 6189,
      "Notar": 6190,
      "Volkes": 6191,
      "stürzen": 6192,
      "Wahrscheinlich": 6193,
      "Thatcher": 6194,
      "dreht": 6195,
      "Brücke": 6196,
      "schreckliche": 6197,
      "stimme": 6198,
      "Trauer": 6199,
      "grausam": 6200,
      "gefährlich": 6201,
      "staben": 6202,
      "Niemals": 6203,
      "kleide": 6204,
      "beruhigt": 6205,
      "fahrt": 6206,
      "Dorfe": 6207,
      "Andern": 6208,
      "rückte": 6209,
      "golden": 6210,
      "Muff": 6211,
      "strahlte": 6212,
      "Edel": 6213,
      "Säulen": 6214,
      "Dankbarkeit": 6215,
      "Walde": 6216,
      "begrüßte": 6217,
      "Klavier": 6218,
      "kämpfen": 6219,
      "Staats": 6220,
      "abhängig": 6221,
      "Stillschweigen": 6222,
      "Hindernis": 6223,
      "Körpers": 6224,
      "aufgeregt": 6225,
      "Gauner": 6226,
      "begreiflich": 6227,
      "Ähnlichkeit": 6228,
      "Persönlichkeit": 6229,
      "Stellvertreter": 6230,
      "Moment": 6231,
      "geneigt": 6232,
      "Hannah": 6233,
      "Parlament": 6234,
      "Murmelthier": 6235,
      "Akten": 6236,
      "Dol": 6237,
      "Druck": 6238,
      "Gürtel": 6239,
      "Kö": 6240,
      "Kragen": 6241,
      "Lange": 6242,
      "Pes": 6243,
      "Rache": 6244,
      "Sohne": 6245,
      "Wur": 6246,
      "digkeit": 6247,
      "ehem": 6248,
      "farben": 6249,
      "mauer": 6250,
      "ogra": 6251,
      "uere": 6252,
      "zauber": 6253,
      "anblickte": 6254,
      "geber": 6255,
      "geheim": 6256,
      "zuwider": 6257,
      "altet": 6258,
      "hassen": 6259,
      "bete": 6260,
      "bezahl": 6261,
      "sehnte": 6262,
      "verging": 6263,
      "red": 6264,
      "regeln": 6265,
      "ungere": 6266,
      "gesicht": 6267,
      "amt": 6268,
      "Erfü": 6269,
      "ernsten": 6270,
      "atein": 6271,
      "nochen": 6272,
      "spiele": 6273,
      "selte": 6274,
      "auchte": 6275,
      "wiederzusehen": 6276,
      "eute": 6277,
      "Bezug": 6278,
      "Beweis": 6279,
      "gelben": 6280,
      "lassung": 6281,
      "worben": 6282,
      "zweimal": 6283,
      "ridor": 6284,
      "fehle": 6285,
      "Handlungen": 6286,
      "willig": 6287,
      "fühlt": 6288,
      "Haustür": 6289,
      "Pflichten": 6290,
      "angelegen": 6291,
      "Dazu": 6292,
      "Besitz": 6293,
      "Besuche": 6294,
      "getrunken": 6295,
      "Gerü": 6296,
      "Unterthan": 6297,
      "beleidigen": 6298,
      "ächern": 6299,
      "beschäft": 6300,
      "mmerung": 6301,
      "Leder": 6302,
      "Landstraße": 6303,
      "hüllte": 6304,
      "bog": 6305,
      "Jahrhundert": 6306,
      "Hofe": 6307,
      "Gegenstände": 6308,
      "Satz": 6309,
      "Prov": 6310,
      "Schulzimmer": 6311,
      "kurzer": 6312,
      "Orden": 6313,
      "Thüren": 6314,
      "einfache": 6315,
      "niemanden": 6316,
      "niemandem": 6317,
      "herrn": 6318,
      "schreibt": 6319,
      "Schluß": 6320,
      "wendung": 6321,
      "suchten": 6322,
      "Gefährt": 6323,
      "lenken": 6324,
      "furchtbaren": 6325,
      "fremde": 6326,
      "Zügen": 6327,
      "Gleichgült": 6328,
      "Nikola": 6329,
      "bereitete": 6330,
      "Fällen": 6331,
      "bemüht": 6332,
      "Summe": 6333,
      "behauptete": 6334,
      "Käse": 6335,
      "französischen": 6336,
      "sorgsam": 6337,
      "Raupe": 6338,
      "quälen": 6339,
      "zweifelte": 6340,
      "Stühle": 6341,
      "gefällt": 6342,
      "brett": 6343,
      "Liebling": 6344,
      "Schwager": 6345,
      "Erzählung": 6346,
      "mpath": 6347,
      "Zaun": 6348,
      "spazieren": 6349,
      "Neugierde": 6350,
      "Nerven": 6351,
      "ublik": 6352,
      "Pelz": 6353,
      "nirgends": 6354,
      "unbedingt": 6355,
      "14": 6356,
      "Bib": 6357,
      "Eß": 6358,
      "Eli": 6359,
      "Hon": 6360,
      "Ke": 6361,
      "Korn": 6362,
      "Sau": 6363,
      "Twer": 6364,
      "abe": 6365,
      "aben": 6366,
      "blichen": 6367,
      "ftet": 6368,
      "rischen": 6369,
      "relig": 6370,
      "tung": 6371,
      "tuch": 6372,
      "erhe": 6373,
      "erfreut": 6374,
      "ieß": 6375,
      "eingetreten": 6376,
      "aur": 6377,
      "sth": 6378,
      "stit": 6379,
      "gelo": 6380,
      "gemäß": 6381,
      "gehandelt": 6382,
      "schchen": 6383,
      "schend": 6384,
      "scherz": 6385,
      "schlossen": 6386,
      "genö": 6387,
      "elf": 6388,
      "behil": 6389,
      "sollt": 6390,
      "verfolgte": 6391,
      "verschaffen": 6392,
      "lebe": 6393,
      "Schür": 6394,
      "Schlos": 6395,
      "Schweiß": 6396,
      "herüber": 6397,
      "überließ": 6398,
      "Stär": 6399,
      "leisen": 6400,
      "lisch": 6401,
      "hegen": 6402,
      "atter": 6403,
      "spä": 6404,
      "Gesichtes": 6405,
      "riech": 6406,
      "ganzer": 6407,
      "wählen": 6408,
      "wecke": 6409,
      "halle": 6410,
      "selbstverständlich": 6411,
      "zweihundert": 6412,
      "begriffen": 6413,
      "zurückkehren": 6414,
      "Vorhang": 6415,
      "vieles": 6416,
      "ünste": 6417,
      "zwang": 6418,
      "ängt": 6419,
      "gestalten": 6420,
      "angelangt": 6421,
      "angebracht": 6422,
      "betäu": 6423,
      "Katzen": 6424,
      "irgendwelche": 6425,
      "Entschul": 6426,
      "einziger": 6427,
      "quälte": 6428,
      "Hoff": 6429,
      "Nacken": 6430,
      "Überlegung": 6431,
      "vermut": 6432,
      "spielten": 6433,
      "schlechten": 6434,
      "Grafen": 6435,
      "jemanden": 6436,
      "unbewe": 6437,
      "fünfzehn": 6438,
      "freudig": 6439,
      "aise": 6440,
      "Juli": 6441,
      "äußersten": 6442,
      "Laub": 6443,
      "süße": 6444,
      "fehlte": 6445,
      "Formen": 6446,
      "Bäumen": 6447,
      "Widerwillen": 6448,
      "Fäh": 6449,
      "Euro": 6450,
      "einsamen": 6451,
      "Knabe": 6452,
      "Samsa": 6453,
      "Bilde": 6454,
      "Hätte": 6455,
      "entdeckte": 6456,
      "verschwinden": 6457,
      "Edelle": 6458,
      "Nebenzimmer": 6459,
      "hübsches": 6460,
      "berührt": 6461,
      "persönlich": 6462,
      "heutigen": 6463,
      "wirklichen": 6464,
      "Taube": 6465,
      "krampf": 6466,
      "berühmten": 6467,
      "Binet": 6468,
      "Geliebte": 6469,
      "Deshalb": 6470,
      "Universitäts": 6471,
      "nutzlos": 6472,
      "Tänzerin": 6473,
      "Schnurr": 6474,
      "verstummte": 6475,
      "wahnsinnig": 6476,
      "Begegnung": 6477,
      "gewünscht": 6478,
      "geschenkt": 6479,
      "getrennt": 6480,
      "Jupiter": 6481,
      "rizki": 6482,
      "Telegra": 6483,
      "Terrasse": 6484,
      "Peszow": 6485,
      "Unterthanen": 6486,
      "behilflich": 6487,
      ").": 6488,
      "Fieber": 6489,
      "Jan": 6490,
      "Lad": 6491,
      "Pir": 6492,
      "Pier": 6493,
      "Reue": 6494,
      "Sän": 6495,
      "Tanz": 6496,
      "Tru": 6497,
      "gren": 6498,
      "ip": 6499,
      "mchen": 6500,
      "phen": 6501,
      "sar": 6502,
      "tsch": 6503,
      "wich": 6504,
      "yer": 6505,
      "zert": 6506,
      "ähle": 6507,
      "ieten": 6508,
      "inzen": 6509,
      "inzwischen": 6510,
      "gegessen": 6511,
      "elli": 6512,
      "beein": 6513,
      "verkü": 6514,
      "verraten": 6515,
      "annehm": 6516,
      "ram": 6517,
      "gesessen": 6518,
      "weist": 6519,
      "hergekommen": 6520,
      "woll": 6521,
      "überdies": 6522,
      "Ergebnis": 6523,
      "beider": 6524,
      "wasser": 6525,
      "werd": 6526,
      "gera": 6527,
      "geren": 6528,
      "Anschein": 6529,
      "uße": 6530,
      "Verachtung": 6531,
      "örter": 6532,
      "Bedien": 6533,
      "klug": 6534,
      "gelö": 6535,
      "Unrecht": 6536,
      "achtungen": 6537,
      "Kolle": 6538,
      "Zeitlang": 6539,
      "Spaß": 6540,
      "wegzu": 6541,
      "Ausweg": 6542,
      "änglich": 6543,
      "löschen": 6544,
      "gestreckt": 6545,
      "Mitter": 6546,
      "Beste": 6547,
      "äuber": 6548,
      "antwortet": 6549,
      "bett": 6550,
      "Bettes": 6551,
      "Unternehm": 6552,
      "Abscheu": 6553,
      "schwachen": 6554,
      "Rosen": 6555,
      "vergraben": 6556,
      "gehören": 6557,
      "starren": 6558,
      "innere": 6559,
      "ordnete": 6560,
      "flügel": 6561,
      "Lichter": 6562,
      "mäßige": 6563,
      "Gestalten": 6564,
      "unbehaglich": 6565,
      "Freundschaft": 6566,
      "Treppen": 6567,
      "Ursachen": 6568,
      "hindert": 6569,
      "erinnere": 6570,
      "Gefallen": 6571,
      "Gefän": 6572,
      "othek": 6573,
      "Küchen": 6574,
      "beugung": 6575,
      "Brunnen": 6576,
      "bildeten": 6577,
      "schämte": 6578,
      "Laut": 6579,
      "Ganzen": 6580,
      "geschlossenen": 6581,
      "Nieder": 6582,
      "Kleidern": 6583,
      "klagte": 6584,
      "Meer": 6585,
      "Burns": 6586,
      "entzückt": 6587,
      "esseln": 6588,
      "raschung": 6589,
      "niedrig": 6590,
      "Strumpf": 6591,
      "geistigen": 6592,
      "glänzende": 6593,
      "Muster": 6594,
      "gehangen": 6595,
      "höheren": 6596,
      "Beziehung": 6597,
      "schmerzlich": 6598,
      "gefühlt": 6599,
      "begleitete": 6600,
      "prächtige": 6601,
      "Trotzdem": 6602,
      "geheimnisvolle": 6603,
      "gefällig": 6604,
      "Linien": 6605,
      "schlechterdings": 6606,
      "Schtscherbazki": 6607,
      "Strom": 6608,
      "ungeheuern": 6609,
      "verursachte": 6610,
      "zahllosen": 6611,
      "zornig": 6612,
      "öfters": 6613,
      "Toilette": 6614,
      "Bibel": 6615,
      "verpflich": 6616,
      "gewählt": 6617,
      "anscheinend": 6618,
      "sorgfältig": 6619,
      "rängten": 6620,
      "Kinderstu": 6621,
      "Erfüllung": 6622,
      "Gleichgültigkeit": 6623,
      "Deine": 6624,
      "Dache": 6625,
      "Ero": 6626,
      "Glied": 6627,
      "Jä": 6628,
      "Kissen": 6629,
      "Kron": 6630,
      "Pein": 6631,
      "Reit": 6632,
      "Tugend": 6633,
      "deln": 6634,
      "fingen": 6635,
      "gange": 6636,
      "iffe": 6637,
      "jugend": 6638,
      "kers": 6639,
      "lin": 6640,
      "leitung": 6641,
      "nommen": 6642,
      "namen": 6643,
      "rücken": 6644,
      "siden": 6645,
      "tri": 6646,
      "wischte": 6647,
      "chin": 6648,
      "anständ": 6649,
      "gep": 6650,
      "derselbe": 6651,
      "schickt": 6652,
      "dachten": 6653,
      "zumachen": 6654,
      "unbedeuten": 6655,
      "unschuldig": 6656,
      "warfen": 6657,
      "andt": 6658,
      "ird": 6659,
      "astes": 6660,
      "verde": 6661,
      "versehen": 6662,
      "verhar": 6663,
      "vertrauen": 6664,
      "versetzt": 6665,
      "Erlaub": 6666,
      "vorigen": 6667,
      "leiten": 6668,
      "reite": 6669,
      "pften": 6670,
      "pflegt": 6671,
      "gerettet": 6672,
      "olog": 6673,
      "besitze": 6674,
      "bessern": 6675,
      "Verbeugung": 6676,
      "ielt": 6677,
      "rät": 6678,
      "unterwegs": 6679,
      "änden": 6680,
      "mehrmals": 6681,
      "müßt": 6682,
      "zurückhalten": 6683,
      "ünkt": 6684,
      "Jawohl": 6685,
      "hoher": 6686,
      "hoff": 6687,
      "Herrschaften": 6688,
      "Kindheit": 6689,
      "Zuflucht": 6690,
      "Ausgang": 6691,
      "ktiv": 6692,
      "Theil": 6693,
      "glaub": 6694,
      "Sech": 6695,
      "Gerv": 6696,
      "Unterricht": 6697,
      "Mädchens": 6698,
      "Leid": 6699,
      "Sagen": 6700,
      "unserem": 6701,
      "blind": 6702,
      "gespen": 6703,
      "trenn": 6704,
      "gekränkt": 6705,
      "Pferdes": 6706,
      "schluch": 6707,
      "Glückseligkeit": 6708,
      "ordnungen": 6709,
      "schlugen": 6710,
      "Klar": 6711,
      "streng": 6712,
      "nächste": 6713,
      "Platzes": 6714,
      "Notwendigkeit": 6715,
      "Schlacht": 6716,
      "Justin": 6717,
      "arbeitet": 6718,
      "freundschaft": 6719,
      "Büro": 6720,
      "Schmutz": 6721,
      "Gewöl": 6722,
      "Büchern": 6723,
      "unverständ": 6724,
      "Sohnes": 6725,
      "fremd": 6726,
      "baut": 6727,
      "flogen": 6728,
      "gedanken": 6729,
      "Andre": 6730,
      "Erkenntnis": 6731,
      "Schüssel": 6732,
      "sonderbare": 6733,
      "Suppe": 6734,
      "düsteren": 6735,
      "erlauben": 6736,
      "erlaubte": 6737,
      "Flammen": 6738,
      "gnädiger": 6739,
      "häßlich": 6740,
      "Hexen": 6741,
      "Laufe": 6742,
      "steinernen": 6743,
      "gewohnt": 6744,
      "Auffassung": 6745,
      "begegnen": 6746,
      "Entscheidung": 6747,
      "gegenwärtig": 6748,
      "offeln": 6749,
      "Sense": 6750,
      "Hipp": 6751,
      "männ": 6752,
      "Georgina": 6753,
      "Appetit": 6754,
      "Antworten": 6755,
      "angelegenheiten": 6756,
      "unbeweglich": 6757,
      "Erober": 6758,
      "Ag": 6759,
      "Amme": 6760,
      "Bör": 6761,
      "Col": 6762,
      "Farben": 6763,
      "Heller": 6764,
      "Kie": 6765,
      "Keine": 6766,
      "Kli": 6767,
      "Ketten": 6768,
      "Lohn": 6769,
      "Mön": 6770,
      "Nahr": 6771,
      "Vi": 6772,
      "blas": 6773,
      "feinen": 6774,
      "fährt": 6775,
      "kas": 6776,
      "mür": 6777,
      "mam": 6778,
      "messer": 6779,
      "ohlen": 6780,
      "pur": 6781,
      "sheit": 6782,
      "sweise": 6783,
      "tön": 6784,
      "toll": 6785,
      "wetter": 6786,
      "energ": 6787,
      "ergeben": 6788,
      "erraten": 6789,
      "erworben": 6790,
      "chel": 6791,
      "eifers": 6792,
      "iche": 6793,
      "aux": 6794,
      "derjenige": 6795,
      "schwen": 6796,
      "schick": 6797,
      "unsichtbar": 6798,
      "armer": 6799,
      "ema": 6800,
      "ons": 6801,
      "haßte": 6802,
      "sieb": 6803,
      "ckel": 6804,
      "ller": 6805,
      "befehlen": 6806,
      "verfolgt": 6807,
      "lehnen": 6808,
      "Schen": 6809,
      "Scherz": 6810,
      "Schoß": 6811,
      "desselben": 6812,
      "weiten": 6813,
      "wogen": 6814,
      "überkam": 6815,
      "überflü": 6816,
      "ernste": 6817,
      "liothek": 6818,
      "abermals": 6819,
      "atmen": 6820,
      "pflicht": 6821,
      "gerichts": 6822,
      "Antrag": 6823,
      "raut": 6824,
      "rauchen": 6825,
      "spreche": 6826,
      "Vers": 6827,
      "Veran": 6828,
      "entblö": 6829,
      "brä": 6830,
      "wißt": 6831,
      "langes": 6832,
      "gelen": 6833,
      "kommenden": 6834,
      "worfen": 6835,
      "gefol": 6836,
      "Spur": 6837,
      "gehende": 6838,
      "dichten": 6839,
      "Taschen": 6840,
      "hole": 6841,
      "gebäude": 6842,
      "gestürzt": 6843,
      "liebko": 6844,
      "zeigten": 6845,
      "Kaiser": 6846,
      "bescheiden": 6847,
      "Jedes": 6848,
      "allerhand": 6849,
      "Woher": 6850,
      "Dampf": 6851,
      "einzig": 6852,
      "kühn": 6853,
      "starke": 6854,
      "trennen": 6855,
      "Wäre": 6856,
      "gestellten": 6857,
      "dunkeln": 6858,
      "schreien": 6859,
      "schreiber": 6860,
      "Faç": 6861,
      "Flur": 6862,
      "Trou": 6863,
      "Schlimm": 6864,
      "Gefähr": 6865,
      "Elfte": 6866,
      "Kapit": 6867,
      "Kapelle": 6868,
      "Felder": 6869,
      "Pracht": 6870,
      "Trennung": 6871,
      "Westen": 6872,
      "Freunden": 6873,
      "erfüllen": 6874,
      "Dienstboten": 6875,
      "hängenden": 6876,
      "Folter": 6877,
      "Ohre": 6878,
      "breitete": 6879,
      "erregte": 6880,
      "gedrängt": 6881,
      "Petersburger": 6882,
      "trübe": 6883,
      "prüfen": 6884,
      "hängnis": 6885,
      "Gemüts": 6886,
      "gebilde": 6887,
      "Korridor": 6888,
      "förm": 6889,
      "Sterne": 6890,
      "Liebhaber": 6891,
      "Petro": 6892,
      "fürchterlichen": 6893,
      "Italiener": 6894,
      "Thore": 6895,
      "Oliver": 6896,
      "Linie": 6897,
      "Nutzen": 6898,
      "Harper": 6899,
      "Besonderes": 6900,
      "nachzudenken": 6901,
      "trösten": 6902,
      "erkundigte": 6903,
      "Aegyp": 6904,
      "mitzuteilen": 6905,
      "beleidigt": 6906,
      "gemalt": 6907,
      "keineswegs": 6908,
      "Zuhörer": 6909,
      "Fasel": 6910,
      "Mitternacht": 6911,
      "Erlaubnis": 6912,
      "eifersü": 6913,
      "Bach": 6914,
      "Bitter": 6915,
      "Bast": 6916,
      "Ew": 6917,
      "Ele": 6918,
      "Faust": 6919,
      "Gange": 6920,
      "Gib": 6921,
      "Glieder": 6922,
      "Hitze": 6923,
      "Loch": 6924,
      "Lwo": 6925,
      "Lumpen": 6926,
      "Nord": 6927,
      "Publik": 6928,
      "Rund": 6929,
      "Treu": 6930,
      "Wonne": 6931,
      "Zwecke": 6932,
      "ape": 6933,
      "fliegen": 6934,
      "ginge": 6935,
      "greifen": 6936,
      "pal": 6937,
      "sorgen": 6938,
      "tisch": 6939,
      "täuschung": 6940,
      "zarten": 6941,
      "zweck": 6942,
      "chn": 6943,
      "diejenige": 6944,
      "dazwischen": 6945,
      "zugrunde": 6946,
      "hrung": 6947,
      "itik": 6948,
      "onen": 6949,
      "onie": 6950,
      "ign": 6951,
      "mmelte": 6952,
      "aufe": 6953,
      "aufgenommen": 6954,
      "ursprü": 6955,
      "versicher": 6956,
      "verfallen": 6957,
      "verbeugte": 6958,
      "verriet": 6959,
      "verdient": 6960,
      "hnten": 6961,
      "lebend": 6962,
      "leere": 6963,
      "üren": 6964,
      "annung": 6965,
      "Schwarm": 6966,
      "rollte": 6967,
      "Städ": 6968,
      "Staunen": 6969,
      "liebes": 6970,
      "reife": 6971,
      "reicher": 6972,
      "hinreichen": 6973,
      "ückten": 6974,
      "atmete": 6975,
      "Gegner": 6976,
      "gereist": 6977,
      "Anteil": 6978,
      "sprä": 6979,
      "sprich": 6980,
      "immerhin": 6981,
      "entw": 6982,
      "entlich": 6983,
      "entsetzt": 6984,
      "währen": 6985,
      "lauten": 6986,
      "klingen": 6987,
      "barer": 6988,
      "feur": 6989,
      "Koffer": 6990,
      "trage": 6991,
      "Handel": 6992,
      "Zeitung": 6993,
      "Vorhänge": 6994,
      "Wieso": 6995,
      "Thun": 6996,
      "Lieber": 6997,
      "gesetz": 6998,
      "weitere": 6999,
      "weißes": 7000,
      "langem": 7001,
      "Laßt": 7002,
      "beleuchte": 7003,
      "Kasten": 7004,
      "schnei": 7005,
      "irgendeine": 7006,
      "bestürzt": 7007,
      "bestätig": 7008,
      "ruhte": 7009,
      "teils": 7010,
      "öhnung": 7011,
      "solltest": 7012,
      "besonderer": 7013,
      "Adj": 7014,
      "Höflichkeit": 7015,
      "Saw": 7016,
      "Org": 7017,
      "außerhalb": 7018,
      "offenen": 7019,
      "Baudenk": 7020,
      "Schrittes": 7021,
      "Mode": 7022,
      "phant": 7023,
      "Empfang": 7024,
      "Bericht": 7025,
      "Just": 7026,
      "hinderte": 7027,
      "erinnert": 7028,
      "Monaten": 7029,
      "lebten": 7030,
      "traurige": 7031,
      "schätzen": 7032,
      "zitterten": 7033,
      "scharfen": 7034,
      "darfst": 7035,
      "glitt": 7036,
      "Indem": 7037,
      "beruhigte": 7038,
      "mächtiger": 7039,
      "breite": 7040,
      "feierlich": 7041,
      "zerstört": 7042,
      "zerstreut": 7043,
      "Ehrgeiz": 7044,
      "verkaufen": 7045,
      "düstere": 7046,
      "schwarzes": 7047,
      "erlaubt": 7048,
      "Balkon": 7049,
      "übrige": 7050,
      "errötend": 7051,
      "dringend": 7052,
      "Nachbarn": 7053,
      "häßlichen": 7054,
      "regelmäßig": 7055,
      "mischte": 7056,
      "strömte": 7057,
      "täuschen": 7058,
      "ewigen": 7059,
      "Äußer": 7060,
      "Prozesses": 7061,
      "heftete": 7062,
      "Pfeiler": 7063,
      "Klub": 7064,
      "Ungeduld": 7065,
      "General": 7066,
      "Michail": 7067,
      "Unsere": 7068,
      "günstig": 7069,
      "neugierig": 7070,
      "erschütter": 7071,
      "gebreitet": 7072,
      "Schwieger": 7073,
      "Nikolajewna": 7074,
      "Eßzimmer": 7075,
      "verpflichtet": 7076,
      "Kinderstube": 7077,
      "Nahrung": 7078,
      "gefolgt": 7079,
      "Trouillef": 7080,
      "Faselha": 7081,
      "Asche": 7082,
      "Bän": 7083,
      "Can": 7084,
      "Dent": 7085,
      "Ecken": 7086,
      "Fisch": 7087,
      "Fassung": 7088,
      "Gent": 7089,
      "Knochen": 7090,
      "Lond": 7091,
      "Mör": 7092,
      "Mission": 7093,
      "Pra": 7094,
      "Rot": 7095,
      "Teile": 7096,
      "Vom": 7097,
      "Vene": 7098,
      "aschen": 7099,
      "bank": 7100,
      "dis": 7101,
      "ding": 7102,
      "fliehen": 7103,
      "helle": 7104,
      "jä": 7105,
      "tür": 7106,
      "öre": 7107,
      "erzen": 7108,
      "ermü": 7109,
      "erblickt": 7110,
      "este": 7111,
      "stille": 7112,
      "gewei": 7113,
      "gelä": 7114,
      "gemerkt": 7115,
      "schil": 7116,
      "ununterbrochen": 7117,
      "arde": 7118,
      "alters": 7119,
      "onien": 7120,
      "wara": 7121,
      "befinden": 7122,
      "bewaff": 7123,
      "igori": 7124,
      "benu": 7125,
      "verf": 7126,
      "unges": 7127,
      "weile": 7128,
      "herzig": 7129,
      "Erbar": 7130,
      "Stat": 7131,
      "lieh": 7132,
      "reichten": 7133,
      "heftigen": 7134,
      "pfei": 7135,
      "Gewä": 7136,
      "gerö": 7137,
      "gerü": 7138,
      "gerung": 7139,
      "wirkte": 7140,
      "besitzt": 7141,
      "besorgt": 7142,
      "spen": 7143,
      "lade": 7144,
      "Verda": 7145,
      "Verwunderung": 7146,
      "Gesang": 7147,
      "ehrung": 7148,
      "entstand": 7149,
      "entgehen": 7150,
      "naps": 7151,
      "wid": 7152,
      "jagen": 7153,
      "jagt": 7154,
      "Unannehm": 7155,
      "Einbildung": 7156,
      "Instit": 7157,
      "drein": 7158,
      "wohlbekannten": 7159,
      "Vormittag": 7160,
      "ließe": 7161,
      "näck": 7162,
      "nämlichen": 7163,
      "Grigori": 7164,
      "undeut": 7165,
      "Thurme": 7166,
      "digten": 7167,
      "Dutzend": 7168,
      "See": 7169,
      "weiteren": 7170,
      "Geruch": 7171,
      "Geschwor": 7172,
      "beschloß": 7173,
      "Woll": 7174,
      "Wohin": 7175,
      "Warwara": 7176,
      "schönsten": 7177,
      "nütz": 7178,
      "paßt": 7179,
      "itzten": 7180,
      "möglicherweise": 7181,
      "öhnt": 7182,
      "Entdeck": 7183,
      "Weges": 7184,
      "que": 7185,
      "unseres": 7186,
      "gespannt": 7187,
      "Stuhle": 7188,
      "Quelle": 7189,
      "Dienste": 7190,
      "freie": 7191,
      "eigne": 7192,
      "fünfzehnten": 7193,
      "stock": 7194,
      "hungrig": 7195,
      "verbrei": 7196,
      "Heft": 7197,
      "geredet": 7198,
      "Schlafen": 7199,
      "freundlichen": 7200,
      "Poole": 7201,
      "regungslos": 7202,
      "Buchstaben": 7203,
      "Degen": 7204,
      "Elften": 7205,
      "Teufels": 7206,
      "Hilf": 7207,
      "Rechts": 7208,
      "Solche": 7209,
      "allgemein": 7210,
      "wilde": 7211,
      "wildes": 7212,
      "beobachtet": 7213,
      "wichtige": 7214,
      "Besucher": 7215,
      "wickelte": 7216,
      "zweitens": 7217,
      "bösen": 7218,
      "Engländ": 7219,
      "klopfen": 7220,
      "bloße": 7221,
      "Anfangs": 7222,
      "Ludwigs": 7223,
      "berühren": 7224,
      "lässig": 7225,
      "bewahren": 7226,
      "prächtigen": 7227,
      "Waldes": 7228,
      "Gewohnheiten": 7229,
      "Lehns": 7230,
      "feuchten": 7231,
      "Miller": 7232,
      "Wuth": 7233,
      "Franzo": 7234,
      "Bahnhof": 7235,
      "Scene": 7236,
      "lernte": 7237,
      "Scheiben": 7238,
      "Brüder": 7239,
      "verabschie": 7240,
      "ewige": 7241,
      "Mahlzeit": 7242,
      "Gebiete": 7243,
      "geweckt": 7244,
      "Geliebten": 7245,
      "solchem": 7246,
      "Auslande": 7247,
      "Flucht": 7248,
      "Präsiden": 7249,
      "Champ": 7250,
      "erforderlich": 7251,
      "besetzt": 7252,
      "Regiments": 7253,
      "königlichen": 7254,
      "runzelte": 7255,
      "angenehmen": 7256,
      "verächtlich": 7257,
      "fläche": 7258,
      "widerwärtig": 7259,
      "Frühling": 7260,
      "Künstler": 7261,
      "Zahn": 7262,
      "Kellner": 7263,
      "Laterne": 7264,
      "Bedürfnis": 7265,
      "Eliza": 7266,
      "religiö": 7267,
      "Stärke": 7268,
      "Schnurrbart": 7269,
      "eifersüchtig": 7270,
      "London": 7271,
      "Bade": 7272,
      "Blü": 7273,
      "Butter": 7274,
      "Chef": 7275,
      "Fäu": 7276,
      "Gre": 7277,
      "Griff": 7278,
      "Jen": 7279,
      "Jel": 7280,
      "Jün": 7281,
      "Klang": 7282,
      "Mart": 7283,
      "Rü": 7284,
      "Ritter": 7285,
      "Sorg": 7286,
      "Tan": 7287,
      "Trü": 7288,
      "Wunde": 7289,
      "Wild": 7290,
      "Zettel": 7291,
      "drängten": 7292,
      "gal": 7293,
      "galt": 7294,
      "griech": 7295,
      "himm": 7296,
      "jat": 7297,
      "kir": 7298,
      "köpf": 7299,
      "loch": 7300,
      "mische": 7301,
      "pas": 7302,
      "rund": 7303,
      "rist": 7304,
      "risch": 7305,
      "runden": 7306,
      "zi": 7307,
      "engen": 7308,
      "erscheint": 7309,
      "erblicken": 7310,
      "chsen": 7311,
      "ieben": 7312,
      "ieht": 7313,
      "einwand": 7314,
      "anischen": 7315,
      "undet": 7316,
      "stige": 7317,
      "steig": 7318,
      "stöhnte": 7319,
      "gede": 7320,
      "gelangte": 7321,
      "schoß": 7322,
      "zuviel": 7323,
      "zunehmen": 7324,
      "unum": 7325,
      "emel": 7326,
      "hagen": 7327,
      "lichste": 7328,
      "warteten": 7329,
      "beeilte": 7330,
      "seg": 7331,
      "bende": 7332,
      "mitgebracht": 7333,
      "verhalten": 7334,
      "versprach": 7335,
      "reffen": 7336,
      "redung": 7337,
      "eitausend": 7338,
      "demütig": 7339,
      "umarm": 7340,
      "leide": 7341,
      "immen": 7342,
      "reizend": 7343,
      "chtige": 7344,
      "chtigt": 7345,
      "heftiger": 7346,
      "hingegen": 7347,
      "Geber": 7348,
      "Getrei": 7349,
      "rauch": 7350,
      "Vergleich": 7351,
      "Vergessen": 7352,
      "gewagt": 7353,
      "ielte": 7354,
      "enthalten": 7355,
      "riechen": 7356,
      "euchen": 7357,
      "Bekannte": 7358,
      "Esht": 7359,
      "lautete": 7360,
      "hörbar": 7361,
      "schende": 7362,
      "geschw": 7363,
      "mögliche": 7364,
      "zurückkehrte": 7365,
      "Vorwand": 7366,
      "angst": 7367,
      "nächt": 7368,
      "vollem": 7369,
      "Jacke": 7370,
      "hoffnung": 7371,
      "theilt": 7372,
      "Kinderz": 7373,
      "Sophie": 7374,
      "langten": 7375,
      "glaubst": 7376,
      "Besp": 7377,
      "Wird": 7378,
      "stehend": 7379,
      "Duft": 7380,
      "höflich": 7381,
      "weiteres": 7382,
      "Gering": 7383,
      "beschrän": 7384,
      "Ruhm": 7385,
      "Jede": 7386,
      "Wahlen": 7387,
      "Reich": 7388,
      "Türen": 7389,
      "Händler": 7390,
      "Enttäuschung": 7391,
      "Nachts": 7392,
      "quette": 7393,
      "Robert": 7394,
      "empfing": 7395,
      "alteten": 7396,
      "offene": 7397,
      "inneren": 7398,
      "frühere": 7399,
      "erwarte": 7400,
      "anzunehmen": 7401,
      "Glücke": 7402,
      "Wagens": 7403,
      "versä": 7404,
      "versank": 7405,
      "flüchtig": 7406,
      "mäßiger": 7407,
      "Frauenzimmer": 7408,
      "bestehen": 7409,
      "Beginn": 7410,
      "tiefsten": 7411,
      "Träum": 7412,
      "Freilich": 7413,
      "entfernten": 7414,
      "graue": 7415,
      "schämen": 7416,
      "Apotheke": 7417,
      "glänzte": 7418,
      "Lehrerin": 7419,
      "beinah": 7420,
      "Hintergrunde": 7421,
      "bauen": 7422,
      "haftet": 7423,
      "Kutsche": 7424,
      "niedrige": 7425,
      "hilfe": 7426,
      "wesend": 7427,
      "gemeinsam": 7428,
      "trüb": 7429,
      "goldenen": 7430,
      "erwähnt": 7431,
      "verschwanden": 7432,
      "Flamme": 7433,
      "Kanape": 7434,
      "Verzeihen": 7435,
      "Wirtschafts": 7436,
      "Petrizki": 7437,
      "reizende": 7438,
      "Wolke": 7439,
      "zweifeln": 7440,
      "Millco": 7441,
      "bewegung": 7442,
      "wirkliche": 7443,
      "kömm": 7444,
      "Dämmerung": 7445,
      "begegnet": 7446,
      "zuzuhören": 7447,
      "natürlichen": 7448,
      "natürliche": 7449,
      "Grausamkeit": 7450,
      "Tribü": 7451,
      "klugen": 7452,
      "befriedigen": 7453,
      "liebenswürdig": 7454,
      "Château": 7455,
      "Berta": 7456,
      "vernünftig": 7457,
      "streichelte": 7458,
      "leuchtenden": 7459,
      "gesellschaftlichen": 7460,
      "plötzlichen": 7461,
      "eindr": 7462,
      "Wünsche": 7463,
      "Lebhaftigkeit": 7464,
      "bunt": 7465,
      "Billard": 7466,
      "Horizont": 7467,
      "Drosch": 7468,
      "vergeblich": 7469,
      "hölz": 7470,
      "Birken": 7471,
      "erledigt": 7472,
      "Parlaments": 7473,
      "Bibliothek": 7474,
      "Hoffnungen": 7475,
      "Gervaise": 7476,
      "Trouillefou": 7477,
      "Millcote": 7478,
      "Ander": 7479,
      "Brä": 7480,
      "Emp": 7481,
      "Ehem": 7482,
      "Fesseln": 7483,
      "Kle": 7484,
      "Kru": 7485,
      "Kette": 7486,
      "Mj": 7487,
      "Nort": 7488,
      "Pen": 7489,
      "Por": 7490,
      "Pilo": 7491,
      "Titel": 7492,
      "Wall": 7493,
      "Wange": 7494,
      "asche": 7495,
      "bückte": 7496,
      "fau": 7497,
      "glo": 7498,
      "kissen": 7499,
      "min": 7500,
      "mung": 7501,
      "mend": 7502,
      "sem": 7503,
      "ttete": 7504,
      "thaten": 7505,
      "wundern": 7506,
      "zün": 7507,
      "zart": 7508,
      "zeits": 7509,
      "öpft": 7510,
      "üben": 7511,
      "erwiesen": 7512,
      "chnungen": 7513,
      "teur": 7514,
      "derten": 7515,
      "schlang": 7516,
      "zustand": 7517,
      "unwider": 7518,
      "hrten": 7519,
      "tenden": 7520,
      "ittel": 7521,
      "haar": 7522,
      "berichtete": 7523,
      "beauf": 7524,
      "bekommt": 7525,
      "behaglich": 7526,
      "aufgegeben": 7527,
      "irk": 7528,
      "irt": 7529,
      "seht": 7530,
      "astete": 7531,
      "vernehmen": 7532,
      "verzweifel": 7533,
      "leute": 7534,
      "regte": 7535,
      "umsonst": 7536,
      "ros": 7537,
      "womit": 7538,
      "vorläufig": 7539,
      "leises": 7540,
      "erner": 7541,
      "liefer": 7542,
      "beides": 7543,
      "ennst": 7544,
      "athen": 7545,
      "Gepä": 7546,
      "gerühr": 7547,
      "olo": 7548,
      "Ansehn": 7549,
      "Anordnungen": 7550,
      "wirt": 7551,
      "besorgen": 7552,
      "spiegel": 7553,
      "sparen": 7554,
      "seligen": 7555,
      "Verse": 7556,
      "ruft": 7557,
      "rucht": 7558,
      "enth": 7559,
      "entr": 7560,
      "entbe": 7561,
      "durchgemacht": 7562,
      "unterhielt": 7563,
      "unterscheiden": 7564,
      "Herde": 7565,
      "Bedauern": 7566,
      "erkennt": 7567,
      "Unwahr": 7568,
      "Unmöglich": 7569,
      "schenken": 7570,
      "geschä": 7571,
      "geschrei": 7572,
      "antwort": 7573,
      "Handlungs": 7574,
      "Vorstellungen": 7575,
      "weggehen": 7576,
      "wolltest": 7577,
      "Pfle": 7578,
      "mäler": 7579,
      "bemächtig": 7580,
      "wahrer": 7581,
      "iller": 7582,
      "Absichten": 7583,
      "Abwesenheit": 7584,
      "beschaffen": 7585,
      "Muth": 7586,
      "odor": 7587,
      "nützen": 7588,
      "Lebe": 7589,
      "Leah": 7590,
      "teilt": 7591,
      "schwanken": 7592,
      "drückten": 7593,
      "dium": 7594,
      "Karren": 7595,
      "prächtig": 7596,
      "besonderes": 7597,
      "mpfen": 7598,
      "Stufe": 7599,
      "starb": 7600,
      "erwidern": 7601,
      "gewöhnliches": 7602,
      "gekauft": 7603,
      "flatter": 7604,
      "schmetter": 7605,
      "fäll": 7606,
      "stube": 7607,
      "Gemahl": 7608,
      "vernichten": 7609,
      "fürchtet": 7610,
      "Hecken": 7611,
      "wiederholt": 7612,
      "graben": 7613,
      "Schlage": 7614,
      "Begrü": 7615,
      "Träume": 7616,
      "nehmer": 7617,
      "Mont": 7618,
      "Küssen": 7619,
      "Felde": 7620,
      "träumte": 7621,
      "gütig": 7622,
      "Rechtsanwalt": 7623,
      "Philipp": 7624,
      "Stoff": 7625,
      "streben": 7626,
      "glänzend": 7627,
      "mpft": 7628,
      "Wunsche": 7629,
      "sammeln": 7630,
      "herzigkeit": 7631,
      "gänge": 7632,
      "Kommt": 7633,
      "verthei": 7634,
      "größeren": 7635,
      "Fächer": 7636,
      "Hochzeits": 7637,
      "Engländer": 7638,
      "sonderbaren": 7639,
      "rückt": 7640,
      "zurückzukehren": 7641,
      "Samt": 7642,
      "Häusern": 7643,
      "verwundert": 7644,
      "entdecken": 7645,
      "Käfig": 7646,
      "wechselnd": 7647,
      "Brauen": 7648,
      "Feinde": 7649,
      "streifte": 7650,
      "Liebko": 7651,
      "bewundern": 7652,
      "häufiger": 7653,
      "Glanze": 7654,
      "platte": 7655,
      "Zurück": 7656,
      "Nummer": 7657,
      "Schtscherbazkis": 7658,
      "berühmte": 7659,
      "Atlas": 7660,
      "Anschauungen": 7661,
      "befriedigt": 7662,
      "Besonders": 7663,
      "gebrauchen": 7664,
      "Lieblings": 7665,
      "Grenzen": 7666,
      "Wichtigkeit": 7667,
      "Châtelet": 7668,
      "Auftrag": 7669,
      "Moral": 7670,
      "schwächer": 7671,
      "gestattet": 7672,
      "schleppte": 7673,
      "Schülerinnen": 7674,
      "jetzigen": 7675,
      "ungeheure": 7676,
      "Gärt": 7677,
      "Strümpfe": 7678,
      "drüben": 7679,
      "Münze": 7680,
      "gerichteten": 7681,
      "goldene": 7682,
      "Europa": 7683,
      "Hippol": 7684,
      "maman": 7685,
      "Publikum": 7686,
      "Sawyer": 7687,
      "Erbarmen": 7688,
      "Institut": 7689,
      "Balle": 7690,
      "Bere": 7691,
      "Dü": 7692,
      "Fuhr": 7693,
      "Geister": 7694,
      "Ihm": 7695,
      "Kart": 7696,
      "Kenntnis": 7697,
      "Mie": 7698,
      "Masse": 7699,
      "Rj": 7700,
      "Rym": 7701,
      "Rührung": 7702,
      "Szen": 7703,
      "Skla": 7704,
      "Sym": 7705,
      "Täuschung": 7706,
      "bnis": 7707,
      "belte": 7708,
      "din": 7709,
      "ewig": 7710,
      "fas": 7711,
      "flei": 7712,
      "kru": 7713,
      "no": 7714,
      "reinen": 7715,
      "sin": 7716,
      "swert": 7717,
      "taub": 7718,
      "wehr": 7719,
      "wachen": 7720,
      "weta": 7721,
      "zählen": 7722,
      "ßlichen": 7723,
      "errt": 7724,
      "tele": 7725,
      "einheit": 7726,
      "austra": 7727,
      "dastand": 7728,
      "zuver": 7729,
      "zuhalten": 7730,
      "zustande": 7731,
      "unf": 7732,
      "unrecht": 7733,
      "unverm": 7734,
      "unsicher": 7735,
      "altete": 7736,
      "hasse": 7737,
      "warmen": 7738,
      "behandeln": 7739,
      "behut": 7740,
      "mmers": 7741,
      "aufstand": 7742,
      "aufstehen": 7743,
      "sef": 7744,
      "mitunter": 7745,
      "verliehen": 7746,
      "verderben": 7747,
      "deutete": 7748,
      "leber": 7749,
      "ocht": 7750,
      "aussprechen": 7751,
      "Schnaps": 7752,
      "umgab": 7753,
      "Ersch": 7754,
      "Erstens": 7755,
      "vorhin": 7756,
      "vorgegangen": 7757,
      "ision": 7758,
      "reift": 7759,
      "lier": 7760,
      "steckt": 7761,
      "pflegen": 7762,
      "Anstand": 7763,
      "Anzahl": 7764,
      "gewicht": 7765,
      "abin": 7766,
      "entstanden": 7767,
      "Diesen": 7768,
      "kosten": 7769,
      "komisch": 7770,
      "ienten": 7771,
      "mancher": 7772,
      "zurichten": 7773,
      "Bek": 7774,
      "sterte": 7775,
      "ändnis": 7776,
      "schade": 7777,
      "ttelt": 7778,
      "achtungs": 7779,
      "drin": 7780,
      "müh": 7781,
      "Handschuhe": 7782,
      "vieler": 7783,
      "Sollte": 7784,
      "Thema": 7785,
      "ndeut": 7786,
      "zeiten": 7787,
      "Besinnung": 7788,
      "Seiden": 7789,
      "Geschichten": 7790,
      "richtigen": 7791,
      "richtungen": 7792,
      "Habe": 7793,
      "irgendein": 7794,
      "Landschaft": 7795,
      "Landvolk": 7796,
      "hauen": 7797,
      "hüten": 7798,
      "quer": 7799,
      "merkwürdig": 7800,
      "Para": 7801,
      "Schulen": 7802,
      "Fran": 7803,
      "Freit": 7804,
      "sessel": 7805,
      "Orte": 7806,
      "hervortreten": 7807,
      "hervorgerufen": 7808,
      "längere": 7809,
      "lebendig": 7810,
      "Blatt": 7811,
      "Darum": 7812,
      "einfachen": 7813,
      "Gemei": 7814,
      "Menschheit": 7815,
      "herrlich": 7816,
      "mutter": 7817,
      "Huckleber": 7818,
      "gerechnet": 7819,
      "sicherlich": 7820,
      "fertigen": 7821,
      "gelegentlich": 7822,
      "Poli": 7823,
      "Posten": 7824,
      "nötigen": 7825,
      "Gefangen": 7826,
      "Zigeunerinnen": 7827,
      "Wesens": 7828,
      "säm": 7829,
      "lebhafte": 7830,
      "lebhafter": 7831,
      "zeichneten": 7832,
      "grün": 7833,
      "Früh": 7834,
      "ive": 7835,
      "verstehst": 7836,
      "Stamm": 7837,
      "zufriedenheit": 7838,
      "gieb": 7839,
      "Schreien": 7840,
      "zitternder": 7841,
      "glatt": 7842,
      "überzeugen": 7843,
      "wüt": 7844,
      "Wiederum": 7845,
      "sitzenden": 7846,
      "Selbstverständlich": 7847,
      "haftes": 7848,
      "erregen": 7849,
      "oberen": 7850,
      "zählte": 7851,
      "hilf": 7852,
      "verheiraten": 7853,
      "Baumeister": 7854,
      "Fremde": 7855,
      "Soldat": 7856,
      "Helden": 7857,
      "Fortschr": 7858,
      "Versuchung": 7859,
      "bewegt": 7860,
      "begleitet": 7861,
      "Eingabe": 7862,
      "persönlichen": 7863,
      "zweifelt": 7864,
      "Redens": 7865,
      "Busen": 7866,
      "tanzen": 7867,
      "tanzte": 7868,
      "hartnäck": 7869,
      "gewohnten": 7870,
      "gefügt": 7871,
      "älteren": 7872,
      "jährlich": 7873,
      "brummte": 7874,
      "isaweta": 7875,
      "gäbe": 7876,
      "Metrow": 7877,
      "schmutzigen": 7878,
      "beabsichtigte": 7879,
      "Wärterin": 7880,
      "gewähren": 7881,
      "kläglich": 7882,
      "Aufenthalt": 7883,
      "Schnelligkeit": 7884,
      "Offenbar": 7885,
      "bürger": 7886,
      "zärtlichen": 7887,
      "heulte": 7888,
      "lächerlich": 7889,
      "Pfeife": 7890,
      "leugnen": 7891,
      "Edelmann": 7892,
      "Köchin": 7893,
      "Edelleute": 7894,
      "grenzen": 7895,
      "Gefängnis": 7896,
      "Börse": 7897,
      "Façade": 7898,
      "versicherte": 7899,
      "Justiz": 7900,
      "Faselhase": 7901,
      "Jelisaweta": 7902,
      "Mjach": 7903,
      "Adern": 7904,
      "Berg": 7905,
      "Gnä": 7906,
      "Kerk": 7907,
      "Krü": 7908,
      "Lob": 7909,
      "Lang": 7910,
      "No": 7911,
      "Ras": 7912,
      "Ratten": 7913,
      "Räuber": 7914,
      "Stern": 7915,
      "Tu": 7916,
      "Tusch": 7917,
      "Vic": 7918,
      "Wendung": 7919,
      "app": 7920,
      "fuß": 7921,
      "klagen": 7922,
      "künst": 7923,
      "lers": 7924,
      "raus": 7925,
      "sand": 7926,
      "ule": 7927,
      "zeln": 7928,
      "übl": 7929,
      "erb": 7930,
      "erober": 7931,
      "erkenne": 7932,
      "erwecken": 7933,
      "christ": 7934,
      "eingenommen": 7935,
      "esten": 7936,
      "unddreißig": 7937,
      "steiner": 7938,
      "streifen": 7939,
      "zuhörte": 7940,
      "unab": 7941,
      "hre": 7942,
      "elnden": 7943,
      "terie": 7944,
      "bebte": 7945,
      "bedacht": 7946,
      "betraf": 7947,
      "iren": 7948,
      "benommen": 7949,
      "versprechen": 7950,
      "verbrachte": 7951,
      "verboten": 7952,
      "verdopp": 7953,
      "redet": 7954,
      "ürt": 7955,
      "tzeit": 7956,
      "Sieben": 7957,
      "Schöne": 7958,
      "umr": 7959,
      "überwä": 7960,
      "Erleichter": 7961,
      "vorgenommen": 7962,
      "Außen": 7963,
      "reiz": 7964,
      "hinfahren": 7965,
      "ierde": 7966,
      "geräusch": 7967,
      "wirkung": 7968,
      "rauchte": 7969,
      "spürte": 7970,
      "gewahr": 7971,
      "gewöl": 7972,
      "igend": 7973,
      "füllt": 7974,
      "wätz": 7975,
      "Beglei": 7976,
      "Behandlung": 7977,
      "Befehle": 7978,
      "lauschte": 7979,
      "gelitten": 7980,
      "Unordnung": 7981,
      "barm": 7982,
      "woran": 7983,
      "schenden": 7984,
      "zweiter": 7985,
      "gefangen": 7986,
      "renge": 7987,
      "konus": 7988,
      "igerweise": 7989,
      "Vorrat": 7990,
      "Sprich": 7991,
      "Zufall": 7992,
      "Zufrieden": 7993,
      "Sou": 7994,
      "gestalt": 7995,
      "Wirts": 7996,
      "betrunken": 7997,
      "Geschlecht": 7998,
      "Unternehmen": 7999,
      "holfen": 8000,
      "Abbot": 8001,
      "Abgrund": 8002,
      "Kahn": 8003,
      "Hafer": 8004,
      "Warten": 8005,
      "masch": 8006,
      "Leichen": 8007,
      "bleibe": 8008,
      "letzen": 8009,
      "richteten": 8010,
      "Adel": 8011,
      "kümmerte": 8012,
      "tropfen": 8013,
      "Überzieher": 8014,
      "Stube": 8015,
      "besseren": 8016,
      "schleu": 8017,
      "harten": 8018,
      "fordern": 8019,
      "wünsch": 8020,
      "Amts": 8021,
      "Pferden": 8022,
      "gesteckt": 8023,
      "phon": 8024,
      "phys": 8025,
      "philosoph": 8026,
      "Gesprächs": 8027,
      "taten": 8028,
      "Gebär": 8029,
      "Flut": 8030,
      "lande": 8031,
      "paarmal": 8032,
      "verblü": 8033,
      "heiratet": 8034,
      "dürfte": 8035,
      "Berge": 8036,
      "Elend": 8037,
      "Mängel": 8038,
      "Trink": 8039,
      "Brücken": 8040,
      "Hühn": 8041,
      "ivet": 8042,
      "rechnen": 8043,
      "Archidiakonus": 8044,
      "äußerst": 8045,
      "äußeren": 8046,
      "Stoß": 8047,
      "Apothekers": 8048,
      "unverwand": 8049,
      "ausgezeichnet": 8050,
      "unglücklichen": 8051,
      "wichtiger": 8052,
      "Bären": 8053,
      "klagt": 8054,
      "herzlich": 8055,
      "geringschä": 8056,
      "blaue": 8057,
      "interessant": 8058,
      "tüchtig": 8059,
      "faltete": 8060,
      "schuhen": 8061,
      "marter": 8062,
      "geöffneten": 8063,
      "meisters": 8064,
      "Grün": 8065,
      "Werke": 8066,
      "Edward": 8067,
      "Kors": 8068,
      "daneben": 8069,
      "Verwaltung": 8070,
      "wachsenen": 8071,
      "Sonnenschein": 8072,
      "begleiten": 8073,
      "Heimat": 8074,
      "passend": 8075,
      "russische": 8076,
      "Ideen": 8077,
      "gestohlen": 8078,
      "geschmückt": 8079,
      "verwandelt": 8080,
      "Tauben": 8081,
      "Christus": 8082,
      "gott": 8083,
      "schimmernden": 8084,
      "Friedens": 8085,
      "glühenden": 8086,
      "Matwei": 8087,
      "Patienten": 8088,
      "gutmütig": 8089,
      "zarte": 8090,
      "Verteidigung": 8091,
      "Bourbon": 8092,
      "Annusch": 8093,
      "geheimen": 8094,
      "Grèveplatze": 8095,
      "Fröh": 8096,
      "gefordert": 8097,
      "Privat": 8098,
      "Innere": 8099,
      "Zerstreu": 8100,
      "völkerung": 8101,
      "beherrschen": 8102,
      "Reichtum": 8103,
      "Zuneigung": 8104,
      "beschäftigen": 8105,
      "Telegramm": 8106,
      "Jäger": 8107,
      "schluchzte": 8108,
      "Klarheit": 8109,
      "Aegypten": 8110,
      "Tanja": 8111,
      "Getreide": 8112,
      "Eshton": 8113,
      "Kinderzimmer": 8114,
      "Kanapee": 8115,
      "Tribüne": 8116,
      "Pilot": 8117,
      "behutsam": 8118,
      "sämtlich": 8119,
      "Fortschritte": 8120,
      "Mjachkaja": 8121,
      "Andeut": 8122,
      "Dein": 8123,
      "Dauer": 8124,
      "Danke": 8125,
      "Dächern": 8126,
      "Ep": 8127,
      "Ener": 8128,
      "Euere": 8129,
      "Gie": 8130,
      "Gond": 8131,
      "Holl": 8132,
      "Jun": 8133,
      "Kennt": 8134,
      "Mort": 8135,
      "Neid": 8136,
      "Oe": 8137,
      "Rob": 8138,
      "Wunden": 8139,
      "Zwie": 8140,
      "atem": 8141,
      "blu": 8142,
      "gheit": 8143,
      "goß": 8144,
      "kan": 8145,
      "kelte": 8146,
      "kreis": 8147,
      "lte": 8148,
      "lein": 8149,
      "litt": 8150,
      "linge": 8151,
      "meist": 8152,
      "matt": 8153,
      "pat": 8154,
      "rigen": 8155,
      "säule": 8156,
      "val": 8157,
      "winkel": 8158,
      "xt": 8159,
      "xus": 8160,
      "yr": 8161,
      "chse": 8162,
      "iefer": 8163,
      "ndung": 8164,
      "einher": 8165,
      "inten": 8166,
      "gemü": 8167,
      "gehorchte": 8168,
      "schäd": 8169,
      "zusagen": 8170,
      "unbesch": 8171,
      "unkten": 8172,
      "are": 8173,
      "arrte": 8174,
      "bereu": 8175,
      "beun": 8176,
      "bedarf": 8177,
      "behandelt": 8178,
      "befreien": 8179,
      "aufgeben": 8180,
      "irre": 8181,
      "urie": 8182,
      "bens": 8183,
      "mitgeteilt": 8184,
      "sab": 8185,
      "sation": 8186,
      "ungesch": 8187,
      "ausdrücken": 8188,
      "Schimmer": 8189,
      "weißer": 8190,
      "herant": 8191,
      "hergestellt": 8192,
      "allten": 8193,
      "überlegt": 8194,
      "hlten": 8195,
      "Erden": 8196,
      "Stall": 8197,
      "vorkommen": 8198,
      "vorsicht": 8199,
      "leichte": 8200,
      "chens": 8201,
      "iers": 8202,
      "atcher": 8203,
      "anziehen": 8204,
      "Gebrauch": 8205,
      "werben": 8206,
      "Ansehen": 8207,
      "spitze": 8208,
      "laßte": 8209,
      "Verlust": 8210,
      "Verfassung": 8211,
      "abwechselnd": 8212,
      "enthielt": 8213,
      "ganzem": 8214,
      "manchen": 8215,
      "mangel": 8216,
      "häus": 8217,
      "unternehmen": 8218,
      "halber": 8219,
      "halts": 8220,
      "Herd": 8221,
      "eilungen": 8222,
      "maler": 8223,
      "Ungehe": 8224,
      "ohnmächtig": 8225,
      "skeln": 8226,
      "ttet": 8227,
      "worüber": 8228,
      "gescha": 8229,
      "begreife": 8230,
      "gleichmäßig": 8231,
      "fragend": 8232,
      "Kos": 8233,
      "Vorschlag": 8234,
      "eigentlichen": 8235,
      "Rechen": 8236,
      "ths": 8237,
      "wandern": 8238,
      "Sonder": 8239,
      "folglich": 8240,
      "luft": 8241,
      "angekleidet": 8242,
      "führe": 8243,
      "äuscht": 8244,
      "innig": 8245,
      "getäuscht": 8246,
      "wahrhaft": 8247,
      "ergreifen": 8248,
      "Bock": 8249,
      "erzeu": 8250,
      "belä": 8251,
      "holung": 8252,
      "richtiger": 8253,
      "schnitten": 8254,
      "dreimal": 8255,
      "Gedankengang": 8256,
      "main": 8257,
      "Damals": 8258,
      "Geländer": 8259,
      "drücke": 8260,
      "hauer": 8261,
      "bleichen": 8262,
      "tiefes": 8263,
      "wissenschaft": 8264,
      "Schulden": 8265,
      "blenden": 8266,
      "gespielt": 8267,
      "vermied": 8268,
      "gewordenen": 8269,
      "Dienerin": 8270,
      "Straf": 8271,
      "Josef": 8272,
      "gekä": 8273,
      "Fußspitzen": 8274,
      "wohnten": 8275,
      "Grad": 8276,
      "Glücks": 8277,
      "Gemäl": 8278,
      "Herrenhause": 8279,
      "herrschaft": 8280,
      "Lebensweise": 8281,
      "Geburt": 8282,
      "horchen": 8283,
      "stoff": 8284,
      "Freundes": 8285,
      "kranken": 8286,
      "hauptsächlich": 8287,
      "Grundsätze": 8288,
      "gerecht": 8289,
      "Urtheil": 8290,
      "nöthig": 8291,
      "Gewehr": 8292,
      "nderung": 8293,
      "rathen": 8294,
      "entfernen": 8295,
      "langsamen": 8296,
      "Tageslicht": 8297,
      "ivi": 8298,
      "edel": 8299,
      "höchste": 8300,
      "Schreib": 8301,
      "lenkte": 8302,
      "andeur": 8303,
      "süßen": 8304,
      "kennengelernt": 8305,
      "lustigen": 8306,
      "zellan": 8307,
      "notwend": 8308,
      "meldete": 8309,
      "Hauptmanns": 8310,
      "Glaube": 8311,
      "wendend": 8312,
      "owzün": 8313,
      "falsch": 8314,
      "gemeinsamen": 8315,
      "zurückzuhalten": 8316,
      "erstaun": 8317,
      "behauptet": 8318,
      "Ärzte": 8319,
      "verdrie": 8320,
      "Korb": 8321,
      "Untersuchung": 8322,
      "prächtiger": 8323,
      "reizenden": 8324,
      "einigermaßen": 8325,
      "feucht": 8326,
      "quält": 8327,
      "ländischen": 8328,
      "Thurmes": 8329,
      "Offiziere": 8330,
      "kriechen": 8331,
      "Zeug": 8332,
      "Zeugen": 8333,
      "Scatcher": 8334,
      "körperlichen": 8335,
      "plaudern": 8336,
      "Donnerstag": 8337,
      "täuscht": 8338,
      "Erdboden": 8339,
      "vertraut": 8340,
      "Räder": 8341,
      "klatschen": 8342,
      "klatschte": 8343,
      "Fabrikant": 8344,
      "Kurz": 8345,
      "Zehn": 8346,
      "gestattete": 8347,
      "Schülerin": 8348,
      "Platt": 8349,
      "Fläschchen": 8350,
      "winkte": 8351,
      "polit": 8352,
      "Sattel": 8353,
      "mittl": 8354,
      "verhältnis": 8355,
      "Viertelstunde": 8356,
      "Turowzün": 8357,
      "Auseinandersetzung": 8358,
      "kniete": 8359,
      "Spanier": 8360,
      "erloschen": 8361,
      "Procur": 8362,
      "Profoß": 8363,
      "Gefährtin": 8364,
      "Twerskaja": 8365,
      "Piraten": 8366,
      "phantast": 8367,
      "Châteaupers": 8368,
      "bemächtigte": 8369,
      "Hippolyt": 8370,
      "Bekass": 8371,
      "Huckleberry": 8372,
      "Fröhlichkeit": 8373,
      "Scatcherd": 8374,
      "18": 8375,
      "BA": 8376,
      "Fal": 8377,
      "Hol": 8378,
      "Köpfen": 8379,
      "Linken": 8380,
      "Nü": 8381,
      "Neig": 8382,
      "Ohn": 8383,
      "Pant": 8384,
      "Rol": 8385,
      "Ring": 8386,
      "Rett": 8387,
      "Sar": 8388,
      "Sem": 8389,
      "Sach": 8390,
      "Töne": 8391,
      "Us": 8392,
      "amm": 8393,
      "blan": 8394,
      "cc": 8395,
      "cus": 8396,
      "feiner": 8397,
      "floß": 8398,
      "fließen": 8399,
      "fleisch": 8400,
      "fieber": 8401,
      "ggen": 8402,
      "gor": 8403,
      "gig": 8404,
      "gsam": 8405,
      "hum": 8406,
      "heilen": 8407,
      "list": 8408,
      "mind": 8409,
      "nn": 8410,
      "opp": 8411,
      "plo": 8412,
      "port": 8413,
      "plä": 8414,
      "tör": 8415,
      "twillen": 8416,
      "tauchte": 8417,
      "vre": 8418,
      "wski": 8419,
      "wöl": 8420,
      "zä": 8421,
      "ßjat": 8422,
      "öde": 8423,
      "erreichte": 8424,
      "eingeführt": 8425,
      "störte": 8426,
      "geprü": 8427,
      "geordnet": 8428,
      "derer": 8429,
      "dernd": 8430,
      "derartig": 8431,
      "schwand": 8432,
      "schmalen": 8433,
      "dach": 8434,
      "zuge": 8435,
      "zulassen": 8436,
      "genießen": 8437,
      "beug": 8438,
      "bezauber": 8439,
      "igst": 8440,
      "igam": 8441,
      "irte": 8442,
      "benutzte": 8443,
      "verfahren": 8444,
      "vertie": 8445,
      "verziehen": 8446,
      "vergleichen": 8447,
      "verlieh": 8448,
      "leun": 8449,
      "demü": 8450,
      "Scho": 8451,
      "Schicht": 8452,
      "umph": 8453,
      "überein": 8454,
      "Streifen": 8455,
      "Augu": 8456,
      "Anhän": 8457,
      "Anzeichen": 8458,
      "wirkt": 8459,
      "wirker": 8460,
      "log": 8461,
      "logen": 8462,
      "besa": 8463,
      "sper": 8464,
      "Verfü": 8465,
      "abak": 8466,
      "dule": 8467,
      "kostet": 8468,
      "machst": 8469,
      "manches": 8470,
      "unteren": 8471,
      "untersuchen": 8472,
      "unterhielten": 8473,
      "anderem": 8474,
      "Begeben": 8475,
      "Beweise": 8476,
      "Bevölkerung": 8477,
      "lautes": 8478,
      "malte": 8479,
      "Unzufriedenheit": 8480,
      "heiße": 8481,
      "zweifle": 8482,
      "geschossen": 8483,
      "geschieht": 8484,
      "Ingrimm": 8485,
      "drungen": 8486,
      "garten": 8487,
      "Kosten": 8488,
      "Alters": 8489,
      "Zeitungen": 8490,
      "Vorfall": 8491,
      "Regel": 8492,
      "Steuer": 8493,
      "nunmehr": 8494,
      "theilte": 8495,
      "Zuweilen": 8496,
      "Zucker": 8497,
      "Ausgaben": 8498,
      "Ausführung": 8499,
      "langweilen": 8500,
      "Grim": 8501,
      "lud": 8502,
      "angelegt": 8503,
      "scheuß": 8504,
      "äudes": 8505,
      "äufer": 8506,
      "Wirt": 8507,
      "ergrü": 8508,
      "Germain": 8509,
      "Betrü": 8510,
      "kewitsch": 8511,
      "Unterdessen": 8512,
      "ordentliche": 8513,
      "beschä": 8514,
      "irgendeinem": 8515,
      "ungezwungen": 8516,
      "kommandeur": 8517,
      "nüschew": 8518,
      "Umf": 8519,
      "glücklichen": 8520,
      "handlungen": 8521,
      "fallend": 8522,
      "trost": 8523,
      "Mark": 8524,
      "Qualen": 8525,
      "gehörigen": 8526,
      "Allmählich": 8527,
      "länge": 8528,
      "gekn": 8529,
      "Lié": 8530,
      "flam": 8531,
      "lebenden": 8532,
      "Gefühls": 8533,
      "schwarzer": 8534,
      "ränge": 8535,
      "Amy": 8536,
      "Müdigkeit": 8537,
      "anzuhören": 8538,
      "Klin": 8539,
      "Kleinen": 8540,
      "Dollys": 8541,
      "strenger": 8542,
      "hstone": 8543,
      "Haaren": 8544,
      "Bildnis": 8545,
      "Flor": 8546,
      "Iwanowitschs": 8547,
      "Begleitung": 8548,
      "Buches": 8549,
      "Deßjat": 8550,
      "Nächte": 8551,
      "Fehl": 8552,
      "sätzen": 8553,
      "Prinzen": 8554,
      "vorübergehen": 8555,
      "schlage": 8556,
      "unverändert": 8557,
      "armes": 8558,
      "furchtbarer": 8559,
      "ächtigen": 8560,
      "ähnliche": 8561,
      "noth": 8562,
      "Medi": 8563,
      "Burg": 8564,
      "Schaf": 8565,
      "interessieren": 8566,
      "Häuschen": 8567,
      "bedauern": 8568,
      "Thron": 8569,
      "schule": 8570,
      "finsterer": 8571,
      "finsteres": 8572,
      "verkauft": 8573,
      "treibt": 8574,
      "geistige": 8575,
      "treue": 8576,
      "Arbeiten": 8577,
      "infolgedessen": 8578,
      "Thräne": 8579,
      "persönliche": 8580,
      "Beinchen": 8581,
      "versteiner": 8582,
      "Postkut": 8583,
      "Stelldich": 8584,
      "Seitdem": 8585,
      "Kammerdiener": 8586,
      "körperliche": 8587,
      "veranlaßt": 8588,
      "gegenwärtigen": 8589,
      "Parkett": 8590,
      "Hindernisse": 8591,
      "silbernen": 8592,
      "zöger": 8593,
      "gereizt": 8594,
      "Universität": 8595,
      "Maßregeln": 8596,
      "gewährte": 8597,
      "schlank": 8598,
      "ißtrau": 8599,
      "farbigen": 8600,
      "musterte": 8601,
      "Strecke": 8602,
      "Kraw": 8603,
      "Predigt": 8604,
      "Bischofs": 8605,
      "vergoldeten": 8606,
      "Bemühungen": 8607,
      "Taschentuch": 8608,
      "prakt": 8609,
      "Entwicklung": 8610,
      "beliebt": 8611,
      "bezahlt": 8612,
      "Entschuldigung": 8613,
      "Universitätsviertel": 8614,
      "Janu": 8615,
      "Bedienerin": 8616,
      "Kollegen": 8617,
      "Lwow": 8618,
      "Engländerin": 8619,
      "Regimentskommandeur": 8620,
      "Northstone": 8621,
      "Porzellan": 8622,
      "glocke": 8623,
      "Handlungsweise": 8624,
      "Liebkosungen": 8625,
      "mühsam": 8626,
      "Gemeinde": 8627,
      "Tuschkewitsch": 8628,
      "Erleichterung": 8629,
      "Korsun": 8630,
      "Zerstreuung": 8631,
      "Energie": 8632,
      "Gondel": 8633,
      "Morton": 8634,
      "bereuen": 8635,
      "Kosnüschew": 8636,
      "Neigungen": 8637,
      "Roland": 8638,
      "Ath": 8639,
      "Ahnung": 8640,
      "Con": 8641,
      "Dir": 8642,
      "Eh": 8643,
      "Eier": 8644,
      "Flei": 8645,
      "Jem": 8646,
      "Kuh": 8647,
      "Mess": 8648,
      "Nimm": 8649,
      "Narr": 8650,
      "Obst": 8651,
      "R_": 8652,
      "Rus": 8653,
      "Sub": 8654,
      "Wänden": 8655,
      "Zittern": 8656,
      "_BA": 8657,
      "bange": 8658,
      "deines": 8659,
      "ftete": 8660,
      "griffen": 8661,
      "iten": 8662,
      "ius": 8663,
      "kunde": 8664,
      "lingen": 8665,
      "lanzen": 8666,
      "mod": 8667,
      "messen": 8668,
      "nom": 8669,
      "pünkt": 8670,
      "runde": 8671,
      "ritten": 8672,
      "trifft": 8673,
      "wund": 8674,
      "wischen": 8675,
      "yram": 8676,
      "erhö": 8677,
      "erfaßt": 8678,
      "chan": 8679,
      "ndern": 8680,
      "anhören": 8681,
      "anständig": 8682,
      "ancho": 8683,
      "ineinander": 8684,
      "stau": 8685,
      "stru": 8686,
      "strä": 8687,
      "stotter": 8688,
      "gehn": 8689,
      "geändert": 8690,
      "gepackt": 8691,
      "geeignet": 8692,
      "derartige": 8693,
      "schweiß": 8694,
      "ungewöhnlich": 8695,
      "unzähl": 8696,
      "unabhängig": 8697,
      "archen": 8698,
      "arzt": 8699,
      "ckeln": 8700,
      "bege": 8701,
      "betete": 8702,
      "beeren": 8703,
      "bewies": 8704,
      "beweist": 8705,
      "andrer": 8706,
      "benei": 8707,
      "verei": 8708,
      "vernehm": 8709,
      "verzier": 8710,
      "verdienen": 8711,
      "verhaßt": 8712,
      "redeten": 8713,
      "aushalten": 8714,
      "hmt": 8715,
      "Schemel": 8716,
      "umfaßte": 8717,
      "rosa": 8718,
      "wodurch": 8719,
      "ambur": 8720,
      "Stil": 8721,
      "Stick": 8722,
      "voran": 8723,
      "vorgefallen": 8724,
      "reib": 8725,
      "hege": 8726,
      "hinkommen": 8727,
      "stel": 8728,
      "pfiff": 8729,
      "pflaster": 8730,
      "Get": 8731,
      "Gebete": 8732,
      "gerathen": 8733,
      "Angriff": 8734,
      "Angesicht": 8735,
      "besinnen": 8736,
      "lagte": 8737,
      "Versch": 8738,
      "Verhaft": 8739,
      "gewaschen": 8740,
      "füllen": 8741,
      "abgesehen": 8742,
      "ruf": 8743,
      "riebe": 8744,
      "nah": 8745,
      "nackt": 8746,
      "durchnä": 8747,
      "durchbrochen": 8748,
      "wiedersehen": 8749,
      "räge": 8750,
      "Behör": 8751,
      "Beamte": 8752,
      "blicke": 8753,
      "geld": 8754,
      "Unwissen": 8755,
      "Unschuld": 8756,
      "worum": 8757,
      "geschichte": 8758,
      "geflü": 8759,
      "beginnt": 8760,
      "gleichgil": 8761,
      "fragt": 8762,
      "meinetwegen": 8763,
      "müth": 8764,
      "Handlung": 8765,
      "zurückgezogen": 8766,
      "fühlten": 8767,
      "Sprechen": 8768,
      "Rechten": 8769,
      "ersticken": 8770,
      "nisien": 8771,
      "Herrin": 8772,
      "Zuge": 8773,
      "Aussprache": 8774,
      "haltend": 8775,
      "unsrer": 8776,
      "Nachdruck": 8777,
      "Seht": 8778,
      "beteil": 8779,
      "verschä": 8780,
      "weißem": 8781,
      "brachen": 8782,
      "Lack": 8783,
      "Untergeben": 8784,
      "Haken": 8785,
      "frischer": 8786,
      "Bruch": 8787,
      "bestanden": 8788,
      "ruhige": 8789,
      "Leg": 8790,
      "Landau": 8791,
      "paßte": 8792,
      "Weder": 8793,
      "Wehe": 8794,
      "öffnet": 8795,
      "Rose": 8796,
      "erstens": 8797,
      "herauskommen": 8798,
      "künd": 8799,
      "Samm": 8800,
      "wärmer": 8801,
      "Überraschung": 8802,
      "Marqu": 8803,
      "Fensterschei": 8804,
      "sesa": 8805,
      "starker": 8806,
      "erschöpft": 8807,
      "fried": 8808,
      "Lisa": 8809,
      "Blume": 8810,
      "ränk": 8811,
      "Thürmen": 8812,
      "Tostes": 8813,
      "schmie": 8814,
      "schauten": 8815,
      "Zweige": 8816,
      "näherten": 8817,
      "fällen": 8818,
      "Glückes": 8819,
      "Schub": 8820,
      "jedermann": 8821,
      "Empfinden": 8822,
      "Gebiet": 8823,
      "Fast": 8824,
      "Faden": 8825,
      "stockte": 8826,
      "vernommen": 8827,
      "vernichtet": 8828,
      "achteten": 8829,
      "auszudrücken": 8830,
      "Schlitt": 8831,
      "wiederholten": 8832,
      "grad": 8833,
      "Genu": 8834,
      "Möglich": 8835,
      "hellte": 8836,
      "iven": 8837,
      "Nehmen": 8838,
      "höchstens": 8839,
      "sehet": 8840,
      "tags": 8841,
      "Lehrerinnen": 8842,
      "stage": 8843,
      "erfüllten": 8844,
      "Kleides": 8845,
      "toten": 8846,
      "klapp": 8847,
      "Doctor": 8848,
      "schlägen": 8849,
      "schlägt": 8850,
      "verteidigen": 8851,
      "wesenden": 8852,
      "Schaff": 8853,
      "falschen": 8854,
      "bedurfte": 8855,
      "größere": 8856,
      "Schüler": 8857,
      "Gudule": 8858,
      "Tatsache": 8859,
      "Süd": 8860,
      "Gründen": 8861,
      "mittags": 8862,
      "gewaltigen": 8863,
      "gewaltige": 8864,
      "Bestimm": 8865,
      "Bestätig": 8866,
      "leuchtet": 8867,
      "weisung": 8868,
      "flammen": 8869,
      "unangenehme": 8870,
      "Verstandes": 8871,
      "Speisen": 8872,
      "steif": 8873,
      "Papiere": 8874,
      "Gesetzes": 8875,
      "Millionen": 8876,
      "genügt": 8877,
      "heutzutage": 8878,
      "dünnen": 8879,
      "Stütze": 8880,
      "Gehirn": 8881,
      "drängen": 8882,
      "kriegen": 8883,
      "geheimnisvollen": 8884,
      "ältere": 8885,
      "Lampen": 8886,
      "Sympat": 8887,
      "künftigen": 8888,
      "strömen": 8889,
      "Prügel": 8890,
      "plauderte": 8891,
      "Demütig": 8892,
      "Prokuristen": 8893,
      "zögerte": 8894,
      "Grenze": 8895,
      "Fabrikanten": 8896,
      "Riesen": 8897,
      "befohlen": 8898,
      "Titor": 8899,
      "stoßend": 8900,
      "Bournisien": 8901,
      "trocknete": 8902,
      "----------------": 8903,
      "Grèveplatz": 8904,
      "Puppe": 8905,
      "Mitglied": 8906,
      "stundenlang": 8907,
      "Maschine": 8908,
      "wanderte": 8909,
      "schirm": 8910,
      "Betrachtung": 8911,
      "Gelehrten": 8912,
      "Zigarre": 8913,
      "besprechen": 8914,
      "Geschäfte": 8915,
      "Thaler": 8916,
      "angestren": 8917,
      "ehemal": 8918,
      "ungerecht": 8919,
      "Jahrhunderts": 8920,
      "Provinz": 8921,
      "Kehle": 8922,
      "aurier": 8923,
      "Lady": 8924,
      "Strumpfwirker": 8925,
      "Agnes": 8926,
      "Petrowna": 8927,
      "Canivet": 8928,
      "Mörder": 8929,
      "Unannehmlichkeiten": 8930,
      "Grete": 8931,
      "Gepäck": 8932,
      "steinerne": 8933,
      "Zufriedenheit": 8934,
      "Annuschka": 8935,
      "Usher": 8936,
      "Januar": 8937,
      "Gondelaurier": 8938,
      "_BAR_": 8939,
      "Bestätigung": 8940,
      "Sympathie": 8941,
      ");": 8942,
      "Ate": 8943,
      "Bie": 8944,
      "Bot": 8945,
      "Barm": 8946,
      "Ca": 8947,
      "Cor": 8948,
      "Drachen": 8949,
      "End": 8950,
      "Ferner": 8951,
      "Gabel": 8952,
      "Hute": 8953,
      "Hatte": 8954,
      "Jim": 8955,
      "Mot": 8956,
      "Nor": 8957,
      "Nasen": 8958,
      "Osten": 8959,
      "Pult": 8960,
      "Rad": 8961,
      "Ringe": 8962,
      "Sk": 8963,
      "Sil": 8964,
      "Tambur": 8965,
      "Wim": 8966,
      "Werst": 8967,
      "Wille": 8968,
      "Zoll": 8969,
      "ble": 8970,
      "bol": 8971,
      "donner": 8972,
      "falle": 8973,
      "flö": 8974,
      "fix": 8975,
      "gler": 8976,
      "gött": 8977,
      "ganges": 8978,
      "hitz": 8979,
      "ju": 8980,
      "klär": 8981,
      "knecht": 8982,
      "linke": 8983,
      "masse": 8984,
      "osten": 8985,
      "pul": 8986,
      "rrt": 8987,
      "sh": 8988,
      "thr": 8989,
      "tischen": 8990,
      "tische": 8991,
      "wnas": 8992,
      "wehrte": 8993,
      "zin": 8994,
      "ütsch": 8995,
      "ens": 8996,
      "erbie": 8997,
      "eingehen": 8998,
      "eingeschlafen": 8999,
      "ana": 9000,
      "inker": 9001,
      "aute": 9002,
      "stan": 9003,
      "stat": 9004,
      "städ": 9005,
      "sträu": 9006,
      "geduldig": 9007,
      "schänd": 9008,
      "schliefen": 9009,
      "unend": 9010,
      "unendlich": 9011,
      "unerwartet": 9012,
      "onte": 9013,
      "ckend": 9014,
      "achtze": 9015,
      "bewunder": 9016,
      "behandelte": 9017,
      "bediente": 9018,
      "aufgerichtet": 9019,
      "irten": 9020,
      "sozusagen": 9021,
      "mitteilen": 9022,
      "verlange": 9023,
      "versto": 9024,
      "verfolgen": 9025,
      "verhindern": 9026,
      "verhängnis": 9027,
      "deuten": 9028,
      "sack": 9029,
      "rechter": 9030,
      "wiegen": 9031,
      "ausführ": 9032,
      "ausgebreitet": 9033,
      "Schö": 9034,
      "Schur": 9035,
      "Schär": 9036,
      "Schöpf": 9037,
      "rats": 9038,
      "gesprä": 9039,
      "gesamte": 9040,
      "hattest": 9041,
      "nechte": 9042,
      "indet": 9043,
      "überzogen": 9044,
      "übertrieben": 9045,
      "hlung": 9046,
      "ampe": 9047,
      "Erleb": 9048,
      "Erfolge": 9049,
      "vorteil": 9050,
      "vorgekommen": 9051,
      "Autor": 9052,
      "ernie": 9053,
      "chtiger": 9054,
      "hingeben": 9055,
      "steh": 9056,
      "steten": 9057,
      "anzt": 9058,
      "Geheim": 9059,
      "gers": 9060,
      "gericht": 9061,
      "ution": 9062,
      "utigam": 9063,
      "besucht": 9064,
      "raum": 9065,
      "spru": 9066,
      "gewann": 9067,
      "füllten": 9068,
      "durchdringen": 9069,
      "endgültig": 9070,
      "unterschied": 9071,
      "Befinden": 9072,
      "Beding": 9073,
      "gelb": 9074,
      "ppeln": 9075,
      "worin": 9076,
      "geschle": 9077,
      "geschick": 9078,
      "geschmack": 9079,
      "gefr": 9080,
      "hierbei": 9081,
      "traft": 9082,
      "Spä": 9083,
      "Spuren": 9084,
      "bissen": 9085,
      "bisweilen": 9086,
      "dichte": 9087,
      "Jammer": 9088,
      "gebü": 9089,
      "geboten": 9090,
      "ärte": 9091,
      "weilt": 9092,
      "lügen": 9093,
      "Sofort": 9094,
      "Kopfkissen": 9095,
      "löste": 9096,
      "wenigsten": 9097,
      "glaubten": 9098,
      "Besorg": 9099,
      "Wirtin": 9100,
      "gesetzte": 9101,
      "inniger": 9102,
      "beträ": 9103,
      "verschlungen": 9104,
      "beschleun": 9105,
      "irgendeinen": 9106,
      "kasten": 9107,
      "Wappen": 9108,
      "Reims": 9109,
      "Waren": 9110,
      "Landes": 9111,
      "hinterlassen": 9112,
      "glückliche": 9113,
      "Höre": 9114,
      "vergrö": 9115,
      "Sage": 9116,
      "blatt": 9117,
      "blumen": 9118,
      "itterte": 9119,
      "gewordene": 9120,
      "dienten": 9121,
      "erschreckt": 9122,
      "gekrü": 9123,
      "entschlü": 9124,
      "schlen": 9125,
      "erwarteten": 9126,
      "anzufangen": 9127,
      "öpfte": 9128,
      "heimlichen": 9129,
      "ordneten": 9130,
      "gib": 9131,
      "unbekannten": 9132,
      "liegende": 9133,
      "rothen": 9134,
      "Noth": 9135,
      "arbeiteten": 9136,
      "freundlicher": 9137,
      "sprung": 9138,
      "Allee": 9139,
      "schweifen": 9140,
      "seltsamer": 9141,
      "Bündel": 9142,
      "grüne": 9143,
      "stimmen": 9144,
      "Philoso": 9145,
      "morgens": 9146,
      "Traur": 9147,
      "ausgeführt": 9148,
      "Laute": 9149,
      "dulden": 9150,
      "geheftet": 9151,
      "Lynn": 9152,
      "menschlicher": 9153,
      "sanften": 9154,
      "Durchaus": 9155,
      "Kleide": 9156,
      "klage": 9157,
      "herzigen": 9158,
      "melden": 9159,
      "Malerei": 9160,
      "flehen": 9161,
      "knir": 9162,
      "vertil": 9163,
      "entzücken": 9164,
      "Dorfes": 9165,
      "schütteln": 9166,
      "bedauerte": 9167,
      "Gruppen": 9168,
      "verknü": 9169,
      "Sünde": 9170,
      "ernstlich": 9171,
      "mißbill": 9172,
      "geistlichen": 9173,
      "erwähnte": 9174,
      "prüfte": 9175,
      "Kräften": 9176,
      "strahlend": 9177,
      "Chante": 9178,
      "moral": 9179,
      "Schnepfen": 9180,
      "Zusammentreffen": 9181,
      "Zusammenhang": 9182,
      "Ärmel": 9183,
      "Kirchendiener": 9184,
      "verdorben": 9185,
      "Festigkeit": 9186,
      "Helm": 9187,
      "Raben": 9188,
      "Vorteile": 9189,
      "englische": 9190,
      "Irr": 9191,
      "ymnas": 9192,
      "flammte": 9193,
      "Nachbarschaft": 9194,
      "fürchterliche": 9195,
      "Rauschen": 9196,
      "Begriffe": 9197,
      "Lügen": 9198,
      "Madam": 9199,
      "Tiere": 9200,
      "bewegten": 9201,
      "dunkler": 9202,
      "Bahnsteig": 9203,
      "Weibern": 9204,
      "Blättern": 9205,
      "unkeln": 9206,
      "Altar": 9207,
      "Kammerjung": 9208,
      "Prüfung": 9209,
      "Matron": 9210,
      "Mäher": 9211,
      "Angeklagte": 9212,
      "gebraucht": 9213,
      "ungeheuer": 9214,
      "Gewissens": 9215,
      "Schläfen": 9216,
      "jüngeren": 9217,
      "Habt": 9218,
      "händler": 9219,
      "Gouvernement": 9220,
      "Wärme": 9221,
      "Nachmittags": 9222,
      "Töchterchen": 9223,
      "kränken": 9224,
      "dumpfe": 9225,
      "Spitzbogen": 9226,
      "Gladi": 9227,
      "studieren": 9228,
      "überwinden": 9229,
      "Mitglieder": 9230,
      "Sprung": 9231,
      "Spaziergang": 9232,
      "Cousine": 9233,
      "Machot": 9234,
      "gegenseitig": 9235,
      "gothischen": 9236,
      "bewahrt": 9237,
[...]
