{
  "version": "1.0",
  "truncation": null,
  "padding": null,
  "added_tokens": [
    {
      "id": 0,
      "content": "<pad>",
      "single_word": false,
      "lstrip": false,
      "rstrip": false,
      "normalized": false,
      "special": true
    },
    {
      "id": 1,
      "content": "<sos>",
      "single_word": false,
      "lstrip": false,
      "rstrip": false,
      "normalized": false,
      "special": true
    },
    {
      "id": 2,
      "content": "<eos>",
      "single_word": false,
      "lstrip": false,
      "rstrip": false,
      "normalized": false,
      "special": true
    },
    {
      "id": 3,
      "content": "<unk>",
      "single_word": false,
      "lstrip": false,
      "rstrip": false,
      "normalized": false,
      "special": true
    }
  ],
  "normalizer": null,
  "pre_tokenizer": {
    "type": "Whitespace"
  },
  "post_processor": null,
  "decoder": null,
  "model": {
    "type": "BPE",
    "dropout": null,
    "unk_token": "<unk>",
    "continuing_subword_prefix": null,
    "end_of_word_suffix": null,
    "fuse_unk": false,
    "byte_fallback": false,
    "ignore_merges": false,
    "vocab": {
      "<pad>": 0,
      "<sos>": 1,
      "<eos>": 2,
      "<unk>": 3,
      "!": 4,
      "\"": 5,
      "&": 6,
      "'": 7,
      "(": 8,
      ")": 9,
      "*": 10,
      ",": 11,
      "-": 12,
      ".": 13,
      "2": 14,
      ":": 15,
      ";": 16,
      "?": 17,
      "A": 18,
      "B": 19,
      "C": 20,
      "D": 21,
      "E": 22,
      "F": 23,
      "G": 24,
      "H": 25,
      "I": 26,
      "J": 27,
      "K": 28,
      "L": 29,
      "M": 30,
      "N": 31,
      "O": 32,
      "P": 33,
      "Q": 34,
      "R": 35,
      "S": 36,
      "T": 37,
      "U": 38,
      "V": 39,
      "W": 40,
      "X": 41,
      "Y": 42,
      "[": 43,
      "]": 44,
      "_": 45,
      "a": 46,
      "b": 47,
      "c": 48,
      "d": 49,
      "e": 50,
      "f": 51,
      "g": 52,
      "h": 53,
      "i": 54,
      "j": 55,
      "k": 56,
      "l": 57,
      "m": 58,
      "n": 59,
      "o": 60,
      "p": 61,
      "q": 62,
      "r": 63,
      "s": 64,
      "t": 65,
      "u": 66,
      "v": 67,
      "w": 68,
      "x": 69,
      "y": 70,
      "z": 71,
      "he": 72,
      "an": 73,
      "the": 74,
      "in": 75,
      "re": 76,
      "ou": 77,
      "and": 78,
      "th": 79,
      "on": 80,
      "at": 81,
      "ed": 82,
      "er": 83,
      "to": 84,
      "as": 85,
      "ing": 86,
      "is": 87,
      "it": 88,
      "en": 89,
      "ll": 90,
      "om": 91,
      "ar": 92,
      "or": 93,
      "of": 94,
      "st": 95,
      "le": 96,
      "ow": 97,
      "ad": 98,
      "se": 99,
      "was": 100,
      "be": 101,
      "id": 102,
      "ck": 103,
      "im": 104,
      "that": 105,
      "ay": 106,
      "gh": 107,
      "es": 108,
      "his": 109,
      "you": 110,
      "ld": 111,
      "--": 112,
      "wi": 113,
      "ch": 114,
      "ly": 115,
      "ut": 116,
      "ver": 117,
      "Tom": 118,
      "un": 119,
      "al": 120,
      "with": 121,
      "The": 122,
      "ve": 123,
      "ent": 124,
      "ot": 125,
      "ght": 126,
      "ce": 127,
      "for": 128,
      "we": 129,
      ".\"": 130,
      "ir": 131,
      "bo": 132,
      "me": 133,
      "all": 134,
      "out": 135,
      "oo": 136,
      "him": 137,
      "ri": 138,
      "li": 139,
      "up": 140,
      "had": 141,
      "ould": 142,
      "wh": 143,
      "ke": 144,
      "sa": 145,
      "they": 146,
      "et": 147,
      "ag": 148,
      "red": 149,
      "ur": 150,
      "nd": 151,
      "ain": 152,
      "ne": 153,
      "ter": 154,
      "ro": 155,
      "so": 156,
      "ome": 157,
      "but": 158,
      "ion": 159,
      "fe": 160,
      "she": 161,
      "sh": 162,
      "her": 163,
      "one": 164,
      "ca": 165,
      "mo": 166,
      "now": 167,
      "He": 168,
      "ab": 169,
      "ther": 170,
      "way": 171,
      "said": 172,
      "de": 173,
      "uck": 174,
      "pe": 175,
      "no": 176,
      "ill": 177,
      "thing": 178,
      "not": 179,
      "su": 180,
      "do": 181,
      "if": 182,
      "la": 183,
      "any": 184,
      "ound": 185,
      "?\"": 186,
      "ha": 187,
      "ight": 188,
      "lo": 189,
      "would": 190,
      "Huck": 191,
      "te": 192,
      "ct": 193,
      "ra": 194,
      "ong": 195,
      "boy": 196,
      "whe": 197,
      "ard": 198,
      "pp": 199,
      "res": 200,
      "were": 201,
      "too": 202,
      "there": 203,
      "own": 204,
      "ind": 205,
      "ust": 206,
      "ant": 207,
      "!\"": 208,
      "hat": 209,
      "this": 210,
      "art": 211,
      "by": 212,
      "ever": 213,
      "ry": 214,
      "ast": 215,
      "sp": 216,
      "fo": 217,
      "con": 218,
      "il": 219,
      "der": 220,
      "fu": 221,
      "ous": 222,
      "see": 223,
      "sel": 224,
      "rom": 225,
      "tim": 226,
      "per": 227,
      "ood": 228,
      "am": 229,
      "rou": 230,
      "go": 231,
      "some": 232,
      "wor": 233,
      "then": 234,
      "don": 235,
      "les": 236,
      "did": 237,
      "could": 238,
      "day": 239,
      "time": 240,
      "ep": 241,
      "them": 242,
      "their": 243,
      "got": 244,
      "ho": 245,
      "from": 246,
      "ic": 247,
      "ook": 248,
      "self": 249,
      "It": 250,
      "ac": 251,
      "We": 252,
      "ge": 253,
      "com": 254,
      "us": 255,
      "ack": 256,
      "itt": 257,
      "down": 258,
      "other": 259,
      "hed": 260,
      "over": 261,
      "our": 262,
      "ex": 263,
      "qu": 264,
      "ess": 265,
      "ak": 266,
      "dy": 267,
      "Jo": 268,
      "about": 269,
      "know": 270,
      "dis": 271,
      "po": 272,
      "when": 273,
      "ake": 274,
      "um": 275,
      "whi": 276,
      "Joe": 277,
      "get": 278,
      "unt": 279,
      "But": 280,
      "again": 281,
      "upon": 282,
      "boys": 283,
      "gr": 284,
      "end": 285,
      "They": 286,
      "have": 287,
      "what": 288,
      "litt": 289,
      "ate": 290,
      "aw": 291,
      "ven": 292,
      "body": 293,
      "af": 294,
      "ation": 295,
      "been": 296,
      "little": 297,
      "bl": 298,
      "gl": 299,
      "sed": 300,
      "into": 301,
      "fore": 302,
      "more": 303,
      "my": 304,
      "never": 305,
      "ful": 306,
      "ig": 307,
      "pt": 308,
      "urn": 309,
      "just": 310,
      "wo": 311,
      "long": 312,
      "back": 313,
      "fa": 314,
      "look": 315,
      "man": 316,
      "came": 317,
      "And": 318,
      "come": 319,
      "Be": 320,
      "away": 321,
      "ive": 322,
      "ure": 323,
      "like": 324,
      "gre": 325,
      "night": 326,
      "ide": 327,
      "went": 328,
      "ick": 329,
      "beg": 330,
      "hand": 331,
      "ence": 332,
      "ently": 333,
      "new": 334,
      "ted": 335,
      "here": 336,
      "under": 337,
      "can": 338,
      "em": 339,
      "off": 340,
      "pped": 341,
      "No": 342,
      "old": 343,
      "str": 344,
      "who": 345,
      "Well": 346,
      "Oh": 347,
      "turn": 348,
      "ade": 349,
      "cky": 350,
      "ool": 351,
      "thou": 352,
      "right": 353,
      "every": 354,
      ",\"": 355,
      "ble": 356,
      "med": 357,
      "ple": 358,
      "say": 359,
      "ers": 360,
      "ish": 361,
      "light": 362,
      "el": 363,
      "pl": 364,
      "Becky": 365,
      "ey": 366,
      "good": 367,
      "ang": 368,
      "That": 369,
      "ved": 370,
      "himself": 371,
      "lly": 372,
      "age": 373,
      "In": 374,
      "are": 375,
      "ie": 376,
      "its": 377,
      "Then": 378,
      "sc": 379,
      "very": 380,
      "What": 381,
      "alk": 382,
      "began": 383,
      "ff": 384,
      "two": 385,
      "read": 386,
      "tell": 387,
      "clo": 388,
      "how": 389,
      "use": 390,
      "head": 391,
      "ree": 392,
      "your": 393,
      "less": 394,
      "pla": 395,
      "want": 396,
      "after": 397,
      "before": 398,
      "rough": 399,
      "sch": 400,
      "tri": 401,
      "through": 402,
      "where": 403,
      "might": 404,
      "heart": 405,
      "ity": 406,
      "Now": 407,
      "pres": 408,
      "wat": 409,
      "You": 410,
      "co": 411,
      "ious": 412,
      "only": 413,
      "ud": 414,
      "found": 415,
      "ied": 416,
      "made": 417,
      "pr": 418,
      "won": 419,
      "ars": 420,
      "There": 421,
      "hy": 422,
      "lt": 423,
      "rest": 424,
      "She": 425,
      "ite": 426,
      "let": 427,
      "school": 428,
      "bre": 429,
      "ink": 430,
      "bet": 431,
      "thought": 432,
      "ways": 433,
      "Sid": 434,
      "low": 435,
      "ten": 436,
      "ward": 437,
      "ings": 438,
      "took": 439,
      "pro": 440,
      "ren": 441,
      "ouse": 442,
      "ness": 443,
      "row": 444,
      "ine": 445,
      "ort": 446,
      "ach": 447,
      "bed": 448,
      "ber": 449,
      "cl": 450,
      "house": 451,
      "ire": 452,
      "reck": 453,
      "ark": 454,
      "around": 455,
      "able": 456,
      "mom": 457,
      "pa": 458,
      "sto": 459,
      "ance": 460,
      "will": 461,
      "most": 462,
      "last": 463,
      "talk": 464,
      "llow": 465,
      "ary": 466,
      "orn": 467,
      "moment": 468,
      "Why": 469,
      "ga": 470,
      "ice": 471,
      "spe": 472,
      "ret": 473,
      "still": 474,
      "reckon": 475,
      "ched": 476,
      "ru": 477,
      "ough": 478,
      "than": 479,
      "great": 480,
      "ting": 481,
      "take": 482,
      "ated": 483,
      "place": 484,
      "led": 485,
      "while": 486,
      "face": 487,
      "ment": 488,
      "mu": 489,
      "sat": 490,
      "ally": 491,
      "So": 492,
      "ap": 493,
      "always": 494,
      "which": 495,
      "dre": 496,
      "jun": 497,
      "tre": 498,
      "going": 499,
      "Po": 500,
      "along": 501,
      "oun": 502,
      "hal": 503,
      "once": 504,
      "enough": 505,
      "dead": 506,
      "ged": 507,
      "ies": 508,
      "till": 509,
      "ass": 510,
      "something": 511,
      "Injun": 512,
      "Yes": 513,
      "bu": 514,
      "ft": 515,
      "mind": 516,
      "side": 517,
      "vill": 518,
      "whis": 519,
      "hen": 520,
      "well": 521,
      "lie": 522,
      "such": 523,
      "dist": 524,
      "ily": 525,
      "ling": 526,
      "min": 527,
      "ped": 528,
      "sm": 529,
      "stoo": 530,
      "think": 531,
      "seemed": 532,
      "turned": 533,
      "home": 534,
      "put": 535,
      "much": 536,
      "gir": 537,
      "sle": 538,
      "ue": 539,
      "ul": 540,
      "vo": 541,
      "ving": 542,
      "fort": 543,
      "anything": 544,
      "work": 545,
      "ath": 546,
      "bro": 547,
      "cour": 548,
      "make": 549,
      "try": 550,
      "another": 551,
      "ened": 552,
      "stood": 553,
      "girl": 554,
      "even": 555,
      "find": 556,
      "si": 557,
      "wa": 558,
      "three": 559,
      "half": 560,
      "Aunt": 561,
      "ear": 562,
      "est": 563,
      "gra": 564,
      "lay": 565,
      "mis": 566,
      "int": 567,
      "ste": 568,
      "--\"": 569,
      "ung": 570,
      "cause": 571,
      "cre": 572,
      "part": 573,
      "sw": 574,
      "water": 575,
      "far": 576,
      "jo": 577,
      "mat": 578,
      "word": 579,
      "Polly": 580,
      "Mr": 581,
      "air": 582,
      "cc": 583,
      "cher": 584,
      "ran": 585,
      "arm": 586,
      "keep": 587,
      "happ": 588,
      "wouldn": 589,
      "ction": 590,
      "This": 591,
      "app": 592,
      "che": 593,
      "ced": 594,
      "may": 595,
      "ves": 596,
      "wn": 597,
      "village": 598,
      "Pot": 599,
      "When": 600,
      "aunt": 601,
      "des": 602,
      "ild": 603,
      "lad": 604,
      "ty": 605,
      "told": 606,
      "ise": 607,
      "because": 608,
      "door": 609,
      "eyes": 610,
      "Potter": 611,
      "done": 612,
      "fl": 613,
      "ps": 614,
      "sing": 615,
      "trou": 616,
      "vent": 617,
      "wind": 618,
      "white": 619,
      "fell": 620,
      "His": 621,
      "Har": 622,
      "cat": 623,
      "dr": 624,
      "give": 625,
      "men": 626,
      "pir": 627,
      "swe": 628,
      "sil": 629,
      "uff": 630,
      "without": 631,
      "didn": 632,
      "ared": 633,
      "each": 634,
      "hour": 635,
      "knew": 636,
      "must": 637,
      "ned": 638,
      "ok": 639,
      "xt": 640,
      "yer": 641,
      "soon": 642,
      "follow": 643,
      "Thatcher": 644,
      "den": 645,
      "iz": 646,
      "mid": 647,
      "sk": 648,
      "town": 649,
      "ished": 650,
      "ition": 651,
      "stand": 652,
      "start": 653,
      "next": 654,
      "nothing": 655,
      "things": 656,
      "wait": 657,
      "coun": 658,
      "dro": 659,
      "ered": 660,
      "gone": 661,
      "ring": 662,
      "set": 663,
      "child": 664,
      "ried": 665,
      "cave": 666,
      "Pres": 667,
      "bur": 668,
      "ces": 669,
      "fir": 670,
      "hard": 671,
      "wood": 672,
      "these": 673,
      "tor": 674,
      "anybody": 675,
      "world": 676,
      "awful": 677,
      "presently": 678,
      "sleep": 679,
      "All": 680,
      "hi": 681,
      "mar": 682,
      "op": 683,
      "iff": 684,
      "Harper": 685,
      "call": 686,
      "ef": 687,
      "ip": 688,
      "sound": 689,
      "ug": 690,
      "hear": 691,
      "ering": 692,
      "cked": 693,
      "mem": 694,
      "mean": 695,
      "saw": 696,
      "aking": 697,
      "looked": 698,
      "tried": 699,
      "If": 700,
      "dri": 701,
      "fast": 702,
      "morn": 703,
      "ob": 704,
      "occ": 705,
      "smo": 706,
      "war": 707,
      "iness": 708,
      "book": 709,
      "should": 710,
      "ign": 711,
      "better": 712,
      "dream": 713,
      "Presently": 714,
      "At": 715,
      "ser": 716,
      "tr": 717,
      "tain": 718,
      "toge": 719,
      "ses": 720,
      "idow": 721,
      "terest": 722,
      "hope": 723,
      "hands": 724,
      "morning": 725,
      "together": 726,
      "cu": 727,
      "fle": 728,
      "fac": 729,
      "hur": 730,
      "ls": 731,
      "late": 732,
      "interest": 733,
      "ase": 734,
      "feel": 735,
      "ached": 736,
      "comp": 737,
      "pos": 738,
      "poor": 739,
      "gave": 740,
      "minut": 741,
      "small": 742,
      "first": 743,
      "ame": 744,
      "bla": 745,
      "ile": 746,
      "mon": 747,
      "mas": 748,
      "att": 749,
      "cho": 750,
      "show": 751,
      "days": 752,
      "whole": 753,
      "maybe": 754,
      "Mary": 755,
      "Saw": 756,
      "act": 757,
      "hind": 758,
      "ife": 759,
      "land": 760,
      "mur": 761,
      "sn": 762,
      "sou": 763,
      "sup": 764,
      "wish": 765,
      "rem": 766,
      "being": 767,
      "felt": 768,
      "ER": 769,
      "br": 770,
      "fin": 771,
      "fall": 772,
      "fri": 773,
      "fire": 774,
      "tick": 775,
      "ash": 776,
      "ist": 777,
      "left": 778,
      "vered": 779,
      "sum": 780,
      "lost": 781,
      "spir": 782,
      "rought": 783,
      "udge": 784,
      "voice": 785,
      "silence": 786,
      "Sawyer": 787,
      "By": 788,
      "HA": 789,
      "cer": 790,
      "cit": 791,
      "cle": 792,
      "cur": 793,
      "cry": 794,
      "ired": 795,
      "many": 796,
      "ople": 797,
      "ta": 798,
      "ye": 799,
      "stant": 800,
      "ching": 801,
      "sho": 802,
      "oney": 803,
      "moved": 804,
      "eye": 805,
      "matter": 806,
      "master": 807,
      "TER": 808,
      "Who": 809,
      "brought": 810,
      "car": 811,
      "cir": 812,
      "cus": 813,
      "dark": 814,
      "ek": 815,
      "kn": 816,
      "money": 817,
      "pre": 818,
      "son": 819,
      "hel": 820,
      "heard": 821,
      "ones": 822,
      "ating": 823,
      "ised": 824,
      "isten": 825,
      "stre": 826,
      "behind": 827,
      "imp": 828,
      "almost": 829,
      "pered": 830,
      "fully": 831,
      "ump": 832,
      "looking": 833,
      "break": 834,
      "appe": 835,
      "trouble": 836,
      "window": 837,
      "followed": 838,
      "friend": 839,
      "CHA": 840,
      "How": 841,
      "PTER": 842,
      "ave": 843,
      "bit": 844,
      "cand": 845,
      "flo": 846,
      "hung": 847,
      "kill": 848,
      "pi": 849,
      "pas": 850,
      "ss": 851,
      "sign": 852,
      "tin": 853,
      "inn": 854,
      "ord": 855,
      "unk": 856,
      "board": 857,
      "same": 858,
      "care": 859,
      "sure": 860,
      "consc": 861,
      "iled": 862,
      "selves": 863,
      "getting": 864,
      "ground": 865,
      "whispered": 866,
      "course": 867,
      "grave": 868,
      "CHAPTER": 869,
      "bus": 870,
      "cr": 871,
      "cla": 872,
      "ect": 873,
      "gi": 874,
      "gen": 875,
      "lan": 876,
      "ng": 877,
      "rid": 878,
      "sor": 879,
      "sid": 880,
      "sion": 881,
      "tra": 882,
      "widow": 883,
      "reached": 884,
      "toward": 885,
      "asure": 886,
      "young": 887,
      "life": 888,
      "near": 889,
      "tem": 890,
      "full": 891,
      "Say": 892,
      "di": 893,
      "ience": 894,
      "listen": 895,
      "prom": 896,
      "ures": 897,
      "ased": 898,
      "stir": 899,
      "leber": 900,
      "seen": 901,
      "belie": 902,
      "und": 903,
      "week": 904,
      "shed": 905,
      "people": 906,
      "Huckleber": 907,
      "raw": 908,
      "themselves": 909,
      "breath": 910,
      "started": 911,
      "Huckleberry": 912,
      "Don": 913,
      "Judge": 914,
      "Sun": 915,
      "du": 916,
      "hid": 917,
      "name": 918,
      "pu": 919,
      "ping": 920,
      "pri": 921,
      "sin": 922,
      "ond": 923,
      "ature": 924,
      "sec": 925,
      "wash": 926,
      "river": 927,
      "feet": 928,
      "dered": 929,
      "noon": 930,
      "suff": 931,
      "tered": 932,
      "comfort": 933,
      "ations": 934,
      "grew": 935,
      "stopped": 936,
      "Mrs": 937,
      "ible": 938,
      "pan": 939,
      "round": 940,
      "som": 941,
      "ank": 942,
      "ange": 943,
      "ined": 944,
      "order": 945,
      "sear": 946,
      "few": 947,
      "deep": 948,
      "cted": 949,
      "bled": 950,
      "glad": 951,
      "everything": 952,
      "play": 953,
      "close": 954,
      "mighty": 955,
      "satis": 956,
      "open": 957,
      "knife": 958,
      "ace": 959,
      "bb": 960,
      "eas": 961,
      "fun": 962,
      "gro": 963,
      "has": 964,
      "iet": 965,
      "mer": 966,
      "sur": 967,
      "ught": 968,
      "yet": 969,
      "remem": 970,
      "itself": 971,
      "stay": 972,
      "advent": 973,
      "kept": 974,
      "urch": 975,
      "fect": 976,
      "law": 977,
      "times": 978,
      "used": 979,
      "else": 980,
      "ready": 981,
      "wanted": 982,
      "iously": 983,
      "treasure": 984,
      "children": 985,
      "candle": 986,
      "Ben": 987,
      "Every": 988,
      "bow": 989,
      "bout": 990,
      "bles": 991,
      "fr": 992,
      "fence": 993,
      "fool": 994,
      "gu": 995,
      "hum": 996,
      "ial": 997,
      "ither": 998,
      "lit": 999,
      "sy": 1000,
      "sent": 1001,
      "slow": 1002,
      "vis": 1003,
      "yard": 1004,
      "ze": 1005,
      "tho": 1006,
      "ask": 1007,
      "ster": 1008,
      "lear": 1009,
      "church": 1010,
      "vern": 1011,
      "boat": 1012,
      "lic": 1013,
      "aged": 1014,
      "room": 1015,
      "rose": 1016,
      "does": 1017,
      "ified": 1018,
      "quest": 1019,
      "until": 1020,
      "ended": 1021,
      "though": 1022,
      "anger": 1023,
      "clothe": 1024,
      "words": 1025,
      "ized": 1026,
      "high": 1027,
      "smoke": 1028,
      "Sunday": 1029,
      "As": 1030,
      "Th": 1031,
      "bar": 1032,
      "cri": 1033,
      "cro": 1034,
      "fam": 1035,
      "ging": 1036,
      "kind": 1037,
      "lat": 1038,
      "run": 1039,
      "rust": 1040,
      "shad": 1041,
      "sort": 1042,
      "ured": 1043,
      "instant": 1044,
      "eral": 1045,
      "aring": 1046,
      "why": 1047,
      "shall": 1048,
      "herself": 1049,
      "raid": 1050,
      "spic": 1051,
      "foot": 1052,
      "hold": 1053,
      "quick": 1054,
      "against": 1055,
      "strong": 1056,
      "broke": 1057,
      "help": 1058,
      "clothes": 1059,
      "Did": 1060,
      "Jim": 1061,
      "Muff": 1062,
      "cra": 1063,
      "dig": 1064,
      "fer": 1065,
      "five": 1066,
      "fish": 1067,
      "ger": 1068,
      "ili": 1069,
      "line": 1070,
      "ny": 1071,
      "pret": 1072,
      "ult": 1073,
      "wit": 1074,
      "reg": 1075,
      "tory": 1076,
      "step": 1077,
      "entered": 1078,
      "wel": 1079,
      "meant": 1080,
      "short": 1081,
      "sud": 1082,
      "aked": 1083,
      "covered": 1084,
      "pray": 1085,
      "rent": 1086,
      "ches": 1087,
      "company": 1088,
      "business": 1089,
      "Go": 1090,
      "Span": 1091,
      "big": 1092,
      "dres": 1093,
      "fted": 1094,
      "gs": 1095,
      "gri": 1096,
      "ming": 1097,
      "ning": 1098,
      "ost": 1099,
      "sit": 1100,
      "sun": 1101,
      "wr": 1102,
      "wall": 1103,
      "walk": 1104,
      "xed": 1105,
      "thy": 1106,
      "thous": 1107,
      "ates": 1108,
      "ory": 1109,
      "bey": 1110,
      "imes": 1111,
      "within": 1112,
      "both": 1113,
      "ets": 1114,
      "ained": 1115,
      "mother": 1116,
      "Here": 1117,
      "sub": 1118,
      "anyway": 1119,
      "tears": 1120,
      "pping": 1121,
      "ils": 1122,
      "Wel": 1123,
      "coming": 1124,
      "afraid": 1125,
      "whose": 1126,
      "wonder": 1127,
      "whisper": 1128,
      "minute": 1129,
      "appeared": 1130,
      "passed": 1131,
      "undred": 1132,
      "sudden": 1133,
      "thousand": 1134,
      "Look": 1135,
      "ben": 1136,
      "bad": 1137,
      "cess": 1138,
      "corn": 1139,
      "ds": 1140,
      "fur": 1141,
      "flow": 1142,
      "hor": 1143,
      "hundred": 1144,
      "len": 1145,
      "ma": 1146,
      "mn": 1147,
      "ms": 1148,
      "pat": 1149,
      "ror": 1150,
      "sen": 1151,
      "sir": 1152,
      "sli": 1153,
      "tree": 1154,
      "ued": 1155,
      "anc": 1156,
      "outh": 1157,
      "atur": 1158,
      "erable": 1159,
      "ason": 1160,
      "add": 1161,
      "aded": 1162,
      "cks": 1163,
      "als": 1164,
      "alone": 1165,
      "box": 1166,
      "etimes": 1167,
      "agged": 1168,
      "ters": 1169,
      "ions": 1170,
      "fered": 1171,
      "shman": 1172,
      "capt": 1173,
      "dev": 1174,
      "pect": 1175,
      "among": 1176,
      "couldn": 1177,
      "talking": 1178,
      "distance": 1179,
      "lady": 1180,
      "dropped": 1181,
      "burst": 1182,
      "woods": 1183,
      "occur": 1184,
      "breakfast": 1185,
      "pict": 1186,
      "since": 1187,
      "Welshman": 1188,
      "Do": 1189,
      "II": 1190,
      "cor": 1191,
      "dread": 1192,
      "fre": 1193,
      "fet": 1194,
      "hill": 1195,
      "ken": 1196,
      "mouth": 1197,
      "pin": 1198,
      "par": 1199,
      "pie": 1200,
      "tou": 1201,
      "ton": 1202,
      "tle": 1203,
      "twi": 1204,
      "wom": 1205,
      "hea": 1206,
      "thered": 1207,
      "resu": 1208,
      "ery": 1209,
      "iss": 1210,
      "lled": 1211,
      "lling": 1212,
      "stri": 1213,
      "lead": 1214,
      "bear": 1215,
      "best": 1216,
      "ided": 1217,
      "chance": 1218,
      "alley": 1219,
      "rious": 1220,
      "key": 1221,
      "sol": 1222,
      "shout": 1223,
      "deed": 1224,
      "notic": 1225,
      "spring": 1226,
      "contin": 1227,
      "grat": 1228,
      "blue": 1229,
      "saying": 1230,
      "watch": 1231,
      "drew": 1232,
      "girls": 1233,
      "joy": 1234,
      "arms": 1235,
      "happy": 1236,
      "called": 1237,
      "showed": 1238,
      "soul": 1239,
      "believe": 1240,
      "secret": 1241,
      "those": 1242,
      "beyond": 1243,
      "!--": 1244,
      "Af": 1245,
      "Finn": 1246,
      "Lord": 1247,
      "My": 1248,
      "ctor": 1249,
      "dou": 1250,
      "died": 1251,
      "fing": 1252,
      "fill": 1253,
      "grou": 1254,
      "hunt": 1255,
      "lar": 1256,
      "mp": 1257,
      "pick": 1258,
      "pass": 1259,
      "rang": 1260,
      "ts": 1261,
      "yes": 1262,
      "zed": 1263,
      "inter": 1264,
      "thre": 1265,
      "ison": 1266,
      "ister": 1267,
      "leave": 1268,
      "adm": 1269,
      "cket": 1270,
      "utter": 1271,
      "vel": 1272,
      "form": 1273,
      "allow": 1274,
      "peace": 1275,
      "dog": 1276,
      "ress": 1277,
      "conf": 1278,
      "exp": 1279,
      "idea": 1280,
      "coll": 1281,
      "broken": 1282,
      "stepped": 1283,
      "pirate": 1284,
      "midnight": 1285,
      "standing": 1286,
      "minutes": 1287,
      "black": 1288,
      "attent": 1289,
      "certain": 1290,
      "human": 1291,
      "After": 1292,
      "..": 1293,
      "Dou": 1294,
      "abo": 1295,
      "ba": 1296,
      "bly": 1297,
      "bru": 1298,
      "dle": 1299,
      "die": 1300,
      "drow": 1301,
      "ev": 1302,
      "four": 1303,
      "fine": 1304,
      "gay": 1305,
      "iv": 1306,
      "ier": 1307,
      "ient": 1308,
      "king": 1309,
      "mark": 1310,
      "ol": 1311,
      "ude": 1312,
      "usu": 1313,
      "uous": 1314,
      "vag": 1315,
      "wart": 1316,
      "held": 1317,
      "ination": 1318,
      "real": 1319,
      "toe": 1320,
      "oft": 1321,
      "least": 1322,
      "bell": 1323,
      "char": 1324,
      "ution": 1325,
      "entire": 1326,
      "ceed": 1327,
      "hadn": 1328,
      "rock": 1329,
      "fee": 1330,
      "ably": 1331,
      "deli": 1332,
      "doll": 1333,
      "iffe": 1334,
      "cond": 1335,
      "excit": 1336,
      "akes": 1337,
      "pocket": 1338,
      "fair": 1339,
      "news": 1340,
      "struck": 1341,
      "strug": 1342,
      "everybody": 1343,
      "says": 1344,
      "auntie": 1345,
      "pirates": 1346,
      "skiff": 1347,
      "hardly": 1348,
      "warn": 1349,
      "possi": 1350,
      "choly": 1351,
      "snat": 1352,
      "spirit": 1353,
      "circ": 1354,
      "conscience": 1355,
      "claim": 1356,
      "given": 1357,
      "remember": 1358,
      "adventure": 1359,
      "ferry": 1360,
      "occurred": 1361,
      "continued": 1362,
      "above": 1363,
      "\"--": 1364,
      "Just": 1365,
      "Let": 1366,
      "On": 1367,
      "Pet": 1368,
      "Some": 1369,
      "Satur": 1370,
      "ais": 1371,
      "bor": 1372,
      "bound": 1373,
      "cou": 1374,
      "cut": 1375,
      "cent": 1376,
      "dum": 1377,
      "eat": 1378,
      "fight": 1379,
      "gar": 1380,
      "gers": 1381,
      "hide": 1382,
      "hang": 1383,
      "igh": 1384,
      "iard": 1385,
      "jack": 1386,
      "ject": 1387,
      "lab": 1388,
      "mi": 1389,
      "mus": 1390,
      "none": 1391,
      "nted": 1392,
      "opp": 1393,
      "pow": 1394,
      "pain": 1395,
      "rot": 1396,
      "sand": 1397,
      "ually": 1398,
      "vy": 1399,
      "vast": 1400,
      "wand": 1401,
      "ances": 1402,
      "inted": 1403,
      "thr": 1404,
      "thunder": 1405,
      "tom": 1406,
      "top": 1407,
      "ited": 1408,
      "itude": 1409,
      "stret": 1410,
      "imag": 1411,
      "wild": 1412,
      "ween": 1413,
      "weak": 1414,
      "melan": 1415,
      "lick": 1416,
      "live": 1417,
      "ago": 1418,
      "uring": 1419,
      "shook": 1420,
      "death": 1421,
      "nobody": 1422,
      "doctor": 1423,
      "hair": 1424,
      "raft": 1425,
      "owned": 1426,
      "spread": 1427,
      "acher": 1428,
      "comes": 1429,
      "grow": 1430,
      "blood": 1431,
      "lights": 1432,
      "hearted": 1433,
      "between": 1434,
      "rence": 1435,
      "clim": 1436,
      "spect": 1437,
      "speak": 1438,
      "bug": 1439,
      "ular": 1440,
      "steal": 1441,
      "happened": 1442,
      "whitewash": 1443,
      "middle": 1444,
      "count": 1445,
      "sermon": 1446,
      "cuz": 1447,
      "faces": 1448,
      "super": 1449,
      "street": 1450,
      "floor": 1451,
      "sides": 1452,
      "listened": 1453,
      "surpr": 1454,
      "learn": 1455,
      "cross": 1456,
      "steps": 1457,
      "Spaniard": 1458,
      "women": 1459,
      "noticed": 1460,
      "group": 1461,
      "attention": 1462,
      "melancholy": 1463,
      "\"'": 1464,
      "\";": 1465,
      "Amy": 1466,
      "For": 1467,
      "Is": 1468,
      "Sh": 1469,
      "Two": 1470,
      "XX": 1471,
      "ather": 1472,
      "awhile": 1473,
      "bil": 1474,
      "cast": 1475,
      "cold": 1476,
      "dire": 1477,
      "draw": 1478,
      "danger": 1479,
      "fly": 1480,
      "gle": 1481,
      "glo": 1482,
      "hu": 1483,
      "kne": 1484,
      "lu": 1485,
      "lim": 1486,
      "luck": 1487,
      "mit": 1488,
      "main": 1489,
      "mile": 1490,
      "makes": 1491,
      "ner": 1492,
      "nice": 1493,
      "os": 1494,
      "pet": 1495,
      "sla": 1496,
      "squ": 1497,
      "tong": 1498,
      "twent": 1499,
      "tru": 1500,
      "ans": 1501,
      "aned": 1502,
      "anced": 1503,
      "indeed": 1504,
      "reason": 1505,
      "resol": 1506,
      "thir": 1507,
      "thread": 1508,
      "ens": 1509,
      "stair": 1510,
      "stared": 1511,
      "lemn": 1512,
      "seized": 1513,
      "below": 1514,
      "ident": 1515,
      "esca": 1516,
      "you_": 1517,
      "agre": 1518,
      "rob": 1519,
      "solemn": 1520,
      "shud": 1521,
      "camp": 1522,
      "doing": 1523,
      "antic": 1524,
      "spot": 1525,
      "somebody": 1526,
      "itting": 1527,
      "discovered": 1528,
      "venge": 1529,
      "ement": 1530,
      "lighted": 1531,
      "present": 1532,
      "trem": 1533,
      "trying": 1534,
      "six": 1535,
      "stead": 1536,
      "swim": 1537,
      "effort": 1538,
      "effect": 1539,
      "remark": 1540,
      "finally": 1541,
      "crying": 1542,
      "years": 1543,
      "shore": 1544,
      "carry": 1545,
      "comfortable": 1546,
      "easy": 1547,
      "ughter": 1548,
      "cript": 1549,
      "pretty": 1550,
      "suddenly": 1551,
      "filled": 1552,
      "usual": 1553,
      "circum": 1554,
      "couple": 1555,
      "direction": 1556,
      "tongue": 1557,
      "twenty": 1558,
      "Bo": 1559,
      "Come": 1560,
      "Frid": 1561,
      "Ro": 1562,
      "TH": 1563,
      "_you_": 1564,
      "bt": 1565,
      "bot": 1566,
      "dim": 1567,
      "det": 1568,
      "ele": 1569,
      "either": 1570,
      "fain": 1571,
      "free": 1572,
      "fied": 1573,
      "hit": 1574,
      "jud": 1575,
      "ked": 1576,
      "kno": 1577,
      "making": 1578,
      "nam": 1579,
      "ph": 1580,
      "prou": 1581,
      "sim": 1582,
      "ssed": 1583,
      "sitting": 1584,
      "t_": 1585,
      "tied": 1586,
      "wide": 1587,
      "wished": 1588,
      "inc": 1589,
      "ins": 1590,
      "reve": 1591,
      "ont": 1592,
      "ats": 1593,
      "asle": 1594,
      "island": 1595,
      "arp": 1596,
      "stra": 1597,
      "ghost": 1598,
      "aled": 1599,
      "forth": 1600,
      "irt": 1601,
      "lifted": 1602,
      "need": 1603,
      "tering": 1604,
      "road": 1605,
      "fear": 1606,
      "dec": 1607,
      "suf": 1608,
      "sprang": 1609,
      "seem": 1610,
      "person": 1611,
      "hole": 1612,
      "account": 1613,
      "comr": 1614,
      "expect": 1615,
      "quar": 1616,
      "quiet": 1617,
      "aken": 1618,
      "point": 1619,
      "grand": 1620,
      "grate": 1621,
      "ending": 1622,
      "bling": 1623,
      "glas": 1624,
      "myster": 1625,
      "plain": 1626,
      "ield": 1627,
      "clock": 1628,
      "closed": 1629,
      "heads": 1630,
      "yourself": 1631,
      "afternoon": 1632,
      "watched": 1633,
      "wondered": 1634,
      "talked": 1635,
      "gathered": 1636,
      "minister": 1637,
      "sigh": 1638,
      "parted": 1639,
      "partic": 1640,
      "appo": 1641,
      "lads": 1642,
      "drop": 1643,
      "occas": 1644,
      "summer": 1645,
      "circus": 1646,
      "stream": 1647,
      "sorrow": 1648,
      "tempt": 1649,
      "promised": 1650,
      "suffering": 1651,
      "sometimes": 1652,
      "later": 1653,
      "shadow": 1654,
      "dressed": 1655,
      "corner": 1656,
      "piece": 1657,
      "doubt": 1658,
      "explo": 1659,
      "Saturday": 1660,
      "jacket": 1661,
      "wandered": 1662,
      "Friday": 1663,
      "asleep": 1664,
      "Al": 1665,
      "Bla": 1666,
      "Of": 1667,
      "One": 1668,
      "St": 1669,
      "TO": 1670,
      "Will": 1671,
      "Where": 1672,
      "aut": 1673,
      "burn": 1674,
      "bank": 1675,
      "blic": 1676,
      "crow": 1677,
      "da": 1678,
      "ee": 1679,
      "fla": 1680,
      "gn": 1681,
      "gth": 1682,
      "hot": 1683,
      "hone": 1684,
      "ith": 1685,
      "ks": 1686,
      "mum": 1687,
      "nor": 1688,
      "pon": 1689,
      "pup": 1690,
      "pity": 1691,
      "pul": 1692,
      "rag": 1693,
      "sad": 1694,
      "sick": 1695,
      "soft": 1696,
      "tent": 1697,
      "taking": 1698,
      "tired": 1699,
      "van": 1700,
      "val": 1701,
      "year": 1702,
      "zy": 1703,
      "heel": 1704,
      "anx": 1705,
      "ines": 1706,
      "rel": 1707,
      "return": 1708,
      "relie": 1709,
      "refle": 1710,
      "revenge": 1711,
      "ought": 1712,
      "anded": 1713,
      "ony": 1714,
      "omas": 1715,
      "stick": 1716,
      "beet": 1717,
      "beaut": 1718,
      "ime": 1719,
      "chie": 1720,
      "utiously": 1721,
      "also": 1722,
      "ote": 1723,
      "ots": 1724,
      "ceased": 1725,
      "met": 1726,
      "lips": 1727,
      "safe": 1728,
      "ages": 1729,
      "sharp": 1730,
      "cautiously": 1731,
      "moon": 1732,
      "move": 1733,
      "nose": 1734,
      "succ": 1735,
      "suspic": 1736,
      "laid": 1737,
      "having": 1738,
      "log": 1739,
      "love": 1740,
      "rather": 1741,
      "tooth": 1742,
      "tools": 1743,
      "hate": 1744,
      "perfect": 1745,
      "worth": 1746,
      "daylight": 1747,
      "hop": 1748,
      "comm": 1749,
      "itted": 1750,
      "exer": 1751,
      "exact": 1752,
      "exclaim": 1753,
      "known": 1754,
      "disc": 1755,
      "dism": 1756,
      "pose": 1757,
      "gled": 1758,
      "gling": 1759,
      "glanced": 1760,
      "wore": 1761,
      "pleas": 1762,
      "scar": 1763,
      "lessly": 1764,
      "places": 1765,
      "trifle": 1766,
      "distress": 1767,
      "thinking": 1768,
      "slept": 1769,
      "court": 1770,
      "crept": 1771,
      "hours": 1772,
      "itions": 1773,
      "waited": 1774,
      "murder": 1775,
      "finished": 1776,
      "tickets": 1777,
      "clean": 1778,
      "tavern": 1779,
      "carried": 1780,
      "friends": 1781,
      "weeks": 1782,
      "iety": 1783,
      "front": 1784,
      "yards": 1785,
      "question": 1786,
      "Thomas": 1787,
      "sense": 1788,
      "added": 1789,
      "devil": 1790,
      "fetch": 1791,
      "result": 1792,
      "large": 1793,
      "Douglas": 1794,
      "dollars": 1795,
      "ifferent": 1796,
      "Only": 1797,
      "miles": 1798,
      "power": 1799,
      "gloom": 1800,
      "agreed": 1801,
      "circumst": 1802,
      "Rogers": 1803,
      "names": 1804,
      "straight": 1805,
      "crowd": 1806,
      "honest": 1807,
      "beetle": 1808,
      "chief": 1809,
      "Good": 1810,
      "Ho": 1811,
      "Je": 1812,
      "Ple": 1813,
      "ail": 1814,
      "bs": 1815,
      "bent": 1816,
      "bright": 1817,
      "bare": 1818,
      "bark": 1819,
      "bran": 1820,
      "cal": 1821,
      "cried": 1822,
      "ech": 1823,
      "ears": 1824,
      "fi": 1825,
      "fif": 1826,
      "fting": 1827,
      "git": 1828,
      "ges": 1829,
      "ived": 1830,
      "ju": 1831,
      "lid": 1832,
      "lone": 1833,
      "mour": 1834,
      "nig": 1835,
      "oke": 1836,
      "pun": 1837,
      "port": 1838,
      "sne": 1839,
      "sight": 1840,
      "sive": 1841,
      "simp": 1842,
      "sank": 1843,
      "tran": 1844,
      "vic": 1845,
      "ws": 1846,
      "wed": 1847,
      "ying": 1848,
      "answ": 1849,
      "theless": 1850,
      "rer": 1851,
      "refu": 1852,
      "towel": 1853,
      "ising": 1854,
      "ises": 1855,
      "ities": 1856,
      "ene": 1857,
      "arri": 1858,
      "state": 1859,
      "lea": 1860,
      "legs": 1861,
      "owing": 1862,
      "ading": 1863,
      "separ": 1864,
      "became": 1865,
      "besides": 1866,
      "idence": 1867,
      "verses": 1868,
      "alth": 1869,
      "enter": 1870,
      "ceived": 1871,
      "forgot": 1872,
      "wear": 1873,
      "iring": 1874,
      "bother": 1875,
      "rich": 1876,
      "liar": 1877,
      "urbed": 1878,
      "tern": 1879,
      "shut": 1880,
      "cared": 1881,
      "moving": 1882,
      "note": 1883,
      "notice": 1884,
      "iful": 1885,
      "haps": 1886,
      "tear": 1887,
      "test": 1888,
      "raised": 1889,
      "spl": 1890,
      "conside": 1891,
      "concer": 1892,
      "consid": 1893,
      "worn": 1894,
      "dono": 1895,
      "gest": 1896,
      "comple": 1897,
      "umber": 1898,
      "gray": 1899,
      "endent": 1900,
      "forest": 1901,
      "forever": 1902,
      "nevertheless": 1903,
      "pty": 1904,
      "fact": 1905,
      "begin": 1906,
      "empty": 1907,
      "Nothing": 1908,
      "plan": 1909,
      "prison": 1910,
      "proceed": 1911,
      "clay": 1912,
      "path": 1913,
      "pause": 1914,
      "stop": 1915,
      "speech": 1916,
      "ments": 1917,
      "trees": 1918,
      "Poor": 1919,
      "bushe": 1920,
      "disturbed": 1921,
      "brother": 1922,
      "cheer": 1923,
      "catch": 1924,
      "waiting": 1925,
      "country": 1926,
      "hurt": 1927,
      "feeling": 1928,
      "supper": 1929,
      "remained": 1930,
      "spirits": 1931,
      "darkness": 1932,
      "conscious": 1933,
      "gener": 1934,
      "general": 1935,
      "public": 1936,
      "priv": 1937,
      "satisfied": 1938,
      "funeral": 1939,
      "lawyer": 1940,
      "asked": 1941,
      "famili": 1942,
      "walked": 1943,
      "further": 1944,
      "ancing": 1945,
      "shouted": 1946,
      "gratitude": 1947,
      "threw": 1948,
      "brush": 1949,
      "entirely": 1950,
      "ferryboat": 1951,
      "dumb": 1952,
      "rotten": 1953,
      "surprise": 1954,
      "knees": 1955,
      "grateful": 1956,
      "success": 1957,
      "exclaimed": 1958,
      "Please": 1959,
      "considered": 1960,
      ".]": 1961,
      "Any": 1962,
      "Bible": 1963,
      "Con": 1964,
      "Have": 1965,
      "Mill": 1966,
      "Tem": 1967,
      "Wal": 1968,
      "Widow": 1969,
      "_him": 1970,
      "_will": 1971,
      "au": 1972,
      "aven": 1973,
      "aud": 1974,
      "cy": 1975,
      "cord": 1976,
      "ding": 1977,
      "during": 1978,
      "ell": 1979,
      "fred": 1980,
      "fright": 1981,
      "fash": 1982,
      "gent": 1983,
      "hig": 1984,
      "iver": 1985,
      "ike": 1986,
      "kis": 1987,
      "kit": 1988,
      "kite": 1989,
      "nature": 1990,
      "pse": 1991,
      "pal": 1992,
      "pic": 1993,
      "ray": 1994,
      "sno": 1995,
      "tit": 1996,
      "tack": 1997,
      "taken": 1998,
      "ull": 1999,
      "ugh": 2000,
      "udy": 2001,
      "var": 2002,
      "vant": 2003,
      "wing": 2004,
      "wise": 2005,
      "yield": 2006,
      "zen": 2007,
      "hero": 2008,
      "answe": 2009,
      "thed": 2010,
      "rep": 2011,
      "reco": 2012,
      "oured": 2013,
      "thor": 2014,
      "eng": 2015,
      "arrow": 2016,
      "ordy": 2017,
      "offered": 2018,
      "stal": 2019,
      "stro": 2020,
      "stone": 2021,
      "ads": 2022,
      "adually": 2023,
      "sem": 2024,
      "seat": 2025,
      "second": 2026,
      "wasn": 2027,
      "bered": 2028,
      "becuz": 2029,
      "esday": 2030,
      "chat": 2031,
      "chap": 2032,
      "change": 2033,
      "lying": 2034,
      "unity": 2035,
      "cely": 2036,
      "cept": 2037,
      "forget": 2038,
      "forward": 2039,
      "iron": 2040,
      "whoo": 2041,
      "neigh": 2042,
      "terror": 2043,
      "roof": 2044,
      "fellow": 2045,
      "shot": 2046,
      "absor": 2047,
      "deaf": 2048,
      "ific": 2049,
      "laugh": 2050,
      "Hucky": 2051,
      "teacher": 2052,
      "arded": 2053,
      "therefore": 2054,
      "contem": 2055,
      "conspic": 2056,
      "ilt": 2057,
      "worse": 2058,
      "eping": 2059,
      "ical": 2060,
      "compos": 2061,
      "disappeared": 2062,
      "posed": 2063,
      "whipped": 2064,
      "grown": 2065,
      "glass": 2066,
      "longer": 2067,
      "failed": 2068,
      "strain": 2069,
      "strange": 2070,
      "stranger": 2071,
      "elbow": 2072,
      "aren": 2073,
      "however": 2074,
      "placed": 2075,
      "pressed": 2076,
      "breed": 2077,
      "proper": 2078,
      "paper": 2079,
      "story": 2080,
      "stillness": 2081,
      "ruin": 2082,
      "evening": 2083,
      "creature": 2084,
      "joined": 2085,
      "troubles": 2086,
      "bury": 2087,
      "dreams": 2088,
      "flew": 2089,
      "factory": 2090,
      "interested": 2091,
      "compan": 2092,
      "blame": 2093,
      "citiz": 2094,
      "tale": 2095,
      "yellow": 2096,
      "prec": 2097,
      "hungry": 2098,
      "pipe": 2099,
      "passa": 2100,
      "nearly": 2101,
      "listening": 2102,
      "stirred": 2103,
      "believed": 2104,
      "suffer": 2105,
      "searched": 2106,
      "satisfactory": 2107,
      "laws": 2108,
      "crack": 2109,
      "shortly": 2110,
      "grief": 2111,
      "fresh": 2112,
      "twice": 2113,
      "collect": 2114,
      "bacon": 2115,
      "vague": 2116,
      "delivered": 2117,
      "excitement": 2118,
      "snatched": 2119,
      "spectac": 2120,
      "hush": 2121,
      "escaped": 2122,
      "simple": 2123,
      "ghosts": 2124,
      "particular": 2125,
      "occasion": 2126,
      "Alfred": 2127,
      "TOM": 2128,
      "heels": 2129,
      "Jeff": 2130,
      "nigger": 2131,
      "simply": 2132,
      "answer": 2133,
      "arrived": 2134,
      "bushes": 2135,
      "familiar": 2136,
      "Miller": 2137,
      "Walters": 2138,
      "_him_": 2139,
      "_will_": 2140,
      "fashion": 2141,
      "picn": 2142,
      "answered": 2143,
      "neighbor": 2144,
      "contempl": 2145,
      "conspicuous": 2146,
      "?--": 2147,
      "Can": 2148,
      "Card": 2149,
      "De": 2150,
      "Hill": 2151,
      "Jones": 2152,
      "Law": 2153,
      "Mo": 2154,
      "Not": 2155,
      "Never": 2156,
      "Red": 2157,
      "Rob": 2158,
      "Som": 2159,
      "Whi": 2160,
      "With": 2161,
      "_is": 2162,
      "ahead": 2163,
      "bas": 2164,
      "bir": 2165,
      "ball": 2166,
      "bra": 2167,
      "bless": 2168,
      "bath": 2169,
      "cong": 2170,
      "dam": 2171,
      "daw": 2172,
      "dare": 2173,
      "diff": 2174,
      "event": 2175,
      "gal": 2176,
      "gshe": 2177,
      "gently": 2178,
      "gang": 2179,
      "hn": 2180,
      "harm": 2181,
      "iently": 2182,
      "je": 2183,
      "lou": 2184,
      "mor": 2185,
      "mood": 2186,
      "mine": 2187,
      "nine": 2188,
      "od": 2189,
      "pur": 2190,
      "pant": 2191,
      "past": 2192,
      "poured": 2193,
      "rat": 2194,
      "rain": 2195,
      "slate": 2196,
      "tone": 2197,
      "tum": 2198,
      "tip": 2199,
      "twel": 2200,
      "ual": 2201,
      "vac": 2202,
      "vice": 2203,
      "wake": 2204,
      "zz": 2205,
      "hes": 2206,
      "hesit": 2207,
      "aning": 2208,
      "inqu": 2209,
      "reach": 2210,
      "really": 2211,
      "thin": 2212,
      "thrust": 2213,
      "oned": 2214,
      "edge": 2215,
      "asped": 2216,
      "iting": 2217,
      "envy": 2218,
      "sever": 2219,
      "belong": 2220,
      "chang": 2221,
      "charm": 2222,
      "uttered": 2223,
      "uncomfortable": 2224,
      "formed": 2225,
      "weed": 2226,
      "outside": 2227,
      "riff": 2228,
      "lip": 2229,
      "whack": 2230,
      "sail": 2231,
      "nest": 2232,
      "neck": 2233,
      "robb": 2234,
      "sore": 2235,
      "feard": 2236,
      "shel": 2237,
      "caught": 2238,
      "Hell": 2239,
      "abroad": 2240,
      "dep": 2241,
      "deal": 2242,
      "dozen": 2243,
      "anywhere": 2244,
      "ham": 2245,
      "haunt": 2246,
      "loqu": 2247,
      "respon": 2248,
      "aston": 2249,
      "spent": 2250,
      "oused": 2251,
      "ously": 2252,
      "perple": 2253,
      "perhaps": 2254,
      "oodle": 2255,
      "hollow": 2256,
      "hogshe": 2257,
      "ext": 2258,
      "exam": 2259,
      "John": 2260,
      "knows": 2261,
      "knowed": 2262,
      "grass": 2263,
      "gradually": 2264,
      "ately": 2265,
      "aws": 2266,
      "blow": 2267,
      "glory": 2268,
      "green": 2269,
      "emp": 2270,
      "Nobody": 2271,
      "everywhere": 2272,
      "ishment": 2273,
      "eyed": 2274,
      "angu": 2275,
      "iest": 2276,
      "scra": 2277,
      "wants": 2278,
      "afterward": 2279,
      "schol": 2280,
      "hearts": 2281,
      "prof": 2282,
      "rested": 2283,
      "schoolhouse": 2284,
      "breast": 2285,
      "process": 2286,
      "ortunity": 2287,
      "stor": 2288,
      "gather": 2289,
      "thank": 2290,
      "early": 2291,
      "missing": 2292,
      "intendent": 2293,
      "job": 2294,
      "happen": 2295,
      "appro": 2296,
      "desk": 2297,
      "deser": 2298,
      "desire": 2299,
      "flung": 2300,
      "troubled": 2301,
      "venture": 2302,
      "drink": 2303,
      "drunk": 2304,
      "dragged": 2305,
      "sweat": 2306,
      "swear": 2307,
      "swept": 2308,
      "opened": 2309,
      "drifted": 2310,
      "obser": 2311,
      "occup": 2312,
      "hurry": 2313,
      "posses": 2314,
      "clear": 2315,
      "current": 2316,
      "helped": 2317,
      "hunger": 2318,
      "inning": 2319,
      "graveyard": 2320,
      "lantern": 2321,
      "ridor": 2322,
      "sorry": 2323,
      "div": 2324,
      "orders": 2325,
      "adventures": 2326,
      "sym": 2327,
      "slowly": 2328,
      "stern": 2329,
      "learned": 2330,
      "Three": 2331,
      "family": 2332,
      "shade": 2333,
      "quickly": 2334,
      "fishing": 2335,
      "witness": 2336,
      "prayer": 2337,
      "God": 2338,
      "slipped": 2339,
      "pictures": 2340,
      "corridor": 2341,
      "dreadful": 2342,
      "touch": 2343,
      "finger": 2344,
      "fingers": 2345,
      "marks": 2346,
      "warts": 2347,
      "Peters": 2348,
      "aisle": 2349,
      "opportunity": 2350,
      "stretch": 2351,
      "imagin": 2352,
      "climbed": 2353,
      "osity": 2354,
      "truth": 2355,
      "stairs": 2356,
      "robber": 2357,
      "shudder": 2358,
      "swimming": 2359,
      "Both": 2360,
      "THE": 2361,
      "faint": 2362,
      "proud": 2363,
      "suffered": 2364,
      "comrade": 2365,
      "relief": 2366,
      "beautiful": 2367,
      "perfectly": 2368,
      "hopes": 2369,
      "exerc": 2370,
      "exactly": 2371,
      "dismal": 2372,
      "scarcely": 2373,
      "circumstances": 2374,
      "separated": 2375,
      "considerable": 2376,
      "gentle": 2377,
      "tackle": 2378,
      "recogn": 2379,
      "precious": 2380,
      "picnic": 2381,
      "Cardiff": 2382,
      "Robin": 2383,
      "_is_": 2384,
      "twelve": 2385,
      "several": 2386,
      "Johnny": 2387,
      "scholars": 2388,
      "Ano": 2389,
      "Hood": 2390,
      "Handed": 2391,
      "Mis": 2392,
      "May": 2393,
      "Next": 2394,
      "Pain": 2395,
      "Still": 2396,
      "Script": 2397,
      "Ting": 2398,
      "Tain": 2399,
      "Tell": 2400,
      "Un": 2401,
      "VII": 2402,
      "afeard": 2403,
      "bri": 2404,
      "bread": 2405,
      "bring": 2406,
      "cred": 2407,
      "chen": 2408,
      "dain": 2409,
      "eve": 2410,
      "fas": 2411,
      "fro": 2412,
      "furn": 2413,
      "fled": 2414,
      "gall": 2415,
      "gate": 2416,
      "hon": 2417,
      "har": 2418,
      "hain": 2419,
      "itor": 2420,
      "kes": 2421,
      "mag": 2422,
      "non": 2423,
      "page": 2424,
      "pip": 2425,
      "rup": 2426,
      "sist": 2427,
      "scared": 2428,
      "tar": 2429,
      "tive": 2430,
      "wid": 2431,
      "wound": 2432,
      "yon": 2433,
      "yed": 2434,
      "yaw": 2435,
      "inward": 2436,
      "inspir": 2437,
      "received": 2438,
      "ths": 2439,
      "thus": 2440,
      "throw": 2441,
      "ons": 2442,
      "attered": 2443,
      "tore": 2444,
      "assed": 2445,
      "arily": 2446,
      "often": 2447,
      "star": 2448,
      "stump": 2449,
      "study": 2450,
      "ades": 2451,
      "bean": 2452,
      "become": 2453,
      "idently": 2454,
      "iment": 2455,
      "history": 2456,
      "--'": 2457,
      "chair": 2458,
      "une": 2459,
      "These": 2460,
      "enty": 2461,
      "weary": 2462,
      "bosom": 2463,
      "meet": 2464,
      "ribb": 2465,
      "riosity": 2466,
      "lied": 2467,
      "ket": 2468,
      "ury": 2469,
      "ains": 2470,
      "ney": 2471,
      "neither": 2472,
      "necess": 2473,
      "terri": 2474,
      "rolled": 2475,
      "rolling": 2476,
      "button": 2477,
      "ship": 2478,
      "cap": 2479,
      "cavern": 2480,
      "del": 2481,
      "dest": 2482,
      "delight": 2483,
      "depres": 2484,
      "ucks": 2485,
      "pecu": 2486,
      "noise": 2487,
      "susp": 2488,
      "lap": 2489,
      "laughter": 2490,
      "loved": 2491,
      "loving": 2492,
      "locked": 2493,
      "tearing": 2494,
      "ract": 2495,
      "usted": 2496,
      "splen": 2497,
      "content": 2498,
      "dern": 2499,
      "romantic": 2500,
      "ams": 2501,
      "ices": 2502,
      "icult": 2503,
      "comb": 2504,
      "compl": 2505,
      "common": 2506,
      "exper": 2507,
      "knowing": 2508,
      "disappo": 2509,
      "posing": 2510,
      "endor": 2511,
      "awake": 2512,
      "awoke": 2513,
      "blan": 2514,
      "blast": 2515,
      "glor": 2516,
      "glow": 2517,
      "myself": 2518,
      "ighed": 2519,
      "manner": 2520,
      "nights": 2521,
      "stru": 2522,
      "strag": 2523,
      "please": 2524,
      "lightning": 2525,
      "reading": 2526,
      "closet": 2527,
      "watching": 2528,
      "uded": 2529,
      "pride": 2530,
      "clou": 2531,
      "class": 2532,
      "willing": 2533,
      "speed": 2534,
      "spelling": 2535,
      "dreary": 2536,
      "treat": 2537,
      "distin": 2538,
      "distant": 2539,
      "smile": 2540,
      "forty": 2541,
      "worked": 2542,
      "broad": 2543,
      "earth": 2544,
      "earnest": 2545,
      "miss": 2546,
      "ctions": 2547,
      "apple": 2548,
      "drowned": 2549,
      "sweet": 2550,
      "skin": 2551,
      "drove": 2552,
      "burg": 2553,
      "tort": 2554,
      "torment": 2555,
      "marble": 2556,
      "marbles": 2557,
      "memor": 2558,
      "drifting": 2559,
      "shoulders": 2560,
      "curious": 2561,
      "curiosity": 2562,
      "hurried": 2563,
      "landing": 2564,
      "murmur": 2565,
      "sumach": 2566,
      "sons": 2567,
      "friendly": 2568,
      "However": 2569,
      "killer": 2570,
      "signs": 2571,
      "careful": 2572,
      "giving": 2573,
      "promise": 2574,
      "pushed": 2575,
      "prize": 2576,
      "search": 2577,
      "played": 2578,
      "remembered": 2579,
      "blessed": 2580,
      "crossed": 2581,
      "latter": 2582,
      "rustling": 2583,
      "Didn": 2584,
      "regation": 2585,
      "wrong": 2586,
      "wondering": 2587,
      "furtive": 2588,
      "horse": 2589,
      "horror": 2590,
      "picture": 2591,
      "corpse": 2592,
      "touched": 2593,
      "twilight": 2594,
      "heavy": 2595,
      "passing": 2596,
      "allowed": 2597,
      "collar": 2598,
      "feeble": 2599,
      "condition": 2600,
      "struggle": 2601,
      "possibil": 2602,
      "Peter": 2603,
      "aisles": 2604,
      "hanging": 2605,
      "labor": 2606,
      "stretched": 2607,
      "superintendent": 2608,
      "drawing": 2609,
      "resolved": 2610,
      "thirty": 2611,
      "judged": 2612,
      "decided": 2613,
      "expecting": 2614,
      "pupils": 2615,
      "softly": 2616,
      "suspicion": 2617,
      "fixed": 2618,
      "fifty": 2619,
      "mourn": 2620,
      "leaves": 2621,
      "splendor": 2622,
      "complete": 2623,
      "prisoner": 2624,
      "higher": 2625,
      "kissed": 2626,
      "kitchen": 2627,
      "engaged": 2628,
      "absorbed": 2629,
      "citizens": 2630,
      "spectacle": 2631,
      "Lawrence": 2632,
      "Sometimes": 2633,
      "congregation": 2634,
      "difficult": 2635,
      "panting": 2636,
      "changed": 2637,
      "robbers": 2638,
      "Hello": 2639,
      "procession": 2640,
      "storm": 2641,
      "observed": 2642,
      "occupied": 2643,
      "sympa": 2644,
      "Petersburg": 2645,
      "Another": 2646,
      "honor": 2647,
      "widder": 2648,
      "yonder": 2649,
      "ribbon": 2650,
      "peculiar": 2651,
      "splendid": 2652,
      "!'": 2653,
      "),": 2654,
      ".'": 2655,
      "An": 2656,
      "Aven": 2657,
      "About": 2658,
      "Bull": 2659,
      "Dob": 2660,
      "Fin": 2661,
      "Ind": 2662,
      "Most": 2663,
      "Miss": 2664,
      "Number": 2665,
      "ON": 2666,
      "Old": 2667,
      "Take": 2668,
      "Wa": 2669,
      "Wed": 2670,
      "Was": 2671,
      "_now": 2672,
      "_do": 2673,
      "aid": 2674,
      "aver": 2675,
      "avo": 2676,
      "band": 2677,
      "bits": 2678,
      "bbed": 2679,
      "batt": 2680,
      "bison": 2681,
      "bins": 2682,
      "ci": 2683,
      "cru": 2684,
      "case": 2685,
      "civ": 2686,
      "dra": 2687,
      "different": 2688,
      "ec": 2689,
      "eg": 2690,
      "eight": 2691,
      "eper": 2692,
      "echo": 2693,
      "eloqu": 2694,
      "fra": 2695,
      "fanc": 2696,
      "gy": 2697,
      "gon": 2698,
      "gun": 2699,
      "gard": 2700,
      "gged": 2701,
      "hom": 2702,
      "hoo": 2703,
      "hook": 2704,
      "ians": 2705,
      "iams": 2706,
      "jump": 2707,
      "jaws": 2708,
      "jury": 2709,
      "ky": 2710,
      "loo": 2711,
      "liness": 2712,
      "lones": 2713,
      "lots": 2714,
      "mill": 2715,
      "mort": 2716,
      "mach": 2717,
      "narrow": 2718,
      "nesday": 2719,
      "pit": 2720,
      "pump": 2721,
      "paren": 2722,
      "ragged": 2723,
      "roused": 2724,
      "s_": 2725,
      "sl": 2726,
      "slight": 2727,
      "swell": 2728,
      "tan": 2729,
      "tend": 2730,
      "tled": 2731,
      "uation": 2732,
      "ushed": 2733,
      "vi": 2734,
      "vie": 2735,
      "yhere": 2736,
      "zation": 2737,
      "hey": 2738,
      "anim": 2739,
      "thee": 2740,
      "inv": 2741,
      "ining": 2742,
      "instead": 2743,
      "rear": 2744,
      "recit": 2745,
      "recollect": 2746,
      "thro": 2747,
      "thick": 2748,
      "tol": 2749,
      "tossed": 2750,
      "aside": 2751,
      "assem": 2752,
      "ingly": 2753,
      "isted": 2754,
      "ites": 2755,
      "ening": 2756,
      "ller": 2757,
      "armed": 2758,
      "oring": 2759,
      "orse": 2760,
      "stren": 2761,
      "stiff": 2762,
      "leaned": 2763,
      "ady": 2764,
      "adorn": 2765,
      "advant": 2766,
      "sequ": 2767,
      "seated": 2768,
      "season": 2769,
      "washed": 2770,
      "wasted": 2771,
      "belt": 2772,
      "immed": 2773,
      "impres": 2774,
      "chin": 2775,
      "chas": 2776,
      "chill": 2777,
      "uneasy": 2778,
      "alive": 2779,
      "although": 2780,
      "Their": 2781,
      "forced": 2782,
      "forgive": 2783,
      "wet": 2784,
      "weight": 2785,
      "wealth": 2786,
      "bore": 2787,
      "mere": 2788,
      "meas": 2789,
      "meow": 2790,
      "allo": 2791,
      "ooping": 2792,
      "ripp": 2793,
      "lig": 2794,
      "liqu": 2795,
      "aging": 2796,
      "agging": 2797,
      "agony": 2798,
      "neare": 2799,
      "ross": 2800,
      "fears": 2801,
      "sha": 2802,
      "shing": 2803,
      "shame": 2804,
      "shirt": 2805,
      "hermit": 2806,
      "cares": 2807,
      "absent": 2808,
      "departed": 2809,
      "pew": 2810,
      "noble": 2811,
      "suit": 2812,
      "sugar": 2813,
      "doom": 2814,
      "haven": 2815,
      "lock": 2816,
      "ctive": 2817,
      "raise": 2818,
      "ressed": 2819,
      "indifferent": 2820,
      "hated": 2821,
      "spunk": 2822,
      "fold": 2823,
      "condu": 2824,
      "perfor": 2825,
      "amoun": 2826,
      "gold": 2827,
      "somehow": 2828,
      "worthy": 2829,
      "daytime": 2830,
      "hoped": 2831,
      "hoping": 2832,
      "acqu": 2833,
      "accus": 2834,
      "across": 2835,
      "others": 2836,
      "que": 2837,
      "quite": 2838,
      "discour": 2839,
      "post": 2840,
      "endous": 2841,
      "bluff": 2842,
      "glance": 2843,
      "father": 2844,
      "manife": 2845,
      "managed": 2846,
      "Because": 2847,
      "likely": 2848,
      "grease": 2849,
      "emer": 2850,
      "string": 2851,
      "wholly": 2852,
      "turning": 2853,
      "ishing": 2854,
      "plenty": 2855,
      "angry": 2856,
      "scrat": 2857,
      "ffled": 2858,
      "closing": 2859,
      "lesson": 2860,
      "presence": 2861,
      "pron": 2862,
      "produ": 2863,
      "rows": 2864,
      "aching": 2865,
      "clad": 2866,
      "clung": 2867,
      "pap": 2868,
      "pale": 2869,
      "mostly": 2870,
      "gazed": 2871,
      "speck": 2872,
      "retired": 2873,
      "rude": 2874,
      "rubb": 2875,
      "ountain": 2876,
      "bully": 2877,
      "minded": 2878,
      "villag": 2879,
      "smart": 2880,
      "homeward": 2881,
      "ulse": 2882,
      "voices": 2883,
      "fortune": 2884,
      "miserable": 2885,
      "intment": 2886,
      "steam": 2887,
      "mates": 2888,
      "appre": 2889,
      "appla": 2890,
      "desc": 2891,
      "ladies": 2892,
      "flat": 2893,
      "flash": 2894,
      "Harbison": 2895,
      "cats": 2896,
      "silver": 2897,
      "silent": 2898,
      "ize": 2899,
      "midst": 2900,
      "sky": 2901,
      "settled": 2902,
      "sounded": 2903,
      "memory": 2904,
      "driven": 2905,
      "fastened": 2906,
      "obli": 2907,
      "object": 2908,
      "service": 2909,
      "hopeless": 2910,
      "chose": 2911,
      "showing": 2912,
      "murdered": 2913,
      "sought": 2914,
      "brass": 2915,
      "falling": 2916,
      "curls": 2917,
      "shovel": 2918,
      "custom": 2919,
      "impulse": 2920,
      "candles": 2921,
      "busy": 2922,
      "crit": 2923,
      "crime": 2924,
      "track": 2925,
      "prompt": 2926,
      "hiding": 2927,
      "hidden": 2928,
      "washing": 2929,
      "suffic": 2930,
      "angel": 2931,
      "easily": 2932,
      "Everything": 2933,
      "visitor": 2934,
      "rusty": 2935,
      "ilization": 2936,
      "witching": 2937,
      "regular": 2938,
      "prayed": 2939,
      "Spanish": 2940,
      "walls": 2941,
      "subject": 2942,
      "thousands": 2943,
      "bench": 2944,
      "flowers": 2945,
      "length": 2946,
      "maow": 2947,
      "slip": 2948,
      "captured": 2949,
      "tonight": 2950,
      "heaven": 2951,
      "resumed": 2952,
      "picked": 2953,
      "admir": 2954,
      "confess": 2955,
      "confidence": 2956,
      "drownd": 2957,
      "charac": 2958,
      "feebly": 2959,
      "deliver": 2960,
      "possible": 2961,
      "spreading": 2962,
      "climb": 2963,
      "dangerous": 2964,
      "petition": 2965,
      "slaughter": 2966,
      "squee": 2967,
      "resolution": 2968,
      "third": 2969,
      "shuddered": 2970,
      "bottle": 2971,
      "revealed": 2972,
      "mysterious": 2973,
      "sorrows": 2974,
      "temptation": 2975,
      "explore": 2976,
      "Black": 2977,
      "Blame": 2978,
      "Williams": 2979,
      "rags": 2980,
      "pleasant": 2981,
      "branch": 2982,
      "juven": 2983,
      "lonely": 2984,
      "sneaked": 2985,
      "refused": 2986,
      "enemy": 2987,
      "concerned": 2988,
      "generally": 2989,
      "private": 2990,
      "author": 2991,
      "audience": 2992,
      "teachers": 2993,
      "compositions": 2994,
      "While": 2995,
      "tiptoe": 2996,
      "hesitating": 2997,
      "inquiring": 2998,
      "weeds": 2999,
      "haunted": 3000,
      "perplexed": 3001,
      "examined": 3002,
      "deserted": 3003,
      "possession": 3004,
      "imaginary": 3005,
      "recognized": 3006,
      "Maybe": 3007,
      "fasc": 3008,
      "pipes": 3009,
      "inspiration": 3010,
      "necessary": 3011,
      "sympathy": 3012,
      "Avenger": 3013,
      "Dobbins": 3014,
      "Finally": 3015,
      "Wait": 3016,
      "Wednesday": 3017,
      "_now_": 3018,
      "_do_": 3019,
      "civilization": 3020,
      "eloquent": 3021,
      "strength": 3022,
      "manifest": 3023,
      "visitors": 3024,
      "!..": 3025,
      "AT": 3026,
      "Ah": 3027,
      "Bar": 3028,
      "Bles": 3029,
      "Bob": 3030,
      "En": 3031,
      "Even": 3032,
      "Fo": 3033,
      "Four": 3034,
      "Get": 3035,
      "Her": 3036,
      "Hold": 3037,
      "Jack": 3038,
      "Like": 3039,
      "Lordy": 3040,
      "Main": 3041,
      "Mars": 3042,
      "Nature": 3043,
      "Pap": 3044,
      "Qu": 3045,
      "Sab": 3046,
      "Ste": 3047,
      "Stop": 3048,
      "See": 3049,
      "Ta": 3050,
      "Tan": 3051,
      "Tis": 3052,
      "Thur": 3053,
      "Your": 3054,
      "_she": 3055,
      "_don": 3056,
      "_got": 3057,
      "ails": 3058,
      "athed": 3059,
      "bal": 3060,
      "bag": 3061,
      "bers": 3062,
      "brow": 3063,
      "bition": 3064,
      "bund": 3065,
      "bending": 3066,
      "cas": 3067,
      "cup": 3068,
      "cover": 3069,
      "cul": 3070,
      "dan": 3071,
      "ded": 3072,
      "dong": 3073,
      "dust": 3074,
      "dart": 3075,
      "dren": 3076,
      "dinn": 3077,
      "eth": 3078,
      "eur": 3079,
      "east": 3080,
      "equ": 3081,
      "fut": 3082,
      "food": 3083,
      "filed": 3084,
      "fond": 3085,
      "gies": 3086,
      "gasped": 3087,
      "hab": 3088,
      "ia": 3089,
      "ips": 3090,
      "jam": 3091,
      "judge": 3092,
      "ker": 3093,
      "kick": 3094,
      "kiss": 3095,
      "lot": 3096,
      "lings": 3097,
      "lump": 3098,
      "lordy": 3099,
      "langu": 3100,
      "mering": 3101,
      "mountain": 3102,
      "nook": 3103,
      "nings": 3104,
      "natur": 3105,
      "oak": 3106,
      "oath": 3107,
      "phe": 3108,
      "pis": 3109,
      "por": 3110,
      "pay": 3111,
      "pard": 3112,
      "pang": 3113,
      "phy": 3114,
      "pine": 3115,
      "pract": 3116,
      "ron": 3117,
      "rit": 3118,
      "rant": 3119,
      "rise": 3120,
      "sme": 3121,
      "sday": 3122,
      "sation": 3123,
      "sung": 3124,
      "sash": 3125,
      "swore": 3126,
      "tall": 3127,
      "tion": 3128,
      "tic": 3129,
      "tug": 3130,
      "ub": 3131,
      "ues": 3132,
      "vor": 3133,
      "vig": 3134,
      "vied": 3135,
      "vings": 3136,
      "vals": 3137,
      "valley": 3138,
      "vines": 3139,
      "wra": 3140,
      "wink": 3141,
      "winning": 3142,
      "xation": 3143,
      "yr": 3144,
      "yle": 3145,
      "zing": 3146,
      "zes": 3147,
      "hend": 3148,
      "ane": 3149,
      "thetic": 3150,
      "inse": 3151,
      "inal": 3152,
      "inion": 3153,
      "inspe": 3154,
      "incre": 3155,
      "inquest": 3156,
      "reat": 3157,
      "repe": 3158,
      "rela": 3159,
      "reig": 3160,
      "regre": 3161,
      "andoned": 3162,
      "thither": 3163,
      "attempt": 3164,
      "ert": 3165,
      "erly": 3166,
      "ermin": 3167,
      "erial": 3168,
      "toes": 3169,
      "today": 3170,
      "asho": 3171,
      "ashes": 3172,
      "isk": 3173,
      "iso": 3174,
      "isol": 3175,
      "itations": 3176,
      "encour": 3177,
      "ences": 3178,
      "enjoy": 3179,
      "envied": 3180,
      "omy": 3181,
      "orge": 3182,
      "orig": 3183,
      "sts": 3184,
      "stas": 3185,
      "stun": 3186,
      "stab": 3187,
      "stuck": 3188,
      "style": 3189,
      "sex": 3190,
      "seld": 3191,
      "beat": 3192,
      "behold": 3193,
      "cken": 3194,
      "imble": 3195,
      "ghast": 3196,
      "wife": 3197,
      "cham": 3198,
      "chunk": 3199,
      "unged": 3200,
      "altogether": 3201,
      "alike": 3202,
      "vest": 3203,
      "vels": 3204,
      "vexation": 3205,
      "weather": 3206,
      "bod": 3207,
      "meal": 3208,
      "alled": 3209,
      "outlaws": 3210,
      "liage": 3211,
      "lift": 3212,
      "living": 3213,
      "licked": 3214,
      "kets": 3215,
      "etc": 3216,
      "ural": 3217,
      "neat": 3218,
      "negro": 3219,
      "robe": 3220,
      "rodu": 3221,
      "sold": 3222,
      "sobs": 3223,
      "fest": 3224,
      "feast": 3225,
      "feather": 3226,
      "sheep": 3227,
      "sheriff": 3228,
      "shake": 3229,
      "share": 3230,
      "shaking": 3231,
      "camore": 3232,
      "caution": 3233,
      "moaned": 3234,
      "aby": 3235,
      "abandoned": 3236,
      "delighted": 3237,
      "pest": 3238,
      "peal": 3239,
      "pected": 3240,
      "nod": 3241,
      "illust": 3242,
      "sull": 3243,
      "suits": 3244,
      "laug": 3245,
      "ounding": 3246,
      "lored": 3247,
      "teeth": 3248,
      "rare": 3249,
      "whether": 3250,
      "respect": 3251,
      "owner": 3252,
      "asted": 3253,
      "spit": 3254,
      "spite": 3255,
      "spraw": 3256,
      "space": 3257,
      "foliage": 3258,
      "confu": 3259,
      "consent": 3260,
      "consist": 3261,
      "consequ": 3262,
      "furious": 3263,
      "ousers": 3264,
      "seeing": 3265,
      "seems": 3266,
      "persu": 3267,
      "perance": 3268,
      "percept": 3269,
      "somewhat": 3270,
      "worst": 3271,
      "episo": 3272,
      "icial": 3273,
      "acc": 3274,
      "ache": 3275,
      "accord": 3276,
      "comfor": 3277,
      "exhi": 3278,
      "except": 3279,
      "umped": 3280,
      "umbled": 3281,
      "ends": 3282,
      "litting": 3283,
      "awed": 3284,
      "aware": 3285,
      "blind": 3286,
      "blunder": 3287,
      "bliss": 3288,
      "glimp": 3289,
      "glancing": 3290,
      "fulness": 3291,
      "fail": 3292,
      "faction": 3293,
      "looks": 3294,
      "Becuz": 3295,
      "understand": 3296,
      "offer": 3297,
      "pleaded": 3298,
      "ishly": 3299,
      "ishness": 3300,
      "lightnings": 3301,
      "plunged": 3302,
      "goodness": 3303,
      "anging": 3304,
      "angle": 3305,
      "scene": 3306,
      "reader": 3307,
      "telling": 3308,
      "closer": 3309,
      "plaus": 3310,
      "trick": 3311,
      "triump": 3312,
      "tricks": 3313,
      "wherever": 3314,
      "hymn": 3315,
      "betray": 3316,
      "provis": 3317,
      "houses": 3318,
      "pair": 3319,
      "pared": 3320,
      "paused": 3321,
      "stolen": 3322,
      "moments": 3323,
      "mental": 3324,
      "muffled": 3325,
      "aps": 3326,
      "treas": 3327,
      "alongside": 3328,
      "ounced": 3329,
      "halted": 3330,
      "buy": 3331,
      "bull": 3332,
      "buried": 3333,
      "whiskey": 3334,
      "vol": 3335,
      "grav": 3336,
      "grace": 3337,
      "missed": 3338,
      "misery": 3339,
      "introdu": 3340,
      "swing": 3341,
      "swag": 3342,
      "swam": 3343,
      "farther": 3344,
      "material": 3345,
      "rank": 3346,
      "happiness": 3347,
      "desper": 3348,
      "descri": 3349,
      "descript": 3350,
      "flag": 3351,
      "single": 3352,
      "feller": 3353,
      "drooping": 3354,
      "pirating": 3355,
      "mustn": 3356,
      "dense": 3357,
      "startled": 3358,
      "counted": 3359,
      "settle": 3360,
      "woodshed": 3361,
      "worldly": 3362,
      "marvel": 3363,
      "opinion": 3364,
      "calling": 3365,
      "sounds": 3366,
      "hearing": 3367,
      "drip": 3368,
      "drift": 3369,
      "smothered": 3370,
      "smoking": 3371,
      "warily": 3372,
      "shoulder": 3373,
      "trousers": 3374,
      "faced": 3375,
      "facult": 3376,
      "lately": 3377,
      "monds": 3378,
      "landed": 3379,
      "snuff": 3380,
      "souri": 3381,
      "souls": 3382,
      "wisht": 3383,
      "brim": 3384,
      "falls": 3385,
      "ashing": 3386,
      "summit": 3387,
      "curved": 3388,
      "stantly": 3389,
      "shoes": 3390,
      "impat": 3391,
      "killed": 3392,
      "carefully": 3393,
      "givings": 3394,
      "dipped": 3395,
      "stirring": 3396,
      "secution": 3397,
      "roundabout": 3398,
      "searcher": 3399,
      "playing": 3400,
      "satisfaction": 3401,
      "groan": 3402,
      "groping": 3403,
      "frag": 3404,
      "guard": 3405,
      "sycamore": 3406,
      "visit": 3407,
      "sorts": 3408,
      "instantly": 3409,
      "stronger": 3410,
      "cracked": 3411,
      "digging": 3412,
      "pretended": 3413,
      "prayers": 3414,
      "grie": 3415,
      "situation": 3416,
      "wrote": 3417,
      "writing": 3418,
      "mothers": 3419,
      "whispers": 3420,
      "whispering": 3421,
      "whisperings": 3422,
      "Lookyhere": 3423,
      "flower": 3424,
      "maj": 3425,
      "patient": 3426,
      "patiently": 3427,
      "capture": 3428,
      "pictured": 3429,
      "fetched": 3430,
      "strike": 3431,
      "stricken": 3432,
      "leading": 3433,
      "gratified": 3434,
      "double": 3435,
      "hunted": 3436,
      "hunting": 3437,
      "interrup": 3438,
      "intervals": 3439,
      "threat": 3440,
      "uttering": 3441,
      "utterly": 3442,
      "brushed": 3443,
      "drowsy": 3444,
      "evidence": 3445,
      "evidently": 3446,
      "marked": 3447,
      "dollar": 3448,
      "ifference": 3449,
      "struggled": 3450,
      "struggling": 3451,
      "snatch": 3452,
      "eaten": 3453,
      "musing": 3454,
      "throng": 3455,
      "whitewashing": 3456,
      "superst": 3457,
      "Island": 3458,
      "bilant": 3459,
      "limb": 3460,
      "true": 3461,
      "stairway": 3462,
      "anticip": 3463,
      "presented": 3464,
      "tremendous": 3465,
      "steady": 3466,
      "remarks": 3467,
      "carrying": 3468,
      "Boy": 3469,
      "bottom": 3470,
      "determin": 3471,
      "elect": 3472,
      "knob": 3473,
      "knock": 3474,
      "incant": 3475,
      "comrades": 3476,
      "quarters": 3477,
      "grandeur": 3478,
      "mystery": 3479,
      "sighing": 3480,
      "vanity": 3481,
      "vanished": 3482,
      "anxious": 3483,
      "anxiety": 3484,
      "reflected": 3485,
      "suspicious": 3486,
      "hateful": 3487,
      "discover": 3488,
      "gloomy": 3489,
      "ailing": 3490,
      "calm": 3491,
      "jubilant": 3492,
      "loneliness": 3493,
      "tranqu": 3494,
      "refuge": 3495,
      "proceeded": 3496,
      "Temple": 3497,
      "Temperance": 3498,
      "snore": 3499,
      "yielded": 3500,
      "heroes": 3501,
      "whoop": 3502,
      "passage": 3503,
      "passages": 3504,
      "contemplated": 3505,
      "basin": 3506,
      "bird": 3507,
      "dawned": 3508,
      "tumbling": 3509,
      "shelter": 3510,
      "response": 3511,
      "hogsheads": 3512,
      "emphas": 3513,
      "scrape": 3514,
      "profound": 3515,
      "thankful": 3516,
      "approached": 3517,
      "Missouri": 3518,
      "Scriptural": 3519,
      "brick": 3520,
      "dainty": 3521,
      "gallery": 3522,
      "magn": 3523,
      "inwardly": 3524,
      "depression": 3525,
      "suspen": 3526,
      "disappointment": 3527,
      "distinct": 3528,
      "possibility": 3529,
      "difficulty": 3530,
      "battle": 3531,
      "ecstas": 3532,
      "homes": 3533,
      "hookey": 3534,
      "loose": 3535,
      "lonesome": 3536,
      "view": 3537,
      "throat": 3538,
      "adorned": 3539,
      "immedi": 3540,
      "performan": 3541,
      "emerged": 3542,
      "villagers": 3543,
      "apprehen": 3544,
      "applause": 3545,
      "descended": 3546,
      "obliged": 3547,
      "sufficient": 3548,
      "!...": 3549,
      "Blessed": 3550,
      "Engl": 3551,
      "Jackson": 3552,
      "Quick": 3553,
      "Sabbath": 3554,
      "Tavern": 3555,
      "Tanner": 3556,
      "Thursday": 3557,
      "_got_": 3558,
      "bundle": 3559,
      "dinner": 3560,
      "kerchief": 3561,
      "language": 3562,
      "natural": 3563,
      "vigor": 3564,
      "insect": 3565,
      "increased": 3566,
      "repeated": 3567,
      "reigned": 3568,
      "ashore": 3569,
      "isolated": 3570,
      "original": 3571,
      "seldom": 3572,
      "ghastly": 3573,
      "laughed": 3574,
      "respectable": 3575,
      "perceptible": 3576,
      "triumph": 3577,
      "faculties": 3578,
      "determined": 3579,
      ").": 3580,
      ",'": 3581,
      ".,": 3582,
      "AB": 3583,
      "Ain": 3584,
      "Away": 3585,
      "Chow": 3586,
      "Coun": 3587,
      "Down": 3588,
      "During": 3589,
      "Ex": 3590,
      "Ear": 3591,
      "Each": 3592,
      "Gra": 3593,
      "Give": 3594,
      "Gang": 3595,
      "Hal": 3596,
      "Horse": 3597,
      "IV": 3598,
      "ION": 3599,
      "Ke": 3600,
      "Land": 3601,
      "Life": 3602,
      "Listen": 3603,
      "Least": 3604,
      "Mc": 3605,
      "Mon": 3606,
      "OU": 3607,
      "Pr": 3608,
      "Right": 3609,
      "Se": 3610,
      "Si": 3611,
      "Sm": 3612,
      "Sp": 3613,
      "Spe": 3614,
      "Sus": 3615,
      "Spir": 3616,
      "Seas": 3617,
      "Said": 3618,
      "To": 3619,
      "Tu": 3620,
      "Ter": 3621,
      "Tex": 3622,
      "Tru": 3623,
      "VI": 3624,
      "Wh": 3625,
      "Would": 3626,
      "Yet": 3627,
      "]--\"": 3628,
      "_me": 3629,
      "_any": 3630,
      "_would": 3631,
      "_did": 3632,
      "_what": 3633,
      "_Now": 3634,
      "_You": 3635,
      "_She": 3636,
      "av": 3637,
      "aly": 3638,
      "ares": 3639,
      "ailed": 3640,
      "aos": 3641,
      "buck": 3642,
      "blo": 3643,
      "bade": 3644,
      "bones": 3645,
      "bably": 3646,
      "blighted": 3647,
      "bats": 3648,
      "baby": 3649,
      "cing": 3650,
      "cow": 3651,
      "cig": 3652,
      "cite": 3653,
      "cceed": 3654,
      "d_": 3655,
      "din": 3656,
      "das": 3657,
      "dom": 3658,
      "dut": 3659,
      "dry": 3660,
      "dged": 3661,
      "due": 3662,
      "dug": 3663,
      "dign": 3664,
      "dirt": 3665,
      "econ": 3666,
      "eating": 3667,
      "fan": 3668,
      "fat": 3669,
      "fig": 3670,
      "flight": 3671,
      "field": 3672,
      "gla": 3673,
      "gum": 3674,
      "gue": 3675,
      "gained": 3676,
      "gress": 3677,
      "ggest": 3678,
      "hast": 3679,
      "hood": 3680,
      "hint": 3681,
      "ib": 3682,
      "ires": 3683,
      "ibu": 3684,
      "ibly": 3685,
      "iod": 3686,
      "jings": 3687,
      "jail": 3688,
      "jumped": 3689,
      "kward": 3690,
      "kings": 3691,
      "lark": 3692,
      "lorn": 3693,
      "lug": 3694,
      "list": 3695,
      "lerable": 3696,
      "lines": 3697,
      "mut": 3698,
      "mot": 3699,
      "mir": 3700,
      "mme": 3701,
      "mass": 3702,
      "muttered": 3703,
      "nal": 3704,
      "num": 3705,
      "ners": 3706,
      "nough": 3707,
      "naked": 3708,
      "number": 3709,
      "ose": 3710,
      "pen": 3711,
      "pill": 3712,
      "pages": 3713,
      "poodle": 3714,
      "ras": 3715,
      "rum": 3716,
      "rage": 3717,
      "ratt": 3718,
      "rats": 3719,
      "rising": 3720,
      "snow": 3721,
      "song": 3722,
      "sour": 3723,
      "sink": 3724,
      "sunk": 3725,
      "slim": 3726,
      "sighed": 3727,
      "twas": 3728,
      "tur": 3729,
      "tight": 3730,
      "tour": 3731,
      "tie": 3732,
      "table": 3733,
      "tallow": 3734,
      "uch": 3735,
      "vading": 3736,
      "wy": 3737,
      "win": 3738,
      "wis": 3739,
      "wret": 3740,
      "warm": 3741,
      "wist": 3742,
      "wading": 3743,
      "yel": 3744,
      "yest": 3745,
      "hest": 3746,
      "heal": 3747,
      "health": 3748,
      "iny": 3749,
      "inth": 3750,
      "init": 3751,
      "inch": 3752,
      "inated": 3753,
      "injun": 3754,
      "inches": 3755,
      "injury": 3756,
      "rend": 3757,
      "refe": 3758,
      "reast": 3759,
      "ream": 3760,
      "requ": 3761,
      "repro": 3762,
      "returned": 3763,
      "recess": 3764,
      "record": 3765,
      "resem": 3766,
      "relig": 3767,
      "recite": 3768,
      "thily": 3769,
      "thimble": 3770,
      "ator": 3771,
      "atmo": 3772,
      "atures": 3773,
      "atform": 3774,
      "atomy": 3775,
      "ern": 3776,
      "erday": 3777,
      "eries": 3778,
      "erably": 3779,
      "ergy": 3780,
      "tomed": 3781,
      "tops": 3782,
      "asm": 3783,
      "asp": 3784,
      "isly": 3785,
      "ision": 3786,
      "issu": 3787,
      "llis": 3788,
      "omp": 3789,
      "omer": 3790,
      "oration": 3791,
      "orrow": 3792,
      "ordered": 3793,
      "orgies": 3794,
      "stag": 3795,
      "stam": 3796,
      "stare": 3797,
      "stile": 3798,
      "straw": 3799,
      "staring": 3800,
      "leg": 3801,
      "lest": 3802,
      "leaf": 3803,
      "leather": 3804,
      "owl": 3805,
      "seas": 3806,
      "sell": 3807,
      "sewed": 3808,
      "waste": 3809,
      "beam": 3810,
      "beings": 3811,
      "idle": 3812,
      "iddy": 3813,
      "cker": 3814,
      "cking": 3815,
      "imme": 3816,
      "impro": 3817,
      "imposing": 3818,
      "wicked": 3819,
      "chow": 3820,
      "chim": 3821,
      "chick": 3822,
      "chok": 3823,
      "chased": 3824,
      "chances": 3825,
      "chbug": 3826,
      "chaos": 3827,
      "uted": 3828,
      "unconsc": 3829,
      "uncovered": 3830,
      "uncertain": 3831,
      "unconscious": 3832,
      "unlocked": 3833,
      "alo": 3834,
      "alous": 3835,
      "velled": 3836,
      "verer": 3837,
      "veyed": 3838,
      "ented": 3839,
      "formid": 3840,
      "forlorn": 3841,
      "weighed": 3842,
      "boom": 3843,
      "bold": 3844,
      "aller": 3845,
      "outcast": 3846,
      "ooped": 3847,
      "lifting": 3848,
      "upper": 3849,
      "upward": 3850,
      "upset": 3851,
      "upstairs": 3852,
      "keel": 3853,
      "save": 3854,
      "saved": 3855,
      "sacred": 3856,
      "ety": 3857,
      "aggard": 3858,
      "urre": 3859,
      "nel": 3860,
      "tery": 3861,
      "roll": 3862,
      "rope": 3863,
      "roaring": 3864,
      "soc": 3865,
      "sobbed": 3866,
      "buted": 3867,
      "fever": 3868,
      "ferer": 3869,
      "sheet": 3870,
      "sheets": 3871,
      "shor": 3872,
      "shab": 3873,
      "shack": 3874,
      "shiver": 3875,
      "shucks": 3876,
      "shining": 3877,
      "ships": 3878,
      "cake": 3879,
      "moan": 3880,
      "nowhere": 3881,
      "ables": 3882,
      "abbed": 3883,
      "abreast": 3884,
      "thers": 3885,
      "degre": 3886,
      "delay": 3887,
      "delic": 3888,
      "destru": 3889,
      "deeper": 3890,
      "peep": 3891,
      "illy": 3892,
      "illum": 3893,
      "notion": 3894,
      "suspe": 3895,
      "suited": 3896,
      "succeed": 3897,
      "suggest": 3898,
      "ifying": 3899,
      "lam": 3900,
      "lape": 3901,
      "lazy": 3902,
      "ounds": 3903,
      "logs": 3904,
      "loads": 3905,
      "teen": 3906,
      "cture": 3907,
      "raction": 3908,
      "whel": 3909,
      "wheres": 3910,
      "whenever": 3911,
      "ppled": 3912,
      "indi": 3913,
      "inders": 3914,
      "ants": 3915,
      "antly": 3916,
      "hating": 3917,
      "rying": 3918,
      "astic": 3919,
      "sped": 3920,
      "sphere": 3921,
      "spied": 3922,
      "sport": 3923,
      "spok": 3924,
      "spired": 3925,
      "spoke": 3926,
      "cont": 3927,
      "conven": 3928,
      "contri": 3929,
      "concl": 3930,
      "timid": 3931,
      "peril": 3932,
      "percus": 3933,
      "period": 3934,
      "pervading": 3935,
      "ama": 3936,
      "amid": 3937,
      "amuse": 3938,
      "amination": 3939,
      "ambition": 3940,
      "goes": 3941,
      "somewhere": 3942,
      "worm": 3943,
      "worship": 3944,
      "theirs": 3945,
      "hove": 3946,
      "holid": 3947,
      "hospit": 3948,
      "ics": 3949,
      "ically": 3950,
      "ooked": 3951,
      "accompan": 3952,
      "accompl": 3953,
      "Were": 3954,
      "Western": 3955,
      "gered": 3956,
      "itten": 3957,
      "downward": 3958,
      "overhead": 3959,
      "overwhel": 3960,
      "exal": 3961,
      "exha": 3962,
      "expl": 3963,
      "exped": 3964,
      "exult": 3965,
      "exchange": 3966,
      "exposed": 3967,
      "expressed": 3968,
      "expected": 3969,
      "quot": 3970,
      "quaked": 3971,
      "quiver": 3972,
      "dischar": 3973,
      "pol": 3974,
      "poking": 3975,
      "pointed": 3976,
      "grim": 3977,
      "grisly": 3978,
      "endure": 3979,
      "atest": 3980,
      "awkward": 3981,
      "blade": 3982,
      "blings": 3983,
      "sedu": 3984,
      "intolerable": 3985,
      "woke": 3986,
      "longing": 3987,
      "longest": 3988,
      "backward": 3989,
      "favor": 3990,
      "lookout": 3991,
      "Before": 3992,
      "ively": 3993,
      "greatest": 3994,
      "nightly": 3995,
      "nightfall": 3996,
      "begun": 3997,
      "handy": 3998,
      "handsome": 3999,
      "handful": 4000,
      "handkerchief": 4001,
      "tedious": 4002,
      "understood": 4003,
      "cane": 4004,
      "cannot": 4005,
      "emot": 4006,
      "stray": 4007,
      "strang": 4008,
      "turns": 4009,
      "pleasure": 4010,
      "elm": 4011,
      "elab": 4012,
      "plas": 4013,
      "plank": 4014,
      "platform": 4015,
      "sco": 4016,
      "scuff": 4017,
      "scraw": 4018,
      "scattered": 4019,
      "cloth": 4020,
      "clothing": 4021,
      "howl": 4022,
      "yourn": 4023,
      "wanting": 4024,
      "trif": 4025,
      "tries": 4026,
      "tripped": 4027,
      "colored": 4028,
      "prote": 4029,
      "prises": 4030,
      "restless": 4031,
      "Sheriff": 4032,
      "letting": 4033,
      "schoolmaster": 4034,
      "schoolmates": 4035,
      "thoughts": 4036,
      "tense": 4037,
      "propped": 4038,
      "prodig": 4039,
      "prosecution": 4040,
      "probably": 4041,
      "progress": 4042,
      "reny": 4043,
      "clown": 4044,
      "clined": 4045,
      "clasped": 4046,
      "pail": 4047,
      "patho": 4048,
      "pathetic": 4049,
      "stole": 4050,
      "stomach": 4051,
      "gaze": 4052,
      "spec": 4053,
      "retreat": 4054,
      "reckoned": 4055,
      "rush": 4056,
      "thanks": 4057,
      "mult": 4058,
      "Soon": 4059,
      "apart": 4060,
      "treacher": 4061,
      "halting": 4062,
      "bush": 4063,
      "built": 4064,
      "villains": 4065,
      "whistle": 4066,
      "lingering": 4067,
      "smoo": 4068,
      "volu": 4069,
      "finds": 4070,
      "finding": 4071,
      "sible": 4072,
      "halfbreed": 4073,
      "Auntie": 4074,
      "estic": 4075,
      "mischief": 4076,
      "misfortune": 4077,
      "miseries": 4078,
      "steep": 4079,
      "cream": 4080,
      "creaked": 4081,
      "creeping": 4082,
      "parties": 4083,
      "swit": 4084,
      "swallowed": 4085,
      "joke": 4086,
      "jointed": 4087,
      "keeping": 4088,
      "happier": 4089,
      "cheek": 4090,
      "mayor": 4091,
      "doors": 4092,
      "doorsteps": 4093,
      "flushed": 4094,
      "fluttering": 4095,
      "whitewashed": 4096,
      "drum": 4097,
      "dragging": 4098,
      "pirac": 4099,
      "sweated": 4100,
      "following": 4101,
      "izing": 4102,
      "ski": 4103,
      "skip": 4104,
      "skull": 4105,
      "counter": 4106,
      "drops": 4107,
      "ringing": 4108,
      "burgl": 4109,
      "burden": 4110,
      "firm": 4111,
      "harder": 4112,
      "sleeping": 4113,
      "hither": 4114,
      "marched": 4115,
      "married": 4116,
      "driving": 4117,
      "dripping": 4118,
      "fasten": 4119,
      "smoked": 4120,
      "warning": 4121,
      "books": 4122,
      "dreamt": 4123,
      "trad": 4124,
      "trot": 4125,
      "trust": 4126,
      "trunk": 4127,
      "tained": 4128,
      "flesh": 4129,
      "facing": 4130,
      "interesting": 4131,
      "feelings": 4132,
      "compass": 4133,
      "smaller": 4134,
      "blamed": 4135,
      "month": 4136,
      "actual": 4137,
      "snug": 4138,
      "snoring": 4139,
      "supposed": 4140,
      "wishing": 4141,
      "remain": 4142,
      "brood": 4143,
      "final": 4144,
      "fallen": 4145,
      "ticking": 4146,
      "ticket": 4147,
      "ists": 4148,
      "sumpt": 4149,
      "tail": 4150,
      "tails": 4151,
      "import": 4152,
      "windows": 4153,
      "bitter": 4154,
      "flog": 4155,
      "floated": 4156,
      "signpain": 4157,
      "crash": 4158,
      "crowned": 4159,
      "genu": 4160,
      "traver": 4161,
      "tracks": 4162,
      "younger": 4163,
      "tempest": 4164,
      "fullest": 4165,
      "promising": 4166,
      "Sundays": 4167,
      "dued": 4168,
      "dull": 4169,
      "namely": 4170,
      "pull": 4171,
      "pricked": 4172,
      "secure": 4173,
      "sombre": 4174,
      "searching": 4175,
      "deeply": 4176,
      "deepened": 4177,
      "opening": 4178,
      "groped": 4179,
      "groans": 4180,
      "groaning": 4181,
      "elsewhere": 4182,
      "Everybody": 4183,
      "frowned": 4184,
      "fools": 4185,
      "foolishness": 4186,
      "guess": 4187,
      "guarded": 4188,
      "humili": 4189,
      "sentence": 4190,
      "questions": 4191,
      "shallow": 4192,
      "holding": 4193,
      "quicker": 4194,
      "crazy": 4195,
      "fernal": 4196,
      "ults": 4197,
      "witch": 4198,
      "regarded": 4199,
      "dress": 4200,
      "dresses": 4201,
      "subdued": 4202,
      "wonders": 4203,
      "benches": 4204,
      "flowed": 4205,
      "patch": 4206,
      "sensation": 4207,
      "devils": 4208,
      "freight": 4209,
      "frequ": 4210,
      "pins": 4211,
      "pinchbug": 4212,
      "pieces": 4213,
      "touching": 4214,
      "woman": 4215,
      "heav": 4216,
      "strict": 4217,
      "alleys": 4218,
      "keys": 4219,
      "solid": 4220,
      "passen": 4221,
      "admired": 4222,
      "admitted": 4223,
      "admiring": 4224,
      "peaceful": 4225,
      "confident": 4226,
      "Dougal": 4227,
      "drowsing": 4228,
      "gayly": 4229,
      "ivity": 4230,
      "vagrant": 4231,
      "reality": 4232,
      "bells": 4233,
      "charge": 4234,
      "excited": 4235,
      "exciting": 4236,
      "possibly": 4237,
      "Somebody": 4238,
      "borne": 4239,
      "cents": 4240,
      "garments": 4241,
      "labyr": 4242,
      "music": 4243,
      "painfully": 4244,
      "sandy": 4245,
      "sandbar": 4246,
      "throne": 4247,
      "thrown": 4248,
      "tomorrow": 4249,
      "imagination": 4250,
      "lively": 4251,
      "growth": 4252,
      "growing": 4253,
      "stealing": 4254,
      "stealthily": 4255,
      "surprised": 4256,
      "flying": 4257,
      "lucky": 4258,
      "mainly": 4259,
      "square": 4260,
      "idents": 4261,
      "escape": 4262,
      "solemnity": 4263,
      "spotted": 4264,
      "trembled": 4265,
      "trembling": 4266,
      "steadily": 4267,
      "detect": 4268,
      "details": 4269,
      "eleven": 4270,
      "judg": 4271,
      "proudest": 4272,
      "sufferer": 4273,
      "appointed": 4274,
      "occasions": 4275,
      "shadows": 4276,
      "burning": 4277,
      "daily": 4278,
      "flame": 4279,
      "pulpit": 4280,
      "sadly": 4281,
      "reflections": 4282,
      "command": 4283,
      "powerful": 4284,
      "circumstance": 4285,
      "straightway": 4286,
      "Hoss": 4287,
      "Hollis": 4288,
      "fix": 4289,
      "fifteen": 4290,
      "portion": 4291,
      "vices": 4292,
      "statement": 4293,
      "leaving": 4294,
      "entertain": 4295,
      "enterprises": 4296,
      "forgotten": 4297,
      "testified": 4298,
      "concern": 4299,
      "completed": 4300,
      "generous": 4301,
      "privile": 4302,
      "avenue": 4303,
      "avenues": 4304,
      "tittering": 4305,
      "variety": 4306,
      "reply": 4307,
      "repent": 4308,
      "thorough": 4309,
      "stalag": 4310,
      "stalact": 4311,
      "strode": 4312,
      "ification": 4313,
      "elbows": 4314,
      "arent": 4315,
      "neighboring": 4316,
      "contemplate": 4317,
      "Deed": 4318,
      "More": 4319,
      "Within": 4320,
      "birds": 4321,
      "brace": 4322,
      "baths": 4323,
      "dawn": 4324,
      "louder": 4325,
      "purpose": 4326,
      "vacant": 4327,
      "vacation": 4328,
      "depths": 4329,
      "responsible": 4330,
      "astonished": 4331,
      "astonishment": 4332,
      "hogshead": 4333,
      "gathering": 4334,
      "approaching": 4335,
      "divided": 4336,
      "faintly": 4337,
      "exercise": 4338,
      "exercises": 4339,
      "gentleman": 4340,
      "VIII": 4341,
      "harassed": 4342,
      "yawned": 4343,
      "meeting": 4344,
      "terrible": 4345,
      "lapsed": 4346,
      "experience": 4347,
      "glorious": 4348,
      "cloud": 4349,
      "treatment": 4350,
      "tortured": 4351,
      "tormented": 4352,
      "memories": 4353,
      "curiously": 4354,
      "furtively": 4355,
      "Indians": 4356,
      "bandage": 4357,
      "cially": 4358,
      "drawn": 4359,
      "eggs": 4360,
      "echoes": 4361,
      "fancy": 4362,
      "goner": 4363,
      "guns": 4364,
      "jumping": 4365,
      "million": 4366,
      "parents": 4367,
      "recited": 4368,
      "assembled": 4369,
      "advantage": 4370,
      "impressive": 4371,
      "chasing": 4372,
      "liquor": 4373,
      "nearer": 4374,
      "shape": 4375,
      "folded": 4376,
      "conduct": 4377,
      "amount": 4378,
      "acquired": 4379,
      "accustomed": 4380,
      "discouraged": 4381,
      "scratched": 4382,
      "pronounced": 4383,
      "skylark": 4384,
      "critical": 4385,
      "admiration": 4386,
      "drownded": 4387,
      "character": 4388,
      "squeezed": 4389,
      "juvenile": 4390,
      "authority": 4391,
      "hesitatingly": 4392,
      "Barlow": 4393,
      "Steady": 4394,
      "dangling": 4395,
      "darted": 4396,
      "drenched": 4397,
      "future": 4398,
      "stabboard": 4399,
      "chamber": 4400,
      "vestibu": 4401,
      "soldier": 4402,
      "illustrious": 4403,
      "sullen": 4404,
      "sprawling": 4405,
      "confused": 4406,
      "consequence": 4407,
      "furiously": 4408,
      "episode": 4409,
      "exhibit": 4410,
      "glimpse": 4411,
      "failure": 4412,
      "treasures": 4413,
      "gravity": 4414,
      "introduced": 4415,
      "desperate": 4416,
      "description": 4417,
      "impatient": 4418,
      "searchers": 4419,
      "fragment": 4420,
      "grieving": 4421,
      "majestic": 4422,
      "interruption": 4423,
      "superstition": 4424,
      "incantation": 4425,
      "discovery": 4426,
      "suspender": 4427,
      "homesick": 4428,
      "immediately": 4429,
      "performance": 4430,
      "apprehensive": 4431,
      "England": 4432,
      "Counsel": 4433,
      "Examination": 4434,
      "Half": 4435,
      "Keep": 4436,
      "McDougal": 4437,
      "Monday": 4438,
      "Prof": 4439,
      "Sereny": 4440,
      "Six": 4441,
      "Tuesday": 4442,
      "Terror": 4443,
      "Texas": 4444,
      "_me_": 4445,
      "_any_": 4446,
      "_would_": 4447,
      "_did_": 4448,
      "_what_": 4449,
      "_Now_": 4450,
      "_She_": 4451,
      "alyzed": 4452,
      "bucket": 4453,
      "cigars": 4454,
      "duty": 4455,
      "glare": 4456,
      "mirth": 4457,
      "wistfully": 4458,
      "yesterday": 4459,
      "atmosphere": 4460,
      "chicken": 4461,
      "unconsciously": 4462,
      "formidable": 4463,
      "delicious": 4464,
      "suspected": 4465,
      "spoken": 4466,
      "percussion": 4467,
      "holiday": 4468,
      "accompanied": 4469,
      "exultation": 4470,
      "discharging": 4471,
      "strangers": 4472,
      "protection": 4473,
      "pathos": 4474,
      "volume": 4475,
      "cheeks": 4476,
      "signpainter": 4477,
      "labyrinth": 4478,
      "skylarking": 4479,
      "vestibule": 4480,
      "'.\"": 4481,
      "AC": 4482,
      "AY": 4483,
      "Ad": 4484,
      "Are": 4485,
      "Amen": 4486,
      "Aye": 4487,
      "Amer": 4488,
      "Alab": 4489,
      "BE": 4490,
      "Bet": 4491,
      "Big": 4492,
      "Bought": 4493,
      "CK": 4494,
      "CL": 4495,
      "Ca": 4496,
      "Ch": 4497,
      "Cr": 4498,
      "Cer": 4499,
      "Could": 4500,
      "Cour": 4501,
      "Dev": 4502,
      "Doodle": 4503,
      "Dream": 4504,
      "DAY": 4505,
      "EN": 4506,
      "Fine": 4507,
      "Ge": 4508,
      "Gl": 4509,
      "Gr": 4510,
      "Gu": 4511,
      "Ger": 4512,
      "Gen": 4513,
      "Got": 4514,
      "Hy": 4515,
      "Hard": 4516,
      "House": 4517,
      "Hop": 4518,
      "Hallo": 4519,
      "IX": 4520,
      "Ill": 4521,
      "Jake": 4522,
      "Kiss": 4523,
      "Litt": 4524,
      "Less": 4525,
      "Lem": 4526,
      "Lady": 4527,
      "Lane": 4528,
      "MA": 4529,
      "Me": 4530,
      "Many": 4531,
      "Might": 4532,
      "Mil": 4533,
      "NO": 4534,
      "Nor": 4535,
      "Neither": 4536,
      "Or": 4537,
      "Other": 4538,
      "Ouch": 4539,
      "Pe": 4540,
      "Pl": 4541,
      "Per": 4542,
      "Pir": 4543,
      "Part": 4544,
      "RE": 4545,
      "Re": 4546,
      "Run": 4547,
      "River": 4548,
      "SH": 4549,
      "Sin": 4550,
      "Sher": 4551,
      "Sha": 4552,
      "Sho": 4553,
      "Sour": 4554,
      "Send": 4555,
      "Sure": 4556,
      "Sud": 4557,
      "SION": 4558,
      "Sounds": 4559,
      "Ten": 4560,
      "Tall": 4561,
      "Too": 4562,
      "Tho": 4563,
      "Turn": 4564,
      "Talk": 4565,
      "THA": 4566,
      "Very": 4567,
      "XV": 4568,
      "XII": 4569,
      "Ye": 4570,
      "[*": 4571,
      "_I": 4572,
      "_he": 4573,
      "_the": 4574,
      "_was": 4575,
      "_that": 4576,
      "_all": 4577,
      "_they": 4578,
      "_ain": 4579,
      "_He": 4580,
      "_could": 4581,
      "_know": 4582,
      "_have": 4583,
      "_like": 4584,
      "_under": 4585,
      "_say": 4586,
      "_course": 4587,
      "_bad": 4588,
      "ah": 4589,
      "ax": 4590,
      "awe": 4591,
      "apped": 4592,
      "aves": 4593,
      "aug": 4594,
      "apron": 4595,
      "ban": 4596,
      "bat": 4597,
      "bing": 4598,
      "bid": 4599,
      "bun": 4600,
      "bust": 4601,
      "bac": 4602,
      "bud": 4603,
      "bars": 4604,
      "bened": 4605,
      "base": 4606,
      "budge": 4607,
      "bier": 4608,
      "bought": 4609,
      "busted": 4610,
      "banging": 4611,
      "cof": 4612,
      "cate": 4613,
      "coff": 4614,
      "cade": 4615,
      "cool": 4616,
      "cie": 4617,
      "cuse": 4618,
      "cue": 4619,
      "cuff": 4620,
      "craw": 4621,
      "cooked": 4622,
      "dd": 4623,
      "dus": 4624,
      "dling": 4625,
      "dared": 4626,
      "daring": 4627,
      "dancing": 4628,
      "doodle": 4629,
      "difference": 4630,
      "ej": 4631,
      "een": 4632,
      "eag": 4633,
      "elly": 4634,
      "ease": 4635,
      "eze": 4636,
      "fy": 4637,
      "fes": 4638,
      "fres": 4639,
      "fic": 4640,
      "fren": 4641,
      "fret": 4642,
      "fru": 4643,
      "fring": 4644,
      "fried": 4645,
      "faded": 4646,
      "fier": 4647,
      "frock": 4648,
      "flick": 4649,
      "fitted": 4650,
      "flitting": 4651,
      "gou": 4652,
      "gly": 4653,
      "gain": 4654,
      "gant": 4655,
      "gles": 4656,
      "gild": 4657,
      "gory": 4658,
      "gorge": 4659,
      "giddy": 4660,
      "gimme": 4661,
      "hil": 4662,
      "hug": 4663,
      "hilt": 4664,
      "haggard": 4665,
      "ian": 4666,
      "ior": 4667,
      "ica": 4668,
      "iles": 4669,
      "ium": 4670,
      "iation": 4671,
      "ipl": 4672,
      "ially": 4673,
      "iction": 4674,
      "ives": 4675,
      "iences": 4676,
      "iasm": 4677,
      "jing": 4678,
      "jour": 4679,
      "jured": 4680,
      "jaded": 4681,
      "jailed": 4682,
      "kin": 4683,
      "kers": 4684,
      "lin": 4685,
      "lun": 4686,
      "lted": 4687,
      "lash": 4688,
      "loft": 4689,
      "lks": 4690,
      "mes": 4691,
      "mun": 4692,
      "mam": 4693,
      "mpt": 4694,
      "mud": 4695,
      "mite": 4696,
      "mutter": 4697,
      "nt": 4698,
      "nut": 4699,
      "net": 4700,
      "nud": 4701,
      "nished": 4702,
      "nigh": 4703,
      "nib": 4704,
      "oh": 4705,
      "oon": 4706,
      "ois": 4707,
      "oper": 4708,
      "ogra": 4709,
      "obey": 4710,
      "pid": 4711,
      "pot": 4712,
      "pall": 4713,
      "pone": 4714,
      "pack": 4715,
      "pover": 4716,
      "pum": 4717,
      "puff": 4718,
      "pried": 4719,
      "pond": 4720,
      "pots": 4721,
      "paws": 4722,
      "pomp": 4723,
      "rs": 4724,
      "rand": 4725,
      "rout": 4726,
      "ride": 4727,
      "rity": 4728,
      "risk": 4729,
      "sof": 4730,
      "soo": 4731,
      "suck": 4732,
      "sook": 4733,
      "scan": 4734,
      "sword": 4735,
      "ssing": 4736,
      "slen": 4737,
      "sadd": 4738,
      "slid": 4739,
      "sworn": 4740,
      "slou": 4741,
      "sisted": 4742,
      "tas": 4743,
      "tis": 4744,
      "tet": 4745,
      "til": 4746,
      "takes": 4747,
      "twink": 4748,
      "tasted": 4749,
      "tangle": 4750,
      "ule": 4751,
      "ush": 4752,
      "ubb": 4753,
      "urious": 4754,
      "vit": 4755,
      "vain": 4756,
      "vous": 4757,
      "vary": 4758,
      "vul": 4759,
      "vided": 4760,
      "viv": 4761,
      "vassed": 4762,
      "vindi": 4763,
      "wow": 4764,
      "woo": 4765,
      "wag": 4766,
      "wings": 4767,
      "wine": 4768,
      "wreck": 4769,
      "wrought": 4770,
      "wended": 4771,
      "waked": 4772,
      "waded": 4773,
      "wagged": 4774,
      "xity": 4775,
      "heat": 4776,
      "heed": 4777,
      "heme": 4778,
      "heave": 4779,
      "heaps": 4780,
      "anatomy": 4781,
      "inve": 4782,
      "inous": 4783,
      "inity": 4784,
      "inting": 4785,
      "infl": 4786,
      "inople": 4787,
      "insign": 4788,
      "informed": 4789,
      "inhab": 4790,
      "intense": 4791,
      "infernal": 4792,
      "injured": 4793,
      "inois": 4794,
      "re_": 4795,
      "rele": 4796,
      "rene": 4797,
      "reno": 4798,
      "reel": 4799,
      "reward": 4800,
      "remind": 4801,
      "recre": 4802,
      "rels": 4803,
      "removed": 4804,
      "request": 4805,
      "reform": 4806,
      "relu": 4807,
      "remove": 4808,
      "repose": 4809,
      "repetition": 4810,
      "recalling": 4811,
      "represented": 4812,
      "andiron": 4813,
      "thout": 4814,
      "onto": 4815,
      "attor": 4816,
      "atical": 4817,
      "erve": 4818,
      "erous": 4819,
      "erated": 4820,
      "erced": 4821,
      "toy": 4822,
      "toed": 4823,
      "toll": 4824,
      "tori": 4825,
      "tored": 4826,
      "topped": 4827,
      "tols": 4828,
      "toiled": 4829,
      "tobac": 4830,
      "asha": 4831,
      "ashed": 4832,
      "asable": 4833,
      "asses": 4834,
      "aspect": 4835,
      "inging": 4836,
      "ingen": 4837,
      "issi": 4838,
      "iture": 4839,
      "itary": 4840,
      "itled": 4841,
      "itened": 4842,
      "ittering": 4843,
      "enes": 4844,
      "enab": 4845,
      "ensu": 4846,
      "eness": 4847,
      "encoun": 4848,
      "enclosed": 4849,
      "ency": 4850,
      "enthus": 4851,
      "llar": 4852,
      "arf": 4853,
      "arse": 4854,
      "arch": 4855,
      "aries": 4856,
      "arling": 4857,
      "argum": 4858,
      "arose": 4859,
      "ories": 4860,
      "orately": 4861,
      "stit": 4862,
      "stup": 4863,
      "stain": 4864,
      "stic": 4865,
      "stage": 4866,
      "stud": 4867,
      "stuff": 4868,
      "stony": 4869,
      "stumbled": 4870,
      "ley": 4871,
      "leak": 4872,
      "legra": 4873,
      "leaning": 4874,
      "legged": 4875,
      "lemme": 4876,
      "adv": 4877,
      "adow": 4878,
      "adam": 4879,
      "adoration": 4880,
      "adults": 4881,
      "sees": 4882,
      "secon": 4883,
      "seven": 4884,
      "secre": 4885,
      "secur": 4886,
      "sealed": 4887,
      "sews": 4888,
      "seize": 4889,
      "serene": 4890,
      "bees": 4891,
      "betook": 4892,
      "beating": 4893,
      "befriend": 4894,
      "becoming": 4895,
      "ids": 4896,
      "ckcloth": 4897,
      "imate": 4898,
      "immin": 4899,
      "imson": 4900,
      "imitations": 4901,
      "aye": 4902,
      "ays": 4903,
      "aying": 4904,
      "yous": 4905,
      "youth": 4906,
      "wig": 4907,
      "wick": 4908,
      "wipe": 4909,
      "wilted": 4910,
      "chir": 4911,
      "chalk": 4912,
      "charms": 4913,
      "chron": 4914,
      "ute": 4915,
      "uttle": 4916,
      "vers": 4917,
      "verge": 4918,
      "verdi": 4919,
      "uning": 4920,
      "unke": 4921,
      "unde": 4922,
      "unappe": 4923,
      "uneas": 4924,
      "unhappy": 4925,
      "unspeak": 4926,
      "unusual": 4927,
      "unknown": 4928,
      "unquestion": 4929,
      "unwound": 4930,
      "unrolled": 4931,
      "undecided": 4932,
      "unanim": 4933,
      "unav": 4934,
      "alac": 4935,
      "ality": 4936,
      "already": 4937,
      "althy": 4938,
      "aloft": 4939,
      "alia": 4940,
      "withstanding": 4941,
      "vet": 4942,
      "velt": 4943,
      "vement": 4944,
      "ents": 4945,
      "entlessly": 4946,
      "entitled": 4947,
      "oting": 4948,
      "otect": 4949,
      "cellar": 4950,
      "forms": 4951,
      "forgiven": 4952,
      "forbade": 4953,
      "forsook": 4954,
      "weir": 4955,
      "weep": 4956,
      "weap": 4957,
      "weeping": 4958,
      "wealthy": 4959,
      "irious": 4960,
      "irty": 4961,
      "irts": 4962,
      "irrit": 4963,
      "bored": 4964,
      "boast": 4965,
      "bolt": 4966,
      "boiled": 4967,
      "mellow": 4968,
      "meats": 4969,
      "oosa": 4970,
      "rill": 4971,
      "riage": 4972,
      "rift": 4973,
      "rified": 4974,
      "ricane": 4975,
      "lion": 4976,
      "lived": 4977,
      "lives": 4978,
      "libr": 4979,
      "licks": 4980,
      "liked": 4981,
      "liloqu": 4982,
      "upright": 4983,
      "upstream": 4984,
      "whom": 4985,
      "whir": 4986,
      "wharf": 4987,
      "keen": 4988,
      "keeper": 4989,
      "sacked": 4990,
      "savag": 4991,
      "sackcloth": 4992,
      "eting": 4993,
      "etry": 4994,
      "etern": 4995,
      "agin": 4996,
      "agree": 4997,
      "agement": 4998,
      "redible": 4999,
      "urable": 5000,
      "negle": 5001,
      "terate": 5002,
      "rod": 5003,
      "roam": 5004,
      "rocky": 5005,
      "rophe": 5006,
      "rogly": 5007,
      "sober": 5008,
      "soap": 5009,
      "sobb": 5010,
      "soaked": 5011,
      "soliloqu": 5012,
      "ioned": 5013,
      "ionless": 5014,
      "fere": 5015,
      "feared": 5016,
      "feature": 5017,
      "shif": 5018,
      "shold": 5019,
      "shine": 5020,
      "shap": 5021,
      "shaken": 5022,
      "mod": 5023,
      "moaning": 5024,
      "model": 5025,
      "modest": 5026,
      "abuse": 5027,
      "absur": 5028,
      "abused": 5029,
      "dear": 5030,
      "delu": 5031,
      "dewy": 5032,
      "declined": 5033,
      "pears": 5034,
      "pews": 5035,
      "peeping": 5036,
      "pecker": 5037,
      "noises": 5038,
      "notori": 5039,
      "novelt": 5040,
      "notwithstanding": 5041,
      "dodged": 5042,
      "ify": 5043,
      "lav": 5044,
      "lath": 5045,
      "lack": 5046,
      "lawn": 5047,
      "lacked": 5048,
      "labored": 5049,
      "hailed": 5050,
      "lod": 5051,
      "lose": 5052,
      "loss": 5053,
      "telegra": 5054,
      "ctu": 5055,
      "ctim": 5056,
      "rapt": 5057,
      "rapped": 5058,
      "raked": 5059,
      "wheat": 5060,
      "wheel": 5061,
      "ppi": 5062,
      "pper": 5063,
      "ppings": 5064,
      "resign": 5065,
      "resisted": 5066,
      "resurre": 5067,
      "rescue": 5068,
      "respond": 5069,
      "reserve": 5070,
      "restored": 5071,
      "indust": 5072,
      "indifference": 5073,
      "ustered": 5074,
      "anted": 5075,
      "antity": 5076,
      "antled": 5077,
      "hates": 5078,
      "arty": 5079,
      "artist": 5080,
      "astron": 5081,
      "astounding": 5082,
      "astrophe": 5083,
      "spac": 5084,
      "spare": 5085,
      "spile": 5086,
      "split": 5087,
      "fog": 5088,
      "foller": 5089,
      "folks": 5090,
      "conver": 5091,
      "conce": 5092,
      "constr": 5093,
      "conced": 5094,
      "consum": 5095,
      "constru": 5096,
      "constantly": 5097,
      "contained": 5098,
      "consisted": 5099,
      "iling": 5100,
      "ilst": 5101,
      "ility": 5102,
      "derision": 5103,
      "fudd": 5104,
      "ousness": 5105,
      "seek": 5106,
      "seeming": 5107,
      "seeking": 5108,
      "perman": 5109,
      "perform": 5110,
      "perceived": 5111,
      "performed": 5112,
      "persist": 5113,
      "percritical": 5114,
      "somewheres": 5115,
      "worry": 5116,
      "holy": 5117,
      "hopped": 5118,
      "hovered": 5119,
      "hostile": 5120,
      "hoarse": 5121,
      "hooting": 5122,
      "icals": 5123,
      "icines": 5124,
      "acity": 5125,
      "acul": 5126,
      "accompany": 5127,
      "aches": 5128,
      "West": 5129,
      "geogra": 5130,
      "comer": 5131,
      "combed": 5132,
      "complain": 5133,
      "using": 5134,
      "uscript": 5135,
      "downtown": 5136,
      "otherwise": 5137,
      "expres": 5138,
      "exceed": 5139,
      "exchanged": 5140,
      "excuse": 5141,
      "quit": 5142,
      "quack": 5143,
      "quaking": 5144,
      "quantity": 5145,
      "dying": 5146,
      "disg": 5147,
      "disting": 5148,
      "discourse": 5149,
      "display": 5150,
      "disgrace": 5151,
      "disjointed": 5152,
      "poem": 5153,
      "umb": 5154,
      "whiz": 5155,
      "whither": 5156,
      "whipping": 5157,
      "grating": 5158,
      "grasp": 5159,
      "grabbed": 5160,
      "whatever": 5161,
      "ateful": 5162,
      "veness": 5163,
      "affair": 5164,
      "blur": 5165,
      "blowing": 5166,
      "blushed": 5167,
      "blub": 5168,
      "glim": 5169,
      "glers": 5170,
      "glided": 5171,
      "glowing": 5172,
      "glittering": 5173,
      "mystic": 5174,
      "igue": 5175,
      "justice": 5176,
      "woes": 5177,
      "longed": 5178,
      "backs": 5179,
      "backed": 5180,
      "faith": 5181,
      "manly": 5182,
      "mansion": 5183,
      "manners": 5184,
      "manuscript": 5185,
      "ivered": 5186,
      "begged": 5187,
      "beginning": 5188,
      "handle": 5189,
      "understanding": 5190,
      "cannon": 5191,
      "canvassed": 5192,
      "official": 5193,
      "older": 5194,
      "strings": 5195,
      "blew": 5196,
      "bleeve": 5197,
      "medit": 5198,
      "medicines": 5199,
      "pleased": 5200,
      "ishable": 5201,
      "lighting": 5202,
      "elms": 5203,
      "pled": 5204,
      "plung": 5205,
      "plans": 5206,
      "goodnight": 5207,
      "Instantly": 5208,
      "iece": 5209,
      "scor": 5210,
      "scal": 5211,
      "scri": 5212,
      "scound": 5213,
      "scold": 5214,
      "scorn": 5215,
      "scaring": 5216,
      "scooped": 5217,
      "scheme": 5218,
      "scuttle": 5219,
      "tells": 5220,
      "howling": 5221,
      "headboard": 5222,
      "headquarters": 5223,
      "yourselves": 5224,
      "trip": 5225,
      "tribe": 5226,
      "trial": 5227,
      "tripping": 5228,
      "mightn": 5229,
      "mightily": 5230,
      "pressing": 5231,
      "pressure": 5232,
      "cob": 5233,
      "col": 5234,
      "coin": 5235,
      "coat": 5236,
      "coed": 5237,
      "cost": 5238,
      "colt": 5239,
      "coated": 5240,
      "coins": 5241,
      "cogit": 5242,
      "print": 5243,
      "prime": 5244,
      "prancing": 5245,
      "protect": 5246,
      "hypercritical": 5247,
      "breaking": 5248,
      "breathed": 5249,
      "thoughtful": 5250,
      "Siddy": 5251,
      "lowed": 5252,
      "lower": 5253,
      "tender": 5254,
      "wardrobe": 5255,
      "proved": 5256,
      "proclaim": 5257,
      "prospect": 5258,
      "proposed": 5259,
      "prophe": 5260,
      "provided": 5261,
      "rences": 5262,
      "rowed": 5263,
      "ortly": 5264,
      "beds": 5265,
      "bedside": 5266,
      "bedroom": 5267,
      "bedpost": 5268,
      "clump": 5269,
      "clanging": 5270,
      "clergy": 5271,
      "paid": 5272,
      "store": 5273,
      "stock": 5274,
      "stolid": 5275,
      "lasted": 5276,
      "gaudy": 5277,
      "gazing": 5278,
      "speaking": 5279,
      "chedness": 5280,
      "ruined": 5281,
      "greatly": 5282,
      "ledge": 5283,
      "drear": 5284,
      "assist": 5285,
      "build": 5286,
      "sidewalk": 5287,
      "whiskers": 5288,
      "wellnigh": 5289,
      "distract": 5290,
      "distressed": 5291,
      "distraction": 5292,
      "smiled": 5293,
      "stooped": 5294,
      "thinks": 5295,
      "homeless": 5296,
      "sleeve": 5297,
      "fortnight": 5298,
      "fortified": 5299,
      "working": 5300,
      "size": 5301,
      "sibly": 5302,
      "siveness": 5303,
      "halfway": 5304,
      "estone": 5305,
      "grape": 5306,
      "graves": 5307,
      "laying": 5308,
      "mises": 5309,
      "mistake": 5310,
      "mission": 5311,
      "inton": 5312,
      "intent": 5313,
      "intently": 5314,
      "intended": 5315,
      "intending": 5316,
      "created": 5317,
      "crevices": 5318,
      "parting": 5319,
      "partly": 5320,
      "swarm": 5321,
      "swaller": 5322,
      "jog": 5323,
      "jolly": 5324,
      "joining": 5325,
      "joyous": 5326,
      "matic": 5327,
      "matches": 5328,
      "ransom": 5329,
      "ranks": 5330,
      "ransacked": 5331,
      "armies": 5332,
      "keeps": 5333,
      "happiest": 5334,
      "appet": 5335,
      "applic": 5336,
      "apparent": 5337,
      "chest": 5338,
      "checked": 5339,
      "chewing": 5340,
      "flirt": 5341,
      "flinders": 5342,
      "singing": 5343,
      "ventured": 5344,
      "winding": 5345,
      "windfall": 5346,
      "catastrophe": 5347,
      "drown": 5348,
      "piratical": 5349,
      "sweep": 5350,
      "silk": 5351,
      "sooner": 5352,
      "denly": 5353,
      "denial": 5354,
      "stands": 5355,
      "counsel": 5356,
      "county": 5357,
      "countries": 5358,
      "dropping": 5359,
      "sets": 5360,
      "President": 5361,
      "worlds": 5362,
      "sleepy": 5363,
      "march": 5364,
      "marred": 5365,
      "marvels": 5366,
      "Harpers": 5367,
      "effu": 5368,
      "iples": 5369,
      "iplied": 5370,
      "member": 5371,
      "means": 5372,
      "meaning": 5373,
      "drive": 5374,
      "obtr": 5375,
      "smother": 5376,
      "warmed": 5377,
      "ignor": 5378,
      "dreamy": 5379,
      "servant": 5380,
      "trump": 5381,
      "traded": 5382,
      "trading": 5383,
      "tainly": 5384,
      "fleeting": 5385,
      "hurled": 5386,
      "hurricane": 5387,
      "latest": 5388,
      "compens": 5389,
      "position": 5390,
      "blaze": 5391,
      "blazed": 5392,
      "months": 5393,
      "attack": 5394,
      "attend": 5395,
      "attitude": 5396,
      "choir": 5397,
      "choke": 5398,
      "choice": 5399,
      "acted": 5400,
      "actually": 5401,
      "murky": 5402,
      "south": 5403,
      "suppor": 5404,
      "remot": 5405,
      "remote": 5406,
      "remorse": 5407,
      "ERE": 5408,
      "brain": 5409,
      "brown": 5410,
      "brook": 5411,
      "brist": 5412,
      "brisk": 5413,
      "fined": 5414,
      "finish": 5415,
      "frivol": 5416,
      "fireplace": 5417,
      "firecrack": 5418,
      "clew": 5419,
      "cleared": 5420,
      "curve": 5421,
      "taught": 5422,
      "yew": 5423,
      "stantial": 5424,
      "stantinople": 5425,
      "shoal": 5426,
      "shovels": 5427,
      "eyeball": 5428,
      "matters": 5429,
      "circle": 5430,
      "cussed": 5431,
      "prev": 5432,
      "prepar": 5433,
      "preacher": 5434,
      "preval": 5435,
      "prepared": 5436,
      "premises": 5437,
      "streak": 5438,
      "appear": 5439,
      "appeal": 5440,
      "friendless": 5441,
      "float": 5442,
      "flocked": 5443,
      "flogged": 5444,
      "pierced": 5445,
      "ssy": 5446,
      "signal": 5447,
      "tinted": 5448,
      "boards": 5449,
      "gravel": 5450,
      "gravely": 5451,
      "crimson": 5452,
      "clam": 5453,
      "claws": 5454,
      "clawed": 5455,
      "clamor": 5456,
      "genial": 5457,
      "lane": 5458,
      "lanes": 5459,
      "tram": 5460,
      "trap": 5461,
      "tract": 5462,
      "travel": 5463,
      "tempor": 5464,
      "dili": 5465,
      "listeners": 5466,
      "undressed": 5467,
      "pulled": 5468,
      "puzz": 5469,
      "pushing": 5470,
      "prizes": 5471,
      "sins": 5472,
      "rivers": 5473,
      "pansy": 5474,
      "roundings": 5475,
      "gladness": 5476,
      "satisfy": 5477,
      "merry": 5478,
      "surface": 5479,
      "surveyed": 5480,
      "surroundings": 5481,
      "stayed": 5482,
      "bowl": 5483,
      "bowie": 5484,
      "frantic": 5485,
      "guid": 5486,
      "gush": 5487,
      "guilt": 5488,
      "liter": 5489,
      "sentiment": 5490,
      "visible": 5491,
      "visited": 5492,
      "visiting": 5493,
      "licity": 5494,
      "barrow": 5495,
      "barrel": 5496,
      "crippled": 5497,
      "famous": 5498,
      "famished": 5499,
      "gingerly": 5500,
      "helpless": 5501,
      "helplessly": 5502,
      "pretending": 5503,
      "witches": 5504,
      "regalia": 5505,
      "meantime": 5506,
      "biggest": 5507,
      "grieve": 5508,
      "ostent": 5509,
      "sunshine": 5510,
      "writes": 5511,
      "walks": 5512,
      "subsid": 5513,
      "wonderful": 5514,
      "wonderfully": 5515,
      "badly": 5516,
      "horrid": 5517,
      "hundreds": 5518,
      "pattern": 5519,
      "sensibly": 5520,
      "slipping": 5521,
      "treetops": 5522,
      "ancient": 5523,
      "additions": 5524,
      "captain": 5525,
      "captive": 5526,
      "captivity": 5527,
      "dreading": 5528,
      "paralyzed": 5529,
      "toned": 5530,
      "twig": 5531,
      "stripped": 5532,
      "shoutings": 5533,
      "noticing": 5534,
      "gratification": 5535,
      "watchman": 5536,
      "passion": 5537,
      "interfered": 5538,
      "interfere": 5539,
      "threshold": 5540,
      "allowing": 5541,
      "peacefully": 5542,
      "ressive": 5543,
      "expanded": 5544,
      "blackness": 5545,
      "blackboard": 5546,
      "....": 5547,
      "bald": 5548,
      "evous": 5549,
      "finest": 5550,
      "ivities": 5551,
      "usually": 5552,
      "fairly": 5553,
      "skiffs": 5554,
      "remembering": 5555,
      "Once": 5556,
      "Somehow": 5557,
      "Saturdays": 5558,
      "cutting": 5559,
      "centre": 5560,
      "dumped": 5561,
      "dumps": 5562,
      "fighting": 5563,
      "garret": 5564,
      "hideous": 5565,
      "labboard": 5566,
      "musings": 5567,
      "muscle": 5568,
      "oppos": 5569,
      "oppressive": 5570,
      "painful": 5571,
      "vastly": 5572,
      "throned": 5573,
      "thunderbolt": 5574,
      "topmost": 5575,
      "imagined": 5576,
      "weaker": 5577,
      "weakness": 5578,
      "licking": 5579,
      "speaker": 5580,
      "stealthy": 5581,
      "sermons": 5582,
      "cross_": 5583,
      "Shall": 5584,
      "Shucks": 5585,
      "Shortly": 5586,
      "XXII": 5587,
      "casting": 5588,
      "gleam": 5589,
      "huzz": 5590,
      "knelt": 5591,
      "luc": 5592,
      "lux": 5593,
      "limbs": 5594,
      "limestone": 5595,
      "slack": 5596,
      "slathers": 5597,
      "sque": 5598,
      "squir": 5599,
      "reasons": 5600,
      "threaded": 5601,
      "ensive": 5602,
      "solemnities": 5603,
      "campfire": 5604,
      "vengeance": 5605,
      "efforts": 5606,
      "remarked": 5607,
      "THERE": 5608,
      "judicial": 5609,
      "knocked": 5610,
      "phics": 5611,
      "phreno": 5612,
      "incidents": 5613,
      "incredible": 5614,
      "reveal": 5615,
      "reverent": 5616,
      "needn": 5617,
      "needles": 5618,
      "roads": 5619,
      "fearful": 5620,
      "persons": 5621,
      "personating": 5622,
      "quartering": 5623,
      "quarrel": 5624,
      "points": 5625,
      "grandly": 5626,
      "grandmothers": 5627,
      "gratefully": 5628,
      "mysteriously": 5629,
      "streaming": 5630,
      "sorrowfully": 5631,
      "doubtless": 5632,
      "explored": 5633,
      "explosion": 5634,
      "Often": 5635,
      "States": 5636,
      "dares": 5637,
      "dazz": 5638,
      "flapped": 5639,
      "flaming": 5640,
      "mumble": 5641,
      "pupil": 5642,
      "pulse": 5643,
      "pulses": 5644,
      "raging": 5645,
      "sickness": 5646,
      "vanqu": 5647,
      "value": 5648,
      "valued": 5649,
      "yearning": 5650,
      "anxiously": 5651,
      "relentlessly": 5652,
      "relieved": 5653,
      "revengeful": 5654,
      "metal": 5655,
      "safely": 5656,
      "toothache": 5657,
      "committed": 5658,
      "communing": 5659,
      "discipl": 5660,
      "disciples": 5661,
      "dismantled": 5662,
      "pleasan": 5663,
      "pleasurable": 5664,
      "courtroom": 5665,
      "straightened": 5666,
      "Goodmorning": 5667,
      "barely": 5668,
      "branched": 5669,
      "branches": 5670,
      "calcul": 5671,
      "mourned": 5672,
      "punishment": 5673,
      "sneeze": 5674,
      "vicious": 5675,
      "victory": 5676,
      "vicinity": 5677,
      "separate": 5678,
      "testifying": 5679,
      "planned": 5680,
      "prisoners": 5681,
      "proceedings": 5682,
      "brothers": 5683,
      "cheerily": 5684,
      "cheerfulness": 5685,
      "consciousness": 5686,
      "funerals": 5687,
      "succession": 5688,
      "successful": 5689,
      "Anyway": 5690,
      "Anybody": 5691,
      "Constantinople": 5692,
      "auspic": 5693,
      "highest": 5694,
      "kisses": 5695,
      "kites": 5696,
      "titter": 5697,
      "various": 5698,
      "replied": 5699,
      "stroke": 5700,
      "strokes": 5701,
      "chatter": 5702,
      "chattering": 5703,
      "chapter": 5704,
      "whooping": 5705,
      "fellows": 5706,
      "absorbing": 5707,
      "composition": 5708,
      "whipped_": 5709,
      "property": 5710,
      "papers": 5711,
      "companions": 5712,
      "citizen": 5713,
      "sufferings": 5714,
      "griefs": 5715,
      "spectacles": 5716,
      "particularly": 5717,
      "occasioned": 5718,
      "occasional": 5719,
      "familiarity": 5720,
      "fashioned": 5721,
      "neighborhood": 5722,
      "conspicuously": 5723,
      "Dead": 5724,
      "Model": 5725,
      "Which": 5726,
      "brave": 5727,
      "blessings": 5728,
      "damaging": 5729,
      "eventually": 5730,
      "harmony": 5731,
      "jealous": 5732,
      "loud": 5733,
      "moral": 5734,
      "morrow": 5735,
      "moodily": 5736,
      "odds": 5737,
      "pursuit": 5738,
      "belongs": 5739,
      "necktie": 5740,
      "hammering": 5741,
      "haunts": 5742,
      "perplexity": 5743,
      "examination": 5744,
      "blowed": 5745,
      "emplo": 5746,
      "anguish": 5747,
      "possessed": 5748,
      "divide": 5749,
      "corridors": 5750,
      "robbery": 5751,
      "gentlemen": 5752,
      "recognition": 5753,
      "Scripture": 5754,
      "Uncle": 5755,
      "United": 5756,
      "furnish": 5757,
      "furniture": 5758,
      "studying": 5759,
      "ketch": 5760,
      "terrific": 5761,
      "buttoned": 5762,
      "delirious": 5763,
      "delightful": 5764,
      "depressing": 5765,
      "suspended": 5766,
      "contentment": 5767,
      "combat": 5768,
      "compliment": 5769,
      "commonplace": 5770,
      "disappointed": 5771,
      "blankets": 5772,
      "glorified": 5773,
      "glowed": 5774,
      "straggling": 5775,
      "stragglers": 5776,
      "clouds": 5777,
      "distinction": 5778,
      "missis": 5779,
      "sweetmeats": 5780,
      "torture": 5781,
      "possibilities": 5782,
      "mourners": 5783,
      "Mississi": 5784,
      "averted": 5785,
      "avoid": 5786,
      "avoided": 5787,
      "cruelly": 5788,
      "dramatic": 5789,
      "egg": 5790,
      "echoing": 5791,
      "frame": 5792,
      "fraud": 5793,
      "goners": 5794,
      "garden": 5795,
      "hooks": 5796,
      "mortal": 5797,
      "mortified": 5798,
      "machine": 5799,
      "parent": 5800,
      "slightest": 5801,
      "swelled": 5802,
      "tangled": 5803,
      "victim": 5804,
      "invitations": 5805,
      "rearward": 5806,
      "tolerably": 5807,
      "advantages": 5808,
      "chilly": 5809,
      "merely": 5810,
      "measles": 5811,
      "alloy": 5812,
      "ripple": 5813,
      "rippled": 5814,
      "liquid": 5815,
      "nearest": 5816,
      "shingle": 5817,
      "conducted": 5818,
      "amounted": 5819,
      "acquire": 5820,
      "queer": 5821,
      "discouraging": 5822,
      "scratch": 5823,
      "produce": 5824,
      "produced": 5825,
      "rudely": 5826,
      "rubbish": 5827,
      "rubbage": 5828,
      "steamboat": 5829,
      "hopelessness": 5830,
      "customary": 5831,
      "promptly": 5832,
      "admirable": 5833,
      "confessed": 5834,
      "confession": 5835,
      "characters": 5836,
      "delivering": 5837,
      "climbing": 5838,
      "juveniles": 5839,
      "tiptoeing": 5840,
      "fascin": 5841,
      "fascination": 5842,
      "Forest": 5843,
      "Fourth": 5844,
      "_she_": 5845,
      "balance": 5846,
      "bags": 5847,
      "cases": 5848,
      "equalled": 5849,
      "fondled": 5850,
      "habit": 5851,
      "kicking": 5852,
      "mountains": 5853,
      "oaths": 5854,
      "pistol": 5855,
      "pistols": 5856,
      "pardon": 5857,
      "practise": 5858,
      "practised": 5859,
      "smeared": 5860,
      "tugged": 5861,
      "tugging": 5862,
      "wrath": 5863,
      "wrapped": 5864,
      "inspection": 5865,
      "inquests": 5866,
      "relaxed": 5867,
      "relapse": 5868,
      "regret": 5869,
      "regrets": 5870,
      "encouragement": 5871,
      "enjoyment": 5872,
      "stunned": 5873,
      "sexes": 5874,
      "bodings": 5875,
      "bodies": 5876,
      "neatly": 5877,
      "sheepishly": 5878,
      "nodding": 5879,
      "consented": 5880,
      "consists": 5881,
      "persuas": 5882,
      "accident": 5883,
      "according": 5884,
      "comforted": 5885,
      "blinding": 5886,
      "plausible": 5887,
      "provision": 5888,
      "provisions": 5889,
      "describe": 5890,
      "described": 5891,
      "snuffling": 5892,
      "brimful": 5893,
      "guards": 5894,
      "threatening": 5895,
      "anticipations": 5896,
      "calmly": 5897,
      "tranquil": 5898,
      "tranquilly": 5899,
      "magnific": 5900,
      "ecstasy": 5901,
      "ecstasies": 5902,
      "vigorously": 5903,
      "originality": 5904,
      "ABOU": 5905,
      "Early": 5906,
      "Gracie": 5907,
      "Smarty": 5908,
      "Spunk": 5909,
      "Speak": 5910,
      "Susy": 5911,
      "Spirit": 5912,
      "True": 5913,
      "White": 5914,
      "_You_": 5915,
      "bloom": 5916,
      "dasn": 5917,
      "dignified": 5918,
      "econom": 5919,
      "fangled": 5920,
      "figure": 5921,
      "hastened": 5922,
      "listlessly": 5923,
      "mutual": 5924,
      "rattles": 5925,
      "tights": 5926,
      "tourists": 5927,
      "wisest": 5928,
      "wretchedness": 5929,
      "yelp": 5930,
      "healing": 5931,
      "initiation": 5932,
      "references": 5933,
      "required": 5934,
      "resembled": 5935,
      "religious": 5936,
      "issued": 5937,
      "staggered": 5938,
      "beamed": 5939,
      "chimney": 5940,
      "choked": 5941,
      "uncertainty": 5942,
      "upsetting": 5943,
      "society": 5944,
      "shorten": 5945,
      "shabbier": 5946,
      "shackles": 5947,
      "degree": 5948,
      "delayed": 5949,
      "destruction": 5950,
      "illuminated": 5951,
      "succeeding": 5952,
      "suggested": 5953,
      "lamb": 5954,
      "lapel": 5955,
      "conveniently": 5956,
      "contributed": 5957,
      "concluded": 5958,
      "timidly": 5959,
      "periodicals": 5960,
      "amusement": 5961,
      "hospitality": 5962,
      "overwhelming": 5963,
      "exalted": 5964,
      "exhausted": 5965,
      "exploring": 5966,
      "expedition": 5967,
      "quivering": 5968,
      "polite": 5969,
      "favorite": 5970,
      "handsomely": 5971,
      "emotion": 5972,
      "elaborately": 5973,
      "plastered": 5974,
      "score": 5975,
      "scrawled": 5976,
      "trifles": 5977,
      "prodigious": 5978,
      "special": 5979,
      "multiplied": 5980,
      "treacherous": 5981,
      "switch": 5982,
      "piracies": 5983,
      "skipping": 5984,
      "counterfe": 5985,
      "burglar": 5986,
      "tradition": 5987,
      "trunks": 5988,
      "compassion": 5989,
      "brooding": 5990,
      "sumptuous": 5991,
      "important": 5992,
      "flogging": 5993,
      "genuine": 5994,
      "traversed": 5995,
      "guessed": 5996,
      "humiliation": 5997,
      "frequently": 5998,
      "heavily": 5999,
      "passengers": 6000,
      "detected": 6001,
      "judgment": 6002,
      "entertainment": 6003,
      "concerns": 6004,
      "privileges": 6005,
      "thoroughly": 6006,
      "stalagmite": 6007,
      "stalactites": 6008,
      "exhibited": 6009,
      "Profound": 6010,
      "_any_body": 6011,
      "America": 6012,
      "Alabama": 6013,
      "BECK": 6014,
      "Better": 6015,
      "Certainly": 6016,
      "George": 6017,
      "German": 6018,
      "General": 6019,
      "Hardly": 6020,
      "Illinois": 6021,
      "Little": 6022,
      "Lemme": 6023,
      "Meadow": 6024,
      "People": 6025,
      "Perhaps": 6026,
      "Pirate": 6027,
      "Sherwood": 6028,
      "Shake": 6029,
      "Suddenly": 6030,
      "Those": 6031,
      "THAT": 6032,
      "_he_": 6033,
      "_was_": 6034,
      "_that_": 6035,
      "_all_": 6036,
      "_they_": 6037,
      "_could_": 6038,
      "_know_": 6039,
      "_have_": 6040,
      "_like_": 6041,
      "_say_": 6042,
      "_course_": 6043,
      "_bad_": 6044,
      "august": 6045,
      "bunch": 6046,
      "benediction": 6047,
      "coffee": 6048,
      "coffin": 6049,
      "dusk": 6050,
      "ejacul": 6051,
      "festo": 6052,
      "frescoed": 6053,
      "frenzy": 6054,
      "fruit": 6055,
      "fringed": 6056,
      "flickering": 6057,
      "gouging": 6058,
      "jingo": 6059,
      "mamma": 6060,
      "mutterings": 6061,
      "packed": 6062,
      "poverty": 6063,
      "scanned": 6064,
      "slender": 6065,
      "slouch": 6066,
      "taste": 6067,
      "tete": 6068,
      "vitals": 6069,
      "vulgar": 6070,
      "vindictive": 6071,
      "wagon": 6072,
      "inveterate": 6073,
      "insignific": 6074,
      "inhabited": 6075,
      "released": 6076,
      "recreations": 6077,
      "reluct": 6078,
      "attorney": 6079,
      "tobacco": 6080,
      "ashamed": 6081,
      "enabled": 6082,
      "encountered": 6083,
      "enthusiasm": 6084,
      "argument": 6085,
      "seconds": 6086,
      "secrecy": 6087,
      "security": 6088,
      "chronic": 6089,
      "verdict": 6090,
      "unkempt": 6091,
      "undefined": 6092,
      "unappeasable": 6093,
      "uneasiness": 6094,
      "unquestionably": 6095,
      "unavailing": 6096,
      "alacrity": 6097,
      "forgiveness": 6098,
      "weird": 6099,
      "eternity": 6100,
      "neglected": 6101,
      "roglyphics": 6102,
      "sobbing": 6103,
      "soliloquized": 6104,
      "shift": 6105,
      "shaped": 6106,
      "absurd": 6107,
      "deluge": 6108,
      "notoriety": 6109,
      "telegraph": 6110,
      "responded": 6111,
      "industry": 6112,
      "astronomer": 6113,
      "spacious": 6114,
      "consuming": 6115,
      "fuddled": 6116,
      "persistently": 6117,
      "accompanying": 6118,
      "geography": 6119,
      "exceedingly": 6120,
      "distingu": 6121,
      "blubber": 6122,
      "cogitating": 6123,
      "clergyman": 6124,
      "distracting": 6125,
      "application": 6126,
      "apparently": 6127,
      "trumpet": 6128,
      "supported": 6129,
      "bristling": 6130,
      "briskly": 6131,
      "firecracker": 6132,
      "eyeballs": 6133,
      "preparation": 6134,
      "prevalent": 6135,
      "puzzled": 6136,
      "huzzah": 6137,
      "phrenolog": 6138,
      "dazzling": 6139,
      "discipline": 6140,
      "calculated": 6141,
      "Mississippi": 6142,
      "ABOUT": 6143,
      "BECKY": 6144,
      "ejaculations": 6145,
      "!)": 6146,
      "\"]": 6147,
      "'.": 6148,
      ",--": 6149,
      ".--": 6150,
      ":--": 6151,
      "AF": 6152,
      "AL": 6153,
      "AS": 6154,
      "AU": 6155,
      "Ar": 6156,
      "Aw": 6157,
      "Aur": 6158,
      "Ado": 6159,
      "Aha": 6160,
      "Aust": 6161,
      "Agre": 6162,
      "Alad": 6163,
      "Around": 6164,
      "Afeard": 6165,
      "AMA": 6166,
      "ARE": 6167,
      "Acade": 6168,
      "Assy": 6169,
      "Bi": 6170,
      "Bl": 6171,
      "Bre": 6172,
      "Bit": 6173,
      "Bes": 6174,
      "Bent": 6175,
      "Bout": 6176,
      "Bro": 6177,
      "Bill": 6178,
      "Book": 6179,
      "Bother": 6180,
      "Bak": 6181,
      "Burn": 6182,
      "Buff": 6183,
      "Blan": 6184,
      "Brit": 6185,
      "Baby": 6186,
      "Billy": 6187,
      "Bringing": 6188,
      "Che": 6189,
      "Com": 6190,
      "Cad": 6191,
      "Clo": 6192,
      "Cra": 6193,
      "Cure": 6194,
      "Cold": 6195,
      "Chur": 6196,
      "Came": 6197,
      "Cave": 6198,
      "Cult": 6199,
      "Col": 6200,
      "CON": 6201,
      "Cert": 6202,
      "Comp": 6203,
      "Coon": 6204,
      "Curious": 6205,
      "Coosa": 6206,
      "Da": 6207,
      "Dr": 6208,
      "Dan": 6209,
      "Dat": 6210,
      "Dad": 6211,
      "Des": 6212,
      "Done": 6213,
      "Dam": 6214,
      "Dark": 6215,
      "Draw": 6216,
      "Danger": 6217,
      "Dili": 6218,
      "Dying": 6219,
      "Delect": 6220,
      "Dares": 6221,
      "Dern": 6222,
      "DEN": 6223,
      "Days": 6224,
      "EL": 6225,
      "ES": 6226,
      "Ev": 6227,
      "Ele": 6228,
      "Eden": 6229,
      "Fat": 6230,
      "Fis": 6231,
      "Far": 6232,
      "Fir": 6233,
      "Fri": 6234,
      "Fet": 6235,
      "Fight": 6236,
      "Fra": 6237,
      "Find": 6238,
      "Five": 6239,
      "Fort": 6240,
      "Fire": 6241,
      "Fili": 6242,
      "Father": 6243,
      "Frank": 6244,
      "FAC": 6245,
      "FARE": 6246,
      "Git": 6247,
      "Gut": 6248,
      "Gir": 6249,
      "Gro": 6250,
      "Gho": 6251,
      "Gover": 6252,
      "Gals": 6253,
      "Great": 6254,
      "Gimme": 6255,
      "Hi": 6256,
      "Hand": 6257,
      "Has": 6258,
      "Had": 6259,
      "Him": 6260,
      "Hot": 6261,
      "Hoo": 6262,
      "Hur": 6263,
      "Hain": 6264,
      "Hive": 6265,
      "Hang": 6266,
      "Hark": 6267,
      "Happ": 6268,
      "Hundred": 6269,
      "HEN": 6270,
      "Hush": 6271,
      "Hateful": 6272,
      "IN": 6273,
      "IS": 6274,
      "ITH": 6275,
      "Imag": 6276,
      "IDEN": 6277,
      "Ju": 6278,
      "June": 6279,
      "Kill": 6280,
      "Kings": 6281,
      "Li": 6282,
      "Lo": 6283,
      "Lat": 6284,
      "Lay": 6285,
      "Luck": 6286,
      "Long": 6287,
      "Last": 6288,
      "Lex": 6289,
      "Lie": 6290,
      "Luff": 6291,
      "Lively": 6292,
      "Ma": 6293,
      "Mf": 6294,
      "Man": 6295,
      "Mer": 6296,
      "Mar": 6297,
      "Mut": 6298,
      "Mur": 6299,
      "Mother": 6300,
      "Mem": 6301,
      "Mel": 6302,
      "Mark": 6303,
      "Morn": 6304,
      "Moun": 6305,
      "Money": 6306,
      "Mister": 6307,
      "Mph": 6308,
      "Mont": 6309,
      "Much": 6310,
      "MIS": 6311,
      "Ne": 6312,
      "Ni": 6313,
      "None": 6314,
      "Night": 6315,
      "Nation": 6316,
      "Nance": 6317,
      "Near": 6318,
      "Nuff": 6319,
      "Name": 6320,
      "Nations": 6321,
      "Nearly": 6322,
      "OR": 6323,
      "OS": 6324,
      "Ole": 6325,
      "Out": 6326,
      "Off": 6327,
      "Open": 6328,
      "Pu": 6329,
      "Py": 6330,
      "Pow": 6331,
      "Put": 6332,
      "Pal": 6333,
      "Pro": 6334,
      "Pard": 6335,
      "Pity": 6336,
      "Port": 6337,
      "Pret": 6338,
      "Play": 6339,
      "Prose": 6340,
      "Pray": 6341,
      "Praise": 6342,
      "PRE": 6343,
      "Piece": 6344,
      "RI": 6345,
      "Ri": 6346,
      "Res": 6347,
      "Rome": 6348,
      "Reven": 6349,
      "Rest": 6350,
      "Rev": 6351,
      "Rav": 6352,
      "RDAY": 6353,
      "Rubb": 6354,
      "SO": 6355,
      "Sw": 6356,
      "Sat": 6357,
      "Ser": 6358,
      "Sen": 6359,
      "Sad": 6360,
      "Sir": 6361,
      "Sup": 6362,
      "Set": 6363,
      "Stoo": 6364,
      "Sever": 6365,
      "Sil": 6366,
      "Sac": 6367,
      "Spl": 6368,
      "Spr": 6369,
      "Sally": 6370,
      "Stre": 6371,
      "Scat": 6372,
      "Stor": 6373,
      "Shi": 6374,
      "Save": 6375,
      "Scr": 6376,
      "South": 6377,
      "Sigh": 6378,
      "Sec": 6379,
      "SAT": 6380,
      "Sache": 6381,
      "SOU": 6382,
      "Stopped": 6383,
      "TE": 6384,
      "TU": 6385,
      "Tw": 6386,
      "Tin": 6387,
      "Twas": 6388,
      "Twi": 6389,
      "Tro": 6390,
      "Tra": 6391,
      "Twon": 6392,
      "Test": 6393,
      "Up": 6394,
      "Und": 6395,
      "USION": 6396,
      "URDAY": 6397,
      "Vac": 6398,
      "VAC": 6399,
      "Won": 6400,
      "Wat": 6401,
      "Wit": 6402,
      "Wor": 6403,
      "Way": 6404,
      "Ward": 6405,
      "Word": 6406,
      "Washing": 6407,
      "WEL": 6408,
      "WHEN": 6409,
      "WITH": 6410,
      "XI": 6411,
      "XVII": 6412,
      "XIV": 6413,
      "XVI": 6414,
      "XVIII": 6415,
      "XIX": 6416,
      "Yi": 6417,
      "_on": 6418,
      "_to": 6419,
      "_with": 6420,
      "_had": 6421,
      "_said": 6422,
      "_boy": 6423,
      "_this": 6424,
      "_ever": 6425,
      "_see": 6426,
      "_some": 6427,
      "_then": 6428,
      "_their": 6429,
      "_self": 6430,
      "_us": 6431,
      "_They": 6432,
      "_my": 6433,
      "_back": 6434,
      "_man": 6435,
      "_Be": 6436,
      "_can": 6437,
      "_No": 6438,
      "_old": 6439,
      "_That": 6440,
      "_its": 6441,
      "_your": 6442,
      "_won": 6443,
      "_There": 6444,
      "_bet": 6445,
      "_Sid": 6446,
      "_bed": 6447,
      "_always": 6448,
      "_dead": 6449,
      "_think": 6450,
      "_seemed": 6451,
      "_much": 6452,
      "_anything": 6453,
      "_work": 6454,
      "_make": 6455,
      "_wouldn": 6456,
      "_This": 6457,
      "_done": 6458,
      "_sing": 6459,
      "_didn": 6460,
      "_stand": 6461,
      "_matter": 6462,
      "_Don": 6463,
      "_has": 6464,
      "_stay": 6465,
      "_shall": 6466,
      "_strong": 6467,
      "_talking": 6468,
      "_Do": 6469,
      "_best": 6470,
      "_saying": 6471,
      "_human": 6472,
      "_live": 6473,
      "_blood": 6474,
      "_ee": 6475,
      "_revenge": 6476,
      "_honest": 6477,
      "_deaf": 6478,
      "_horse": 6479,
      "_An": 6480,
      "_Their": 6481,
      "_Your": 6482,
      "_lordy": 6483,
      "_settle": 6484,
      "_obliged": 6485,
      "_Ain": 6486,
      "_Horse": 6487,
      "_stray": 6488,
      "_facing": 6489,
      "_Somebody": 6490,
      "_lively": 6491,
      "_Might": 6492,
      "_gild": 6493,
      "_nut": 6494,
      "_vous": 6495,
      "_yew": 6496,
      "_tempor": 6497,
      "_cross_": 6498,
      "_Bl": 6499,
      "_Find": 6500,
      "_Great": 6501,
      "_Hi": 6502,
      "ai": 6503,
      "ale": 6504,
      "aim": 6505,
      "ape": 6506,
      "aper": 6507,
      "ales": 6508,
      "aved": 6509,
      "action": 6510,
      "athings": 6511,
      "aboard": 6512,
      "axed": 6513,
      "bon": 6514,
      "bis": 6515,
      "bill": 6516,
      "bight": 6517,
      "bend": 6518,
      "baf": 6519,
      "bure": 6520,
      "bble": 6521,
      "bang": 6522,
      "bree": 6523,
      "bber": 6524,
      "born": 6525,
      "bough": 6526,
      "bated": 6527,
      "boun": 6528,
      "bass": 6529,
      "bbu": 6530,
      "bwork": 6531,
      "baking": 6532,
      "bster": 6533,
      "braid": 6534,
      "bagged": 6535,
      "bstone": 6536,
      "block": 6537,
      "baying": 6538,
      "cun": 6539,
      "cot": 6540,
      "coo": 6541,
      "cli": 6542,
      "cca": 6543,
      "cres": 6544,
      "cil": 6545,
      "cous": 6546,
      "cles": 6547,
      "cure": 6548,
      "crest": 6549,
      "cret": 6550,
      "cated": 6551,
      "cip": 6552,
      "cash": 6553,
      "cations": 6554,
      "cified": 6555,
      "cals": 6556,
      "ciful": 6557,
      "clip": 6558,
      "dand": 6559,
      "dad": 6560,
      "dent": 6561,
      "dup": 6562,
      "dag": 6563,
      "duck": 6564,
      "dil": 6565,
      "dess": 6566,
      "dick": 6567,
      "dance": 6568,
      "dough": 6569,
      "dily": 6570,
      "dened": 6571,
      "daunt": 6572,
      "diz": 6573,
      "dried": 6574,
      "dip": 6575,
      "dates": 6576,
      "dimes": 6577,
      "danced": 6578,
      "dges": 6579,
      "dding": 6580,
      "darling": 6581,
      "dirty": 6582,
      "ez": 6583,
      "ean": 6584,
      "ere": 6585,
      "eed": 6586,
      "eld": 6587,
      "eous": 6588,
      "ecl": 6589,
      "eged": 6590,
      "eath": 6591,
      "eves": 6592,
      "etor": 6593,
      "eased": 6594,
      "ereal": 6595,
      "ecut": 6596,
      "ections": 6597,
      "epest": 6598,
      "elapsed": 6599,
      "fis": 6600,
      "fit": 6601,
      "fen": 6602,
      "fow": 6603,
      "fid": 6604,
      "fal": 6605,
      "fli": 6606,
      "fant": 6607,
      "fry": 6608,
      "fil": 6609,
      "fick": 6610,
      "fade": 6611,
      "freck": 6612,
      "fling": 6613,
      "fering": 6614,
      "file": 6615,
      "fist": 6616,
      "fired": 6617,
      "fraid": 6618,
      "fagged": 6619,
      "fters": 6620,
      "fans": 6621,
      "fought": 6622,
      "flaws": 6623,
      "fountain": 6624,
      "fences": 6625,
      "frying": 6626,
      "fitten": 6627,
      "fists": 6628,
      "fateful": 6629,
      "gin": 6630,
      "gat": 6631,
      "gas": 6632,
      "goo": 6633,
      "gif": 6634,
      "gaw": 6635,
      "gig": 6636,
      "gence": 6637,
      "gits": 6638,
      "gings": 6639,
      "gable": 6640,
      "gated": 6641,
      "gering": 6642,
      "gger": 6643,
      "gals": 6644,
      "gagged": 6645,
      "ghest": 6646,
      "gasp": 6647,
      "ggles": 6648,
      "gwine": 6649,
      "hay": 6650,
      "hun": 6651,
      "hound": 6652,
      "hic": 6653,
      "hus": 6654,
      "hick": 6655,
      "hance": 6656,
      "horn": 6657,
      "huff": 6658,
      "hinted": 6659,
      "harp": 6660,
      "housed": 6661,
      "iot": 6662,
      "ius": 6663,
      "ipped": 6664,
      "iel": 6665,
      "ilet": 6666,
      "itory": 6667,
      "iform": 6668,
      "iably": 6669,
      "ibil": 6670,
      "ilessly": 6671,
      "iantly": 6672,
      "jer": 6673,
      "jor": 6674,
      "jim": 6675,
      "jay": 6676,
      "jet": 6677,
      "jiff": 6678,
      "jist": 6679,
      "jib": 6680,
      "knot": 6681,
      "ksome": 6682,
      "ksc": 6683,
      "kins": 6684,
      "kitten": 6685,
      "kids": 6686,
      "lon": 6687,
      "lis": 6688,
      "lof": 6689,
      "lent": 6690,
      "lur": 6691,
      "lers": 6692,
      "lated": 6693,
      "lass": 6694,
      "lished": 6695,
      "limp": 6696,
      "lord": 6697,
      "lked": 6698,
      "larded": 6699,
      "lky": 6700,
      "lagging": 6701,
      "lashing": 6702,
      "laggard": 6703,
      "linders": 6704,
      "mould": 6705,
      "muck": 6706,
      "mart": 6707,
      "mast": 6708,
      "mil": 6709,
      "mess": 6710,
      "mend": 6711,
      "mmed": 6712,
      "mers": 6713,
      "mare": 6714,
      "mits": 6715,
      "mber": 6716,
      "map": 6717,
      "mbled": 6718,
      "mused": 6719,
      "mended": 6720,
      "madd": 6721,
      "mending": 6722,
      "manded": 6723,
      "mitted": 6724,
      "munity": 6725,
      "madam": 6726,
      "nat": 6727,
      "nes": 6728,
      "nch": 6729,
      "nly": 6730,
      "nun": 6731,
      "nur": 6732,
      "nake": 6733,
      "nment": 6734,
      "nap": 6735,
      "nuff": 6736,
      "nip": 6737,
      "nations": 6738,
      "nial": 6739,
      "nals": 6740,
      "nery": 6741,
      "nimble": 6742,
      "nounced": 6743,
      "natures": 6744,
      "napped": 6745,
      "nium": 6746,
      "oat": 6747,
      "oar": 6748,
      "oor": 6749,
      "ole": 6750,
      "oce": 6751,
      "oil": 6752,
      "obl": 6753,
      "oble": 6754,
      "oars": 6755,
      "olate": 6756,
      "oiled": 6757,
      "olar": 6758,
      "oaken": 6759,
      "opled": 6760,
      "py": 6761,
      "pes": 6762,
      "pent": 6763,
      "pli": 6764,
      "pher": 6765,
      "ples": 6766,
      "pour": 6767,
      "pate": 6768,
      "pure": 6769,
      "pence": 6770,
      "pade": 6771,
      "pare": 6772,
      "pless": 6773,
      "pious": 6774,
      "pars": 6775,
      "pink": 6776,
      "pable": 6777,
      "phi": 6778,
      "pile": 6779,
      "piled": 6780,
      "padd": 6781,
      "paled": 6782,
      "praised": 6783,
      "pounding": 6784,
      "pumped": 6785,
      "pounds": 6786,
      "ris": 6787,
      "ral": 6788,
      "rab": 6789,
      "rind": 6790,
      "rate": 6791,
      "rish": 6792,
      "rud": 6793,
      "rance": 6794,
      "rated": 6795,
      "rung": 6796,
      "rist": 6797,
      "rations": 6798,
      "raged": 6799,
      "rained": 6800,
      "rintendent": 6801,
      "rons": 6802,
      "ruded": 6803,
      "sar": 6804,
      "sall": 6805,
      "shim": 6806,
      "ske": 6807,
      "sway": 6808,
      "sif": 6809,
      "slo": 6810,
      "sic": 6811,
      "send": 6812,
      "swo": 6813,
      "sently": 6814,
      "sally": 6815,
      "sass": 6816,
      "sily": 6817,
      "ssi": 6818,
      "siness": 6819,
      "scare": 6820,
      "slic": 6821,
      "swords": 6822,
      "sister": 6823,
      "soften": 6824,
      "sket": 6825,
      "sfixed": 6826,
      "sashes": 6827,
      "slitting": 6828,
      "tad": 6829,
      "tun": 6830,
      "tal": 6831,
      "tro": 6832,
      "twould": 6833,
      "tles": 6834,
      "taw": 6835,
      "tation": 6836,
      "tread": 6837,
      "tious": 6838,
      "tink": 6839,
      "tally": 6840,
      "tily": 6841,
      "tling": 6842,
      "twouldn": 6843,
      "tame": 6844,
      "tones": 6845,
      "ttered": 6846,
      "tible": 6847,
      "tsy": 6848,
      "tified": 6849,
      "tions": 6850,
      "tuous": 6851,
      "titude": 6852,
      "tages": 6853,
      "twitching": 6854,
      "tishly": 6855,
      "tires": 6856,
      "tables": 6857,
      "twine": 6858,
      "uce": 6859,
      "uri": 6860,
      "usa": 6861,
      "uence": 6862,
      "uity": 6863,
      "ubed": 6864,
      "uated": 6865,
      "uling": 6866,
      "ufact": 6867,
      "uables": 6868,
      "uctu": 6869,
      "ucated": 6870,
      "vin": 6871,
      "vat": 6872,
      "vot": 6873,
      "vir": 6874,
      "vion": 6875,
      "vitt": 6876,
      "vation": 6877,
      "vive": 6878,
      "vine": 6879,
      "vated": 6880,
      "virt": 6881,
      "vales": 6882,
      "wre": 6883,
      "wri": 6884,
      "wher": 6885,
      "wate": 6886,
      "wade": 6887,
      "ware": 6888,
      "wary": 6889,
      "wring": 6890,
      "waking": 6891,
      "waned": 6892,
      "wending": 6893,
      "wages": 6894,
      "wads": 6895,
      "wane": 6896,
      "wdrops": 6897,
      "wringing": 6898,
      "yers": 6899,
      "yage": 6900,
      "yance": 6901,
      "yond": 6902,
      "yals": 6903,
      "zer": 6904,
      "zas": 6905,
      "zep": 6906,
      "zement": 6907,
      "hell": 6908,
      "hever": 6909,
      "hered": 6910,
      "height": 6911,
      "hears": 6912,
      "heap": 6913,
      "healed": 6914,
      "anes": 6915,
      "anno": 6916,
      "ante": 6917,
      "anity": 6918,
      "anny": 6919,
      "ancholy": 6920,
      "angling": 6921,
      "annel": 6922,
      "analyzed": 6923,
      "announced": 6924,
      "anzas": 6925,
      "theat": 6926,
      "theart": 6927,
      "thedr": 6928,
      "theory": 6929,
      "theories": 6930,
      "inst": 6931,
      "inno": 6932,
      "inha": 6933,
      "inct": 6934,
      "inart": 6935,
      "inate": 6936,
      "income": 6937,
      "inence": 6938,
      "instr": 6939,
      "inie": 6940,
      "intell": 6941,
      "intri": 6942,
      "incl": 6943,
      "intre": 6944,
      "inside": 6945,
      "insi": 6946,
      "invent": 6947,
      "inished": 6948,
      "inser": 6949,
      "infall": 6950,
      "incr": 6951,
      "insin": 6952,
      "incor": 6953,
      "inform": 6954,
      "inspect": 6955,
      "indec": 6956,
      "inval": 6957,
      "invar": 6958,
      "insuffer": 6959,
      "indep": 6960,
      "inarily": 6961,
      "instru": 6962,
      "inmates": 6963,
      "invest": 6964,
      "inkets": 6965,
      "infest": 6966,
      "inconsist": 6967,
      "infat": 6968,
      "inspired": 6969,
      "inclined": 6970,
      "insecure": 6971,
      "inconce": 6972,
      "invisible": 6973,
      "insensibly": 6974,
      "rew": 6975,
      "rever": 6976,
      "rece": 6977,
      "remo": 6978,
      "relly": 6979,
      "repr": 6980,
      "rebu": 6981,
      "retold": 6982,
      "rease": 6983,
      "recur": 6984,
      "refr": 6985,
      "relic": 6986,
      "refer": 6987,
      "refre": 6988,
      "repin": 6989,
      "relling": 6990,
      "revel": 6991,
      "recoll": 6992,
      "represent": 6993,
      "refilled": 6994,
      "repul": 6995,
      "recomm": 6996,
      "report": 6997,
      "rements": 6998,
      "restrain": 6999,
      "refresh": 7000,
      "revi": 7001,
      "reminded": 7002,
      "rehend": 7003,
      "repair": 7004,
      "recounted": 7005,
      "resumpt": 7006,
      "relapsed": 7007,
      "reviv": 7008,
      "reaved": 7009,
      "revive": 7010,
      "oud": 7011,
      "andest": 7012,
      "thar": 7013,
      "throb": 7014,
      "thwarts": 7015,
      "thrill": 7016,
      "thumb": 7017,
      "oner": 7018,
      "oning": 7019,
      "onful": 7020,
      "onsla": 7021,
      "onously": 7022,
      "atch": 7023,
      "attr": 7024,
      "attain": 7025,
      "atiously": 7026,
      "attest": 7027,
      "ed_": 7028,
      "edom": 7029,
      "edif": 7030,
      "edged": 7031,
      "edification": 7032,
      "educated": 7033,
      "eror": 7034,
      "erful": 7035,
      "erie": 7036,
      "erwa": 7037,
      "erfull": 7038,
      "erased": 7039,
      "erks": 7040,
      "ergies": 7041,
      "errit": 7042,
      "errand": 7043,
      "ervation": 7044,
      "tole": 7045,
      "tother": 7046,
      "tote": 7047,
      "topp": 7048,
      "toil": 7049,
      "toback": 7050,
      "tomat": 7051,
      "tomar": 7052,
      "toss": 7053,
      "toils": 7054,
      "toms": 7055,
      "togal": 7056,
      "tossing": 7057,
      "toilet": 7058,
      "tottered": 7059,
      "aster": 7060,
      "assu": 7061,
      "assee": 7062,
      "aspo": 7063,
      "assure": 7064,
      "ascent": 7065,
      "asins": 7066,
      "asmod": 7067,
      "ingred": 7068,
      "ington": 7069,
      "ism": 7070,
      "isp": 7071,
      "isy": 7072,
      "isome": 7073,
      "ission": 7074,
      "isters": 7075,
      "isking": 7076,
      "ispiece": 7077,
      "isively": 7078,
      "isborne": 7079,
      "iter": 7080,
      "itched": 7081,
      "itiff": 7082,
      "itering": 7083,
      "iterated": 7084,
      "itaries": 7085,
      "ense": 7086,
      "ende": 7087,
      "endid": 7088,
      "enem": 7089,
      "enings": 7090,
      "enber": 7091,
      "enched": 7092,
      "engra": 7093,
      "enger": 7094,
      "energy": 7095,
      "enhance": 7096,
      "ennium": 7097,
      "energies": 7098,
      "ll_": 7099,
      "llous": 7100,
      "llered": 7101,
      "lliantly": 7102,
      "omac": 7103,
      "ominous": 7104,
      "omission": 7105,
      "ara": 7106,
      "arper": 7107,
      "arious": 7108,
      "arrest": 7109,
      "argu": 7110,
      "arthy": 7111,
      "arrang": 7112,
      "array": 7113,
      "aroused": 7114,
      "argue": 7115,
      "arian": 7116,
      "ora": 7117,
      "orter": 7118,
      "orus": 7119,
      "ority": 7120,
      "orious": 7121,
      "orbit": 7122,
      "orange": 7123,
      "ordeal": 7124,
      "stim": 7125,
      "stout": 7126,
      "stur": 7127,
      "stum": 7128,
      "station": 7129,
      "stem": 7130,
      "stalk": 7131,
      "stars": 7132,
      "stark": 7133,
      "stance": 7134,
      "stwork": 7135,
      "stals": 7136,
      "stains": 7137,
      "stares": 7138,
      "stiddy": 7139,
      "stubb": 7140,
      "stinging": 7141,
      "stale": 7142,
      "stanzas": 7143,
      "lee": 7144,
      "lefully": 7145,
      "lected": 7146,
      "legit": 7147,
      "lepage": 7148,
      "levelled": 7149,
      "lecture": 7150,
      "lethar": 7151,
      "owed": 7152,
      "adder": 7153,
      "adhere": 7154,
      "addresses": 7155,
      "adays": 7156,
      "admission": 7157,
      "sea": 7158,
      "sew": 7159,
      "seal": 7160,
      "seve": 7161,
      "section": 7162,
      "sevent": 7163,
      "selling": 7164,
      "semi": 7165,
      "seph": 7166,
      "seats": 7167,
      "sepul": 7168,
      "severer": 7169,
      "selected": 7170,
      "wasting": 7171,
      "beast": 7172,
      "besee": 7173,
      "behave": 7174,
      "belitt": 7175,
      "bethought": 7176,
      "beaded": 7177,
      "beats": 7178,
      "beams": 7179,
      "bewitching": 7180,
      "befitted": 7181,
      "becca": 7182,
      "belated": 7183,
      "bereaved": 7184,
      "ider": 7185,
      "ides": 7186,
      "idge": 7187,
      "idated": 7188,
      "idling": 7189,
      "idol": 7190,
      "idual": 7191,
      "idiot": 7192,
      "idlers": 7193,
      "ckets": 7194,
      "imand": 7195,
      "imper": 7196,
      "image": 7197,
      "imity": 7198,
      "impa": 7199,
      "imbit": 7200,
      "imming": 7201,
      "imparted": 7202,
      "imony": 7203,
      "imperfect": 7204,
      "imenter": 7205,
      "impossibility": 7206,
      "immortal": 7207,
      "immunity": 7208,
      "ghtheart": 7209,
      "esar": 7210,
      "espe": 7211,
      "esque": 7212,
      "hispy": 7213,
      "lded": 7214,
      "lder": 7215,
      "wiping": 7216,
      "withered": 7217,
      "chuck": 7218,
      "chard": 7219,
      "chaw": 7220,
      "chaf": 7221,
      "chless": 7222,
      "chink": 7223,
      "chase": 7224,
      "chains": 7225,
      "chips": 7226,
      "ch_ee": 7227,
      "chral": 7228,
      "channel": 7229,
      "chorus": 7230,
      "lyard": 7231,
      "lynch": 7232,
      "version": 7233,
      "verdig": 7234,
      "unto": 7235,
      "unes": 7236,
      "unir": 7237,
      "unsaid": 7238,
      "unpe": 7239,
      "undo": 7240,
      "untime": 7241,
      "unself": 7242,
      "unaw": 7243,
      "unrest": 7244,
      "unable": 7245,
      "unear": 7246,
      "unfl": 7247,
      "unned": 7248,
      "uncu": 7249,
      "untered": 7250,
      "unused": 7251,
      "unbar": 7252,
      "unwel": 7253,
      "unches": 7254,
      "unfur": 7255,
      "unbear": 7256,
      "unutter": 7257,
      "unbroken": 7258,
      "unfair": 7259,
      "unreason": 7260,
      "unaccount": 7261,
      "unfeeling": 7262,
      "unsatisfied": 7263,
      "uninterested": 7264,
      "unimagin": 7265,
      "unnecess": 7266,
      "unsympa": 7267,
      "unallo": 7268,
      "unlock": 7269,
      "unfold": 7270,
      "unworthy": 7271,
      "unsought": 7272,
      "unpleasant": 7273,
      "unnecessary": 7274,
      "unsteady": 7275,
      "unadorned": 7276,
      "unheal": 7277,
      "unwhitewashed": 7278,
      "unpromising": 7279,
      "unfrequ": 7280,
      "unfolded": 7281,
      "unshaken": 7282,
      "unperceived": 7283,
      "unholy": 7284,
      "uncombed": 7285,
      "ungrasp": 7286,
      "unwinding": 7287,
      "unpiratical": 7288,
      "unobtr": 7289,
      "unexplored": 7290,
      "uncommitted": 7291,
      "unplastered": 7292,
      "uninhabited": 7293,
      "uniform": 7294,
      "uninstru": 7295,
      "unseal": 7296,
      "alter": 7297,
      "alarm": 7298,
      "altered": 7299,
      "altar": 7300,
      "alarmed": 7301,
      "alert": 7302,
      "altitude": 7303,
      "aloud": 7304,
      "withal": 7305,
      "withheld": 7306,
      "withdrawing": 7307,
      "veil": 7308,
      "veget": 7309,
      "veted": 7310,
      "veless": 7311,
      "vexed": 7312,
      "veins": 7313,
      "veying": 7314,
      "vehic": 7315,
      "vellous": 7316,
      "entous": 7317,
      "entment": 7318,
      "entering": 7319,
      "entrance": 7320,
      "otting": 7321,
      "otonously": 7322,
      "otesque": 7323,
      "cel": 7324,
      "ceme": 7325,
      "celess": 7326,
      "cease": 7327,
      "ceiling": 7328,
      "cember": 7329,
      "fork": 7330,
      "force": 7331,
      "forsa": 7332,
      "forces": 7333,
      "forgave": 7334,
      "forgetting": 7335,
      "former": 7336,
      "forbear": 7337,
      "forgiving": 7338,
      "forded": 7339,
      "forbid": 7340,
      "west": 7341,
      "wept": 7342,
      "weigh": 7343,
      "webs": 7344,
      "western": 7345,
      "webwork": 7346,
      "welded": 7347,
      ".\"]": 7348,
      "iries": 7349,
      "irresol": 7350,
      "irksome": 7351,
      "boot": 7352,
      "bosh": 7353,
      "bode": 7354,
      "boil": 7355,
      "boxed": 7356,
      "boister": 7357,
      "boots": 7358,
      "meat": 7359,
      "meed": 7360,
      "mely": 7361,
      "mered": 7362,
      "metri": 7363,
      "melt": 7364,
      "measure": 7365,
      "metho": 7366,
      "melling": 7367,
      "meagre": 7368,
      "mewing": 7369,
      "melod": 7370,
      "melon": 7371,
      "alling": 7372,
      "allus": 7373,
      "outer": 7374,
      "outward": 7375,
      "outlaw": 7376,
      "outburst": 7377,
      "outlying": 7378,
      "outrage": 7379,
      "outweighed": 7380,
      "outspoken": 7381,
      "outfit": 7382,
      "outrements": 7383,
      "oop": 7384,
      "oolyard": 7385,
      "ric": 7386,
      "rip": 7387,
      "rian": 7388,
      "rier": 7389,
      "rick": 7390,
      "ripped": 7391,
      "rived": 7392,
      "rical": 7393,
      "rigated": 7394,
      "lict": 7395,
      "liced": 7396,
      "likes": 7397,
      "lightheart": 7398,
      "upstreet": 7399,
      "uplifted": 7400,
      "upbraid": 7401,
      "uptuous": 7402,
      "ouldering": 7403,
      "whit": 7404,
      "whic": 7405,
      "whiff": 7406,
      "whitened": 7407,
      "whilst": 7408,
      "keg": 7409,
      "keted": 7410,
      "sake": 7411,
      "saic": 7412,
      "saving": 7413,
      "sacre": 7414,
      "sailed": 7415,
      "sacks": 7416,
      "safet": 7417,
      "sages": 7418,
      "sauce": 7419,
      "sauntered": 7420,
      "etin": 7421,
      "etime": 7422,
      "ague": 7423,
      "agues": 7424,
      "aggrav": 7425,
      "agerie": 7426,
      "agara": 7427,
      "reds": 7428,
      "reddened": 7429,
      "urous": 7430,
      "urance": 7431,
      "urated": 7432,
      "urged": 7433,
      "urably": 7434,
      "urrying": 7435,
      "ainly": 7436,
      "necks": 7437,
      "negat": 7438,
      "terran": 7439,
      "terms": 7440,
      "terians": 7441,
      "terior": 7442,
      "terfli": 7443,
      "roar": 7444,
      "roared": 7445,
      "rocked": 7446,
      "rocks": 7447,
      "roots": 7448,
      "roasted": 7449,
      "rovers": 7450,
      "sob": 7451,
      "soever": 7452,
      "soil": 7453,
      "soling": 7454,
      "soiled": 7455,
      "solit": 7456,
      "socks": 7457,
      "soda": 7458,
      "sorer": 7459,
      "soci": 7460,
      "sopher": 7461,
      "butterfli": 7462,
      "ioning": 7463,
      "feated": 7464,
      "femin": 7465,
      "fection": 7466,
      "fearing": 7467,
      "fema": 7468,
      "ference": 7469,
      "features": 7470,
      "felicity": 7471,
      "shet": 7472,
      "sheer": 7473,
      "sheered": 7474,
      "sheathed": 7475,
      "sheaves": 7476,
      "shly": 7477,
      "shone": 7478,
      "shant": 7479,
      "sham": 7480,
      "shrou": 7481,
      "shak": 7482,
      "shorn": 7483,
      "shots": 7484,
      "shiny": 7485,
      "shirts": 7486,
      "shrill": 7487,
      "shioned": 7488,
      "shivered": 7489,
      "shipped": 7490,
      "sharper": 7491,
      "shunned": 7492,
      "shreds": 7493,
      "hers": 7494,
      "hermits": 7495,
      "caved": 7496,
      "caused": 7497,
      "caitiff": 7498,
      "mob": 7499,
      "mored": 7500,
      "moil": 7501,
      "moder": 7502,
      "moped": 7503,
      "mocc": 7504,
      "moping": 7505,
      "moiety": 7506,
      "modern": 7507,
      "mocker": 7508,
      "mocking": 7509,
      "mossy": 7510,
      "nowadays": 7511,
      "Hey": 7512,
      "Hear": 7513,
      "Heart": 7514,
      "Health": 7515,
      "Heaven": 7516,
      "Heaps": 7517,
      "abla": 7518,
      "abide": 7519,
      "abash": 7520,
      "abund": 7521,
      "abond": 7522,
      "abounding": 7523,
      "abashed": 7524,
      "abstain": 7525,
      "abusing": 7526,
      "ablished": 7527,
      "absently": 7528,
      "thern": 7529,
      "deck": 7530,
      "decan": 7531,
      "deem": 7532,
      "deare": 7533,
      "deft": 7534,
      "decre": 7535,
      "decked": 7536,
      "depos": 7537,
      "debr": 7538,
      "decla": 7539,
      "defence": 7540,
      "deject": 7541,
      "delights": 7542,
      "derer": 7543,
      "destro": 7544,
      "deepest": 7545,
      "demanded": 7546,
      "dewdrops": 7547,
      "defeated": 7548,
      "uckles": 7549,
      "peg": 7550,
      "pepp": 7551,
      "peel": 7552,
      "peren": 7553,
      "peach": 7554,
      "peered": 7555,
      "peering": 7556,
      "peals": 7557,
      "pelled": 7558,
      "pector": 7559,
      "pegged": 7560,
      "nobl": 7561,
      "noses": 7562,
      "nostri": 7563,
      "novel": 7564,
      "nobil": 7565,
      "novices": 7566,
      "noisy": 7567,
      "illed": 7568,
      "illet": 7569,
      "illness": 7570,
      "illery": 7571,
      "notable": 7572,
      "notching": 7573,
      "notions": 7574,
      "notably": 7575,
      "subl": 7576,
      "surest": 7577,
      "suspect": 7578,
      "sulked": 7579,
      "doth": 7580,
      "doze": 7581,
      "dogs": 7582,
      "dozing": 7583,
      "ifer": 7584,
      "ifter": 7585,
      "lame": 7586,
      "lake": 7587,
      "laced": 7588,
      "laps": 7589,
      "lacer": 7590,
      "lakes": 7591,
      "lauded": 7592,
      "anyways": 7593,
      "anywher": 7594,
      "oundering": 7595,
      "?\".": 7596,
      "hath": 7597,
      "hail": 7598,
      "haul": 7599,
      "havo": 7600,
      "hacked": 7601,
      "hams": 7602,
      "hapless": 7603,
      "haunches": 7604,
      "loat": 7605,
      "load": 7606,
      "lope": 7607,
      "loaf": 7608,
      "lopped": 7609,
      "loite": 7610,
      "losing": 7611,
      "loined": 7612,
      "loaded": 7613,
      "lovel": 7614,
      "loins": 7615,
      "loathed": 7616,
      "lodged": 7617,
      "loaves": 7618,
      "locate": 7619,
      "loitering": 7620,
      "losopher": 7621,
      "text": 7622,
      "teased": 7623,
      "teaspo": 7624,
      "cting": 7625,
      "ctuation": 7626,
      "rah": 7627,
      "rap": 7628,
      "race": 7629,
      "rail": 7630,
      "raven": 7631,
      "raps": 7632,
      "ramid": 7633,
      "racer": 7634,
      "racted": 7635,
      "raising": 7636,
      "racking": 7637,
      "rafters": 7638,
      "ongru": 7639,
      "boyish": 7640,
      "boyhood": 7641,
      "ards": 7642,
      "arding": 7643,
      "ppers": 7644,
      "ppoor": 7645,
      "resour": 7646,
      "ressing": 7647,
      "resist": 7648,
      "respected": 7649,
      "resented": 7650,
      "ressiveness": 7651,
      "resentment": 7652,
      "thereof": 7653,
      "thereabout": 7654,
      "owns": 7655,
      "indness": 7656,
      "indul": 7657,
      "indiv": 7658,
      "usts": 7659,
      "usting": 7660,
      "antless": 7661,
      "antine": 7662,
      "!\"--": 7663,
      "hatche": 7664,
      "thish": 7665,
      "artific": 7666,
      "artillery": 7667,
      "bye": 7668,
      "bystand": 7669,
      "bygone": 7670,
      "byterians": 7671,
      "astride": 7672,
      "spy": 7673,
      "spend": 7674,
      "spool": 7675,
      "spang": 7676,
      "spree": 7677,
      "spared": 7678,
      "spying": 7679,
      "spray": 7680,
      "spilt": 7681,
      "spattered": 7682,
      "spades": 7683,
      "splitting": 7684,
      "sputtering": 7685,
      "spires": 7686,
      "spasm": 7687,
      "sparent": 7688,
      "spoon": 7689,
      "sperous": 7690,
      "spaper": 7691,
      "spoil": 7692,
      "sprung": 7693,
      "sperrit": 7694,
      "spasmod": 7695,
      "spider": 7696,
      "spliced": 7697,
      "spilled": 7698,
      "foe": 7699,
      "fox": 7700,
      "folly": 7701,
      "focat": 7702,
      "conned": 7703,
      "confir": 7704,
      "consound": 7705,
      "constant": 7706,
      "conject": 7707,
      "conceived": 7708,
      "contend": 7709,
      "convi": 7710,
      "condesc": 7711,
      "constab": 7712,
      "conflag": 7713,
      "conveyed": 7714,
      "conspired": 7715,
      "constit": 7716,
      "convin": 7717,
      "consoling": 7718,
      "ilar": 7719,
      "ilation": 7720,
      "ilings": 7721,
      "derously": 7722,
      "derrick": 7723,
      "fuss": 7724,
      "fugit": 7725,
      "fulest": 7726,
      "timbers": 7727,
      "pering": 7728,
      "perch": 7729,
      "perched": 7730,
      "perished": 7731,
      "perspir": 7732,
      "persec": 7733,
      "permit": 7734,
      "perishing": 7735,
      "persecution": 7736,
      "ood_": 7737,
      "oods": 7738,
      "ament": 7739,
      "ambus": 7740,
      "amiss": 7741,
      "amassed": 7742,
      "ambush": 7743,
      "ammun": 7744,
      "roughest": 7745,
      "goate": 7746,
      "gospe": 7747,
      "govern": 7748,
      "goggles": 7749,
      "gossi": 7750,
      "wormed": 7751,
      "worried": 7752,
      "worrying": 7753,
      "worshipped": 7754,
      "thence": 7755,
      "themes": 7756,
      "holi": 7757,
      "holes": 7758,
      "holt": 7759,
      "hops": 7760,
      "hogs": 7761,
      "hopping": 7762,
      "holler": 7763,
      "hosts": 7764,
      "icy": 7765,
      "icul": 7766,
      "icised": 7767,
      "icature": 7768,
      "icule": 7769,
      "selfishness": 7770,
      "Its": 7771,
      "Webster": 7772,
      "gee": 7773,
      "geem": 7774,
      "gems": 7775,
      "gemmed": 7776,
      "comet": 7777,
      "comings": 7778,
      "compa": 7779,
      "commen": 7780,
      "compressed": 7781,
      "compared": 7782,
      "compelled": 7783,
      "usion": 7784,
      "usive": 7785,
      "usades": 7786,
      "ittal": 7787,
      "downhearted": 7788,
      "downstream": 7789,
      "overlook": 7790,
      "overcome": 7791,
      "overlooked": 7792,
      "overheard": 7793,
      "overlooking": 7794,
      "overboard": 7795,
      "overhanging": 7796,
      "overflowed": 7797,
      "ours": 7798,
      "ourish": 7799,
      "exit": 7800,
      "extre": 7801,
      "expir": 7802,
      "exist": 7803,
      "expan": 7804,
      "excess": 7805,
      "extrem": 7806,
      "extent": 7807,
      "explan": 7808,
      "exposing": 7809,
      "existed": 7810,
      "extract": 7811,
      "execut": 7812,
      "exterior": 7813,
      "expector": 7814,
      "quor": 7815,
      "quailed": 7816,
      "quivered": 7817,
      "queror": 7818,
      "quenched": 7819,
      "essing": 7820,
      "essor": 7821,
      "akened": 7822,
      "akfast": 7823,
      "Joseph": 7824,
      "knowledge": 7825,
      "distri": 7826,
      "disco": 7827,
      "disput": 7828,
      "discre": 7829,
      "dismay": 7830,
      "dismem": 7831,
      "disappe": 7832,
      "discomfort": 7833,
      "disgu": 7834,
      "dissent": 7835,
      "disma": 7836,
      "dispat": 7837,
      "disagre": 7838,
      "disagreed": 7839,
      "disconcer": 7840,
      "disdain": 7841,
      "disposing": 7842,
      "dismiss": 7843,
      "disclosing": 7844,
      "dissatisfaction": 7845,
      "discomforted": 7846,
      "disaster": 7847,
      "pole": 7848,
      "poke": 7849,
      "pores": 7850,
      "poles": 7851,
      "popped": 7852,
      "posto": 7853,
      "poster": 7854,
      "popul": 7855,
      "pointing": 7856,
      "poetry": 7857,
      "pockets": 7858,
      "umn": 7859,
      "umes": 7860,
      "umbus": 7861,
      "umerable": 7862,
      "umbers": 7863,
      "umblings": 7864,
      "uments": 7865,
      "whippings": 7866,
      "whippoor": 7867,
      "gets": 7868,
      "getings": 7869,
      "unted": 7870,
      "untied": 7871,
      "untarily": 7872,
      "grit": 7873,
      "grain": 7874,
      "grab": 7875,
      "grates": 7876,
      "grub": 7877,
      "grumbled": 7878,
      "grasses": 7879,
      "granted": 7880,
      "granny": 7881,
      "grotesque": 7882,
      "grumblings": 7883,
      "grunted": 7884,
      "endship": 7885,
      "endowed": 7886,
      "endurance": 7887,
      "awing": 7888,
      "awfully": 7889,
      "awfulest": 7890,
      "awakened": 7891,
      "venerable": 7892,
      "afforded": 7893,
      "affection": 7894,
      "afloat": 7895,
      "blab": 7896,
      "blown": 7897,
      "blink": 7898,
      "blister": 7899,
      "blush": 7900,
      "bleness": 7901,
      "blustered": 7902,
      "bladder": 7903,
      "glaring": 7904,
      "glances": 7905,
      "glinting": 7906,
      "sediment": 7907,
      "forehead": 7908,
      "foreign": 7909,
      "forenoon": 7910,
      "foretop": 7911,
      "forefinger": 7912,
      "moreover": 7913,
      "fuls": 7914,
      "fulfilled": 7915,
      "igently": 7916,
      "igated": 7917,
      "justify": 7918,
      "woe": 7919,
      "longings": 7920,
      "longingly": 7921,
      "backards": 7922,
      "fame": 7923,
      "fared": 7924,
      "fault": 7925,
      "faults": 7926,
      "lookyhere": 7927,
      "manage": 7928,
      "manned": 7929,
      "manfully": 7930,
      "manufact": 7931,
      "camel": 7932,
      "Behind": 7933,
      "Beaded": 7934,
      "Beyond": 7935,
      "nightmare": 7936,
      "ideas": 7937,
      "icking": 7938,
      "ickers": 7939,
      "handed": 7940,
      "handled": 7941,
      "handbread": 7942,
      "handbarrow": 7943,
      "newcomer": 7944,
      "newspaper": 7945,
      "undergoing": 7946,
      "underbrush": 7947,
      "undergrowth": 7948,
      "cancer": 7949,
      "embell": 7950,
      "embra": 7951,
      "embatt": 7952,
      "embrace": 7953,
      "eminence": 7954,
      "offensive": 7955,
      "offense": 7956,
      "strung": 7957,
      "strangling": 7958,
      "whoever": 7959,
      "thouse": 7960,
      "rights": 7961,
      "rightly": 7962,
      "everywheres": 7963,
      "bleed": 7964,
      "blebug": 7965,
      "medal": 7966,
      "medium": 7967,
      "plea": 7968,
      "pleading": 7969,
      "sayings": 7970,
      "erson": 7971,
      "lightened": 7972,
      "lightest": 7973,
      "els": 7974,
      "elude": 7975,
      "elastic": 7976,
      "pling": 7977,
      "pluck": 7978,
      "plate": 7979,
      "plough": 7980,
      "plug": 7981,
      "plowing": 7982,
      "plants": 7983,
      "planted": 7984,
      "plomac": 7985,
      "plotting": 7986,
      "plumes": 7987,
      "eying": 7988,
      "goody": 7989,
      "goodly": 7990,
      "goodbye": 7991,
      "angible": 7992,
      "Infernal": 7993,
      "arer": 7994,
      "ievement": 7995,
      "scary": 7996,
      "scru": 7997,
      "scendent": 7998,
      "scream": 7999,
      "scroll": 8000,
      "scenes": 8001,
      "ffice": 8002,
      "ffalo": 8003,
      "ffian": 8004,
      "readers": 8005,
      "clods": 8006,
      "clodding": 8007,
      "howled": 8008,
      "uses": 8009,
      "headway": 8010,
      "yours": 8011,
      "lessons": 8012,
      "plaited": 8013,
      "scholar": 8014,
      "schoolyard": 8015,
      "triple": 8016,
      "trials": 8017,
      "trilled": 8018,
      "trifled": 8019,
      "trigger": 8020,
      "wherein": 8021,
      "whereupon": 8022,
      "hearties": 8023,
      "heartily": 8024,
      "heartbreak": 8025,
      "heartbreaking": 8026,
      "press": 8027,
      "pressive": 8028,
      "preservation": 8029,
      "watcher": 8030,
      "watches": 8031,
      "core": 8032,
      "coal": 8033,
      "coast": 8034,
      "cocked": 8035,
      "coats": 8036,
      "cobs": 8037,
      "costs": 8038,
      "covet": 8039,
      "coloss": 8040,
      "coaches": 8041,
      "coaxed": 8042,
      "cosily": 8043,
      "coveted": 8044,
      "coppers": 8045,
      "udence": 8046,
      "foundry": 8047,
      "foundations": 8048,
      "prit": 8049,
      "prone": 8050,
      "prance": 8051,
      "pranced": 8052,
      "princ": 8053,
      "wont": 8054,
      "Therefore": 8055,
      "hyr": 8056,
      "resting": 8057,
      "restful": 8058,
      "restive": 8059,
      "Sheets": 8060,
      "itecture": 8061,
      "lets": 8062,
      "leton": 8063,
      "letter": 8064,
      "schools": 8065,
      "schoolboy": 8066,
      "schoolgirl": 8067,
      "breathings": 8068,
      "Sidney": 8069,
      "tenantless": 8070,
      "proof": 8071,
      "provo": 8072,
      "progra": 8073,
      "propri": 8074,
      "proje": 8075,
      "prosperous": 8076,
      "rowing": 8077,
      "inely": 8078,
      "inestim": 8079,
      "achievement": 8080,
      "bedrid": 8081,
      "bedclothes": 8082,
      "bedded": 8083,
      "bedchamber": 8084,
      "berth": 8085,
      "berations": 8086,
      "cling": 8087,
      "clattered": 8088,
      "classes": 8089,
      "clinging": 8090,
      "clandest": 8091,
      "clerks": 8092,
      "irements": 8093,
      "irers": 8094,
      "momently": 8095,
      "pace": 8096,
      "stove": 8097,
      "stores": 8098,
      "stopping": 8099,
      "stopper": 8100,
      "talks": 8101,
      "ornery": 8102,
      "momentarily": 8103,
      "gap": 8104,
      "gait": 8105,
      "gape": 8106,
      "gaily": 8107,
      "icehouse": 8108,
      "spell": 8109,
      "specially": 8110,
      "retiring": 8111,
      "stilled": 8112,
      "ruder": 8113,
      "ruination": 8114,
      "ruffled": 8115,
      "rubber": 8116,
      "ruffian": 8117,
      "thanked": 8118,
      "greatness": 8119,
      "tingled": 8120,
      "tingling": 8121,
      "place_": 8122,
      "facetious": 8123,
      "mentally": 8124,
      "mentioned": 8125,
      "mentioning": 8126,
      "mured": 8127,
      "mulat": 8128,
      "saturated": 8129,
      "apened": 8130,
      "aphor": 8131,
      "apoosa": 8132,
      "apiece": 8133,
      "drearily": 8134,
      "juncture": 8135,
      "treated": 8136,
      "Point": 8137,
      "Polit": 8138,
      "Poetry": 8139,
      "deadly": 8140,
      "assent": 8141,
      "assert": 8142,
      "assented": 8143,
      "buzz": 8144,
      "bulky": 8145,
      "buffalo": 8146,
      "minds": 8147,
      "sidewise": 8148,
      "ville": 8149,
      "villain": 8150,
      "whistling": 8151,
      "hence": 8152,
      "liest": 8153,
      "distressing": 8154,
      "linger": 8155,
      "lingered": 8156,
      "miny": 8157,
      "minated": 8158,
      "minstre": 8159,
      "smen": 8160,
      "smote": 8161,
      "smitted": 8162,
      "smitten": 8163,
      "smouldering": 8164,
      "stooping": 8165,
      "putting": 8166,
      "girded": 8167,
      "sleigh": 8168,
      "sleeves": 8169,
      "ulent": 8170,
      "ulous": 8171,
      "ulars": 8172,
      "ulating": 8173,
      "vogue": 8174,
      "voids": 8175,
      "voyage": 8176,
      "fortunes": 8177,
      "works": 8178,
      "aths": 8179,
      "broom": 8180,
      "courted": 8181,
      "courage": 8182,
      "courses": 8183,
      "courts": 8184,
      "courthouse": 8185,
      "evenings": 8186,
      "wale": 8187,
      "waver": 8188,
      "waved": 8189,
      "waving": 8190,
      "waves": 8191,
      "waist": 8192,
      "wavered": 8193,
      "waverer": 8194,
      "wailings": 8195,
      "halfhour": 8196,
      "earned": 8197,
      "earliest": 8198,
      "estate": 8199,
      "estimate": 8200,
      "established": 8201,
      "graven": 8202,
      "graces": 8203,
      "grappled": 8204,
      "grapes": 8205,
      "lays": 8206,
      "mister": 8207,
      "mische": 8208,
      "mistaking": 8209,
      "misplaced": 8210,
      "misgivings": 8211,
      "mistakes": 8212,
      "misch_ee": 8213,
      "misfortunes": 8214,
      "intrude": 8215,
      "intruded": 8216,
      "intangible": 8217,
      "intruder": 8218,
      "stepping": 8219,
      "creep": 8220,
      "creak": 8221,
      "creation": 8222,
      "creaking": 8223,
      "crevice": 8224,
      "creatures": 8225,
      "partial": 8226,
      "swer": 8227,
      "swung": 8228,
      "swabbed": 8229,
      "swallowing": 8230,
      "swarthy": 8231,
      "join": 8232,
      "jokes": 8233,
      "mature": 8234,
      "matory": 8235,
      "matrons": 8236,
      "matchless": 8237,
      "airily": 8238,
      "range": 8239,
      "ranny": 8240,
      "happily": 8241,
      "apples": 8242,
      "applied": 8243,
      "appalled": 8244,
      "appalling": 8245,
      "cheon": 8246,
      "cheering": 8247,
      "checks": 8248,
      "chewed": 8249,
      "chests": 8250,
      "cheapened": 8251,
      "ceded": 8252,
      "aunty": 8253,
      "desol": 8254,
      "desks": 8255,
      "despair": 8256,
      "desires": 8257,
      "desolate": 8258,
      "ildren": 8259,
      "laden": 8260,
      "tyranny": 8261,
      "isely": 8262,
      "doorkeys": 8263,
      "flit": 8264,
      "fluttered": 8265,
      "flattered": 8266,
      "flinch": 8267,
      "flustered": 8268,
      "fluctu": 8269,
      "floundering": 8270,
      "floods": 8271,
      "flourish": 8272,
      "pson": 8273,
      "singed": 8274,
      "ventures": 8275,
      "ventilation": 8276,
      "winds": 8277,
      "felled": 8278,
      "Hist": 8279,
      "History": 8280,
      "catlike": 8281,
      "catfish": 8282,
      "catches": 8283,
      "catbird": 8284,
      "caterwa": 8285,
      "drag": 8286,
      "drooped": 8287,
      "giveth": 8288,
      "menagerie": 8289,
      "swearing": 8290,
      "sweeping": 8291,
      "muster": 8292,
      "denying": 8293,
      "izon": 8294,
      "izer": 8295,
      "middling": 8296,
      "skies": 8297,
      "skinning": 8298,
      "skimmed": 8299,
      "skirts": 8300,
      "skurrying": 8301,
      "skillet": 8302,
      "townward": 8303,
      "standstill": 8304,
      "starting": 8305,
      "nothingness": 8306,
      "counting": 8307,
      "counsell": 8308,
      "ringtaw": 8309,
      "setting": 8310,
      "Presbyterians": 8311,
      "burying": 8312,
      "firing": 8313,
      "woody": 8314,
      "wooded": 8315,
      "woodbox": 8316,
      "woodpecker": 8317,
      "tors": 8318,
      "sleepiest": 8319,
      "marsh": 8320,
      "marry": 8321,
      "marring": 8322,
      "marching": 8323,
      "market": 8324,
      "marvelled": 8325,
      "marriage": 8326,
      "marvellous": 8327,
      "opulent": 8328,
      "iffing": 8329,
      "calls": 8330,
      "efit": 8331,
      "effemin": 8332,
      "ipal": 8333,
      "ipating": 8334,
      "soundly": 8335,
      "hearse": 8336,
      "meanwhile": 8337,
      "meanest": 8338,
      "drippings": 8339,
      "mornings": 8340,
      "smothers": 8341,
      "warble": 8342,
      "warned": 8343,
      "warring": 8344,
      "warpath": 8345,
      "warwhoo": 8346,
      "warwhoop": 8347,
      "shouldn": 8348,
      "shouldered": 8349,
      "dreamed": 8350,
      "dreaming": 8351,
      "dreampt": 8352,
      "dreamily": 8353,
      "seriously": 8354,
      "serape": 8355,
      "truck": 8356,
      "trade": 8357,
      "trance": 8358,
      "trash": 8359,
      "trained": 8360,
      "trooping": 8361,
      "trasted": 8362,
      "trinkets": 8363,
      "troop": 8364,
      "taint": 8365,
      "hopefully": 8366,
      "hopelessly": 8367,
      "cured": 8368,
      "facility": 8369,
      "hurts": 8370,
      "hurrah": 8371,
      "feels": 8372,
      "feeler": 8373,
      "feelers": 8374,
      "comprehend": 8375,
      "posse": 8376,
      "blaming": 8377,
      "blazing": 8378,
      "monster": 8379,
      "monarch": 8380,
      "monotonously": 8381,
      "mask": 8382,
      "massed": 8383,
      "massacre": 8384,
      "attic": 8385,
      "attraction": 8386,
      "attracted": 8387,
      "chopped": 8388,
      "chosen": 8389,
      "shows": 8390,
      "shower": 8391,
      "Sawbones": 8392,
      "acting": 8393,
      "activities": 8394,
      "landsl": 8395,
      "murderer": 8396,
      "murmured": 8397,
      "snort": 8398,
      "snap": 8399,
      "snaked": 8400,
      "snapped": 8401,
      "snarling": 8402,
      "snifter": 8403,
      "sniffing": 8404,
      "support": 8405,
      "suppressed": 8406,
      "supposing": 8407,
      "remains": 8408,
      "bras": 8409,
      "brag": 8410,
      "brance": 8411,
      "brated": 8412,
      "bridge": 8413,
      "finery": 8414,
      "firearms": 8415,
      "ticks": 8416,
      "istics": 8417,
      "sums": 8418,
      "cerity": 8419,
      "certified": 8420,
      "cities": 8421,
      "citified": 8422,
      "clews": 8423,
      "clearer": 8424,
      "cury": 8425,
      "curse": 8426,
      "curled": 8427,
      "cursing": 8428,
      "curtain": 8429,
      "curtained": 8430,
      "curdling": 8431,
      "curtsy": 8432,
      "crystal": 8433,
      "crybaby": 8434,
      "crystals": 8435,
      "tales": 8436,
      "tapped": 8437,
      "taxed": 8438,
      "yell": 8439,
      "yelling": 8440,
      "shove": 8441,
      "shoot": 8442,
      "shoved": 8443,
      "shoving": 8444,
      "Whose": 8445,
      "Whoever": 8446,
      "carious": 8447,
      "carpet": 8448,
      "carcase": 8449,
      "carriage": 8450,
      "caricature": 8451,
      "circling": 8452,
      "cuss": 8453,
      "customar": 8454,
      "knack": 8455,
      "knitting": 8456,
      "knitted": 8457,
      "knucks": 8458,
      "knuckles": 8459,
      "moneybox": 8460,
      "prey": 8461,
      "preached": 8462,
      "pregn": 8463,
      "prepare": 8464,
      "preposter": 8465,
      "premature": 8466,
      "preceded": 8467,
      "precarious": 8468,
      "helps": 8469,
      "streets": 8470,
      "implored": 8471,
      "impudence": 8472,
      "breaks": 8473,
      "breakers": 8474,
      "appears": 8475,
      "appeased": 8476,
      "appealed": 8477,
      "bitterest": 8478,
      "floating": 8479,
      "flocking": 8480,
      "hungrier": 8481,
      "killing": 8482,
      "passes": 8483,
      "signified": 8484,
      "signals": 8485,
      "innumerable": 8486,
      "ordant": 8487,
      "ordinarily": 8488,
      "unkindness": 8489,
      "boarding": 8490,
      "career": 8491,
      "careers": 8492,
      "careless": 8493,
      "carelessly": 8494,
      "surely": 8495,
      "consciences": 8496,
      "grounded": 8497,
      "gravest": 8498,
      "crumbled": 8499,
      "crashing": 8500,
      "crooked": 8501,
      "crisp": 8502,
      "crowns": 8503,
      "crusts": 8504,
      "claps": 8505,
      "clapping": 8506,
      "clamored": 8507,
      "giant": 8508,
      "gives": 8509,
      "gency": 8510,
      "genius": 8511,
      "lances": 8512,
      "ridicule": 8513,
      "sidling": 8514,
      "sidering": 8515,
      "traced": 8516,
      "traps": 8517,
      "tracked": 8518,
      "tracted": 8519,
      "tramp": 8520,
      "traitor": 8521,
      "travelled": 8522,
      "lifeless": 8523,
      "nearing": 8524,
      "temper": 8525,
      "temple": 8526,
      "diet": 8527,
      "diary": 8528,
      "dilap": 8529,
      "dilig": 8530,
      "diversion": 8531,
      "diplomac": 8532,
      "belief": 8533,
      "weekday": 8534,
      "shedding": 8535,
      "breaths": 8536,
      "breathless": 8537,
      "dully": 8538,
      "dukes": 8539,
      "dubbed": 8540,
      "duller": 8541,
      "hides": 8542,
      "prick": 8543,
      "prized": 8544,
      "priceless": 8545,
      "sinful": 8546,
      "sinuous": 8547,
      "riverbank": 8548,
      "nooning": 8549,
      "noonday": 8550,
      "pans": 8551,
      "rounded": 8552,
      "ankle": 8553,
      "angels": 8554,
      "gladly": 8555,
      "gladhearted": 8556,
      "playthings": 8557,
      "playmates": 8558,
      "closely": 8559,
      "function": 8560,
      "funny": 8561,
      "funnel": 8562,
      "funereal": 8563,
      "groaned": 8564,
      "hasn": 8565,
      "ieties": 8566,
      "merciful": 8567,
      "merizer": 8568,
      "mercury": 8569,
      "surveying": 8570,
      "remembers": 8571,
      "remembrance": 8572,
      "stays": 8573,
      "adventurous": 8574,
      "urchin": 8575,
      "lawless": 8576,
      "lawyers": 8577,
      "Benjam": 8578,
      "bowed": 8579,
      "bowlder": 8580,
      "bowels": 8581,
      "bouts": 8582,
      "frisking": 8583,
      "fooled": 8584,
      "fooling": 8585,
      "foolish": 8586,
      "guide": 8587,
      "gully": 8588,
      "guile": 8589,
      "humble": 8590,
      "ials": 8591,
      "litter": 8592,
      "sying": 8593,
      "symp": 8594,
      "sentry": 8595,
      "slowed": 8596,
      "vision": 8597,
      "visibly": 8598,
      "zeal": 8599,
      "zebras": 8600,
      "tholes": 8601,
      "learning": 8602,
      "licate": 8603,
      "rooms": 8604,
      "highroad": 8605,
      "Think": 8606,
      "Thought": 8607,
      "Thirty": 8608,
      "bargain": 8609,
      "barrels": 8610,
      "barley": 8611,
      "cribe": 8612,
      "cricket": 8613,
      "crossing": 8614,
      "kindlings": 8615,
      "latch": 8616,
      "latching": 8617,
      "running": 8618,
      "runners": 8619,
      "rusted": 8620,
      "rustle": 8621,
      "shady": 8622,
      "shaded": 8623,
      "footstep": 8624,
      "footprint": 8625,
      "quickened": 8626,
      "quicksilver": 8627,
      "strongly": 8628,
      "strongest": 8629,
      "Jimmy": 8630,
      "Mufferson": 8631,
      "craft": 8632,
      "cramp": 8633,
      "crazed": 8634,
      "cravat": 8635,
      "ferule": 8636,
      "fishin": 8637,
      "fishhooks": 8638,
      "pretend": 8639,
      "ultane": 8640,
      "witched": 8641,
      "witnes": 8642,
      "regarding": 8643,
      "welcome": 8644,
      "weltering": 8645,
      "shorts": 8646,
      "shortcomings": 8647,
      "suds": 8648,
      "praying": 8649,
      "dressing": 8650,
      "grip": 8651,
      "gripped": 8652,
      "gripping": 8653,
      "grievous": 8654,
      "mingling": 8655,
      "sitz": 8656,
      "sunlight": 8657,
      "sunset": 8658,
      "sunny": 8659,
      "wrung": 8660,
      "writer": 8661,
      "walled": 8662,
      "motherless": 8663,
      "submit": 8664,
      "substit": 8665,
      "subscri": 8666,
      "substantial": 8667,
      "submitted": 8668,
      "substance": 8669,
      "subterran": 8670,
      "subtracted": 8671,
      "Welcome": 8672,
      "Looky": 8673,
      "beneath": 8674,
      "benefit": 8675,
      "corners": 8676,
      "furder": 8677,
      "flowing": 8678,
      "flowery": 8679,
      "horses": 8680,
      "horizon": 8681,
      "maid": 8682,
      "maze": 8683,
      "mazes": 8684,
      "mnastic": 8685,
      "patent": 8686,
      "patting": 8687,
      "patience": 8688,
      "senses": 8689,
      "slice": 8690,
      "slicked": 8691,
      "slipper": 8692,
      "ancy": 8693,
      "adding": 8694,
      "captures": 8695,
      "captives": 8696,
      "device": 8697,
      "devised": 8698,
      "devoured": 8699,
      "devices": 8700,
      "amongst": 8701,
      "bursts": 8702,
      "occurring": 8703,
      "breakfasted": 8704,
      "sincere": 8705,
      "Dog": 8706,
      "Dore": 8707,
      "Does": 8708,
      "Doctor": 8709,
      "corksc": 8710,
      "coroner": 8711,
      "dreaded": 8712,
      "freedom": 8713,
      "fetching": 8714,
      "hills": 8715,
      "hillside": 8716,
      "pinned": 8717,
      "paraded": 8718,
      "paria": 8719,
      "parcel": 8720,
      "heaved": 8721,
      "heaving": 8722,
      "resume": 8723,
      "striped": 8724,
      "striking": 8725,
      "leaden": 8726,
      "solution": 8727,
      "shouting": 8728,
      "notices": 8729,
      "continent": 8730,
      "continents": 8731,
      "gratifying": 8732,
      "watchful": 8733,
      "joys": 8734,
      "joyful": 8735,
      "secrets": 8736,
      "secretly": 8737,
      "fingered": 8738,
      "fillip": 8739,
      "grouped": 8740,
      "groups": 8741,
      "larger": 8742,
      "picking": 8743,
      "ranged": 8744,
      "ranges": 8745,
      "interval": 8746,
      "interfering": 8747,
      "interlarded": 8748,
      "admirers": 8749,
      "utterance": 8750,
      "velvet": 8751,
      "allowance": 8752,
      "dog_": 8753,
      "confidently": 8754,
      "conflict": 8755,
      "expire": 8756,
      "expensive": 8757,
      "attentive": 8758,
      "attentions": 8759,
      "Douglass": 8760,
      "bait": 8761,
      "bathing": 8762,
      "bailing": 8763,
      "balefully": 8764,
      "bruises": 8765,
      "drowsed": 8766,
      "drowsiness": 8767,
      "evanes": 8768,
      "fours": 8769,
      "fourths": 8770,
      "gayety": 8771,
      "ivable": 8772,
      "kingdom": 8773,
      "vagabond": 8774,
      "wartiest": 8775,
      "realm": 8776,
      "realizing": 8777,
      "realism": 8778,
      "leastways": 8779,
      "belle": 8780,
      "charmed": 8781,
      "charily": 8782,
      "chartered": 8783,
      "feebleness": 8784,
      "delivery": 8785,
      "fairies": 8786,
      "snatching": 8787,
      "snatches": 8788,
      "circles": 8789,
      "circuses": 8790,
      "claims": 8791,
      "adventurers": 8792,
      "Something": 8793,
      "boring": 8794,
      "borrowed": 8795,
      "bounded": 8796,
      "boundless": 8797,
      "couples": 8798,
      "cutlass": 8799,
      "center": 8800,
      "centuri": 8801,
      "eats": 8802,
      "fights": 8803,
      "garment": 8804,
      "hideously": 8805,
      "jackets": 8806,
      "mien": 8807,
      "mixed": 8808,
      "muslin": 8809,
      "muscles": 8810,
      "oppressed": 8811,
      "oppressiveness": 8812,
      "powder": 8813,
      "powers": 8814,
      "powwow": 8815,
      "paint": 8816,
      "painted": 8817,
      "vastness": 8818,
      "wander": 8819,
      "wandering": 8820,
      "ancestors": 8821,
      "thrashing": 8822,
      "thunderblast": 8823,
      "thunderstorm": 8824,
      "thunderpeals": 8825,
      "tombstone": 8826,
      "topic": 8827,
      "imagine": 8828,
      "wildly": 8829,
      "wildness": 8830,
      "wildwood": 8831,
      "wildeyed": 8832,
      "weaken": 8833,
      "weakened": 8834,
      "weakening": 8835,
      "weaklings": 8836,
      "lickrish": 8837,
      "deathbed": 8838,
      "doctors": 8839,
      "hairs": 8840,
      "raftsmen": 8841,
      "growled": 8842,
      "bloody": 8843,
      "bloodiest": 8844,
      "heartedness": 8845,
      "climax": 8846,
      "spectator": 8847,
      "whitewashin": 8848,
      "superb": 8849,
      "superior": 8850,
      "supervision": 8851,
      "floorless": 8852,
      "surprising": 8853,
      "learnt": 8854,
      "crossstreet": 8855,
      "crossbones": 8856,
      "crossroads": 8857,
      "Forms": 8858,
      "Shut": 8859,
      "XXI": 8860,
      "XXV": 8861,
      "XXVII": 8862,
      "XXIV": 8863,
      "XXVIII": 8864,
      "XXXV": 8865,
      "XXXIV": 8866,
      "coldly": 8867,
      "draws": 8868,
      "gloated": 8869,
      "gloating": 8870,
      "hulled": 8871,
      "hubbu": 8872,
      "kneel": 8873,
      "lulled": 8874,
      "limit": 8875,
      "luckless": 8876,
      "luckily": 8877,
      "mites": 8878,
      "maintogal": 8879,
      "nerved": 8880,
      "nerveless": 8881,
      "petted": 8882,
      "petting": 8883,
      "petrified": 8884,
      "pettishly": 8885,
      "slave": 8886,
      "slaves": 8887,
      "truce": 8888,
      "reasoned": 8889,
      "reasonable": 8890,
      "thirds": 8891,
      "threadbare": 8892,
      "ensconced": 8893,
      "staircase": 8894,
      "escapade": 8895,
      "robbed": 8896,
      "spots": 8897,
      "tremor": 8898,
      "sixty": 8899,
      "sixpence": 8900,
      "swimmers": 8901,
      "effectually": 8902,
      "remarkable": 8903,
      "circumstantial": 8904,
      "circumference": 8905,
      "directions": 8906,
      "Room": 8907,
      "THOR": 8908,
      "botch": 8909,
      "bottles": 8910,
      "dime": 8911,
      "dimly": 8912,
      "diminished": 8913,
      "detail": 8914,
      "eleph": 8915,
      "elements": 8916,
      "elegant": 8917,
      "elevated": 8918,
      "fainter": 8919,
      "fainted": 8920,
      "fainting": 8921,
      "faintest": 8922,
      "hitched": 8923,
      "knotholes": 8924,
      "named": 8925,
      "phase": 8926,
      "phras": 8927,
      "prouder": 8928,
      "similar": 8929,
      "simpering": 8930,
      "simultane": 8931,
      "widely": 8932,
      "incident": 8933,
      "incongru": 8934,
      "revelled": 8935,
      "reverence": 8936,
      "islands": 8937,
      "straitened": 8938,
      "needy": 8939,
      "needed": 8940,
      "needle": 8941,
      "decay": 8942,
      "decade": 8943,
      "decaying": 8944,
      "decisively": 8945,
      "suffocat": 8946,
      "personal": 8947,
      "personage": 8948,
      "expectant": 8949,
      "expectantly": 8950,
      "quarter": 8951,
      "quarry": 8952,
      "quarrelling": 8953,
      "quieted": 8954,
      "glasses": 8955,
      "plains": 8956,
      "plainly": 8957,
      "sighs": 8958,
      "particulars": 8959,
      "participating": 8960,
      "appoint": 8961,
      "appointment": 8962,
      "summersets": 8963,
      "circusing": 8964,
      "sorrowing": 8965,
      "sorrowful": 8966,
      "tempting": 8967,
      "doubtful": 8968,
      "exploits": 8969,
      "explosive": 8970,
      "Also": 8971,
      "Although": 8972,
      "Stand": 8973,
      "State": 8974,
      "TOO": 8975,
      "Willie": 8976,
      "Wherever": 8977,
      "burnt": 8978,
      "burned": 8979,
      "banks": 8980,
      "bankrup": 8981,
      "daughter": 8982,
      "daubed": 8983,
      "flamed": 8984,
      "flaky": 8985,
      "flavor": 8986,
      "gnawed": 8987,
      "gnawing": 8988,
      "north": 8989,
      "ponderously": 8990,
      "pityingly": 8991,
      "sadness": 8992,
      "sickening": 8993,
      "softness": 8994,
      "tents": 8995,
      "valuables": 8996,
      "yearned": 8997,
      "relish": 8998,
      "related": 8999,
      "returning": 9000,
      "relieve": 9001,
      "reflect": 9002,
      "reflection": 9003,
      "reflective": 9004,
      "oughtn": 9005,
      "sticks": 9006,
      "beauty": 9007,
      "beauties": 9008,
      "beauteous": 9009,
      "metaphor": 9010,
      "sharply": 9011,
      "moonlight": 9012,
      "moonlit": 9013,
      "movement": 9014,
      "succumb": 9015,
      "lovely": 9016,
      "commanded": 9017,
      "committal": 9018,
      "exerted": 9019,
      "exertion": 9020,
      "exertions": 9021,
      "exacting": 9022,
      "exclaiming": 9023,
      "discarded": 9024,
      "discordant": 9025,
      "dismally": 9026,
      "pleasures": 9027,
      "scarce": 9028,
      "scarum": 9029,
      "scarify": 9030,
      "murderin": 9031,
      "murderous": 9032,
      "cleanliness": 9033,
      "taverns": 9034,
      "frontispiece": 9035,
      "questioned": 9036,
      "questioning": 9037,
      "senseless": 9038,
      "devilment": 9039,
      "largely": 9040,
      "crowded": 9041,
      "chiefs": 9042,
      "Goody": 9043,
      "Hollow": 9044,
      "Holler": 9045,
      "Hodges": 9046,
      "Jealous": 9047,
      "ailment": 9048,
      "brightened": 9049,
      "brightest": 9050,
      "barefoot": 9051,
      "barelegged": 9052,
      "barking": 9053,
      "calities": 9054,
      "lidless": 9055,
      "mourning": 9056,
      "niggers": 9057,
      "punish": 9058,
      "punched": 9059,
      "punching": 9060,
      "punches": 9061,
      "punishing": 9062,
      "punctu": 9063,
      "punctuation": 9064,
      "portly": 9065,
      "portentous": 9066,
      "sneak": 9067,
      "sneaking": 9068,
      "simplicity": 9069,
      "transpired": 9070,
      "transfixed": 9071,
      "transparent": 9072,
      "transcendent": 9073,
      "transmitted": 9074,
      "wedge": 9075,
      "wedding": 9076,
      "answering": 9077,
      "arriving": 9078,
      "statements": 9079,
      "wearied": 9080,
      "wearily": 9081,
      "weariness": 9082,
      "wearisome": 9083,
      "bothering": 9084,
      "bothersome": 9085,
      "noteworthy": 9086,
      "tearful": 9087,
      "testimony": 9088,
      "splint": 9089,
      "splutter": 9090,
      "splashed": 9091,
      "considering": 9092,
      "considerably": 9093,
      "gestion": 9094,
      "gesture": 9095,
      "gestures": 9096,
      "forestalled": 9097,
      "facts": 9098,
      "planet": 9099,
      "planning": 9100,
      "proceeding": 9101,
      "pathless": 9102,
      "speechless": 9103,
      "bushel": 9104,
      "cheerful": 9105,
      "cheeriness": 9106,
      "suppertime": 9107,
      "generation": 9108,
      "privately": 9109,
      "families": 9110,
      "brushing": 9111,
      "dumb_": 9112,
      "dumbness": 9113,
      "gratefulness": 9114,
      "Confound": 9115,
      "Consound": 9116,
      "Consequ": 9117,
      "Conqueror": 9118,
      "Contrasted": 9119,
      "Considering": 9120,
      "avenged": 9121,
      "audible": 9122,
      "audibly": 9123,
      "auditory": 9124,
      "cylinders": 9125,
      "cordially": 9126,
      "frighten": 9127,
      "frightened": 9128,
      "palm": 9129,
      "paler": 9130,
      "paling": 9131,
      "palace": 9132,
      "palsy": 9133,
      "palms": 9134,
      "paleness": 9135,
      "palpable": 9136,
      "snored": 9137,
      "snores": 9138,
      "snobs": 9139,
      "snorer": 9140,
      "titles": 9141,
      "tittered": 9142,
      "titlepage": 9143,
      "tackling": 9144,
      "varied": 9145,
      "varnished": 9146,
      "vantages": 9147,
      "winged": 9148,
      "winging": 9149,
      "wisely": 9150,
      "zenith": 9151,
      "recoated": 9152,
      "engine": 9153,
      "engines": 9154,
      "stalwart": 9155,
      "secondary": 9156,
      "chatted": 9157,
      "chatting": 9158,
      "chaps": 9159,
      "ironically": 9160,
      "whooped": 9161,
      "terrors": 9162,
      "deafen": 9163,
      "deafening": 9164,
      "laughing": 9165,
      "composite": 9166,
      "grownup": 9167,
      "strangely": 9168,
      "properly": 9169,
      "ruinous": 9170,
      "companion": 9171,
      "companies": 9172,
      "companionless": 9173,
      "precisely": 9174,
      "crackers": 9175,
      "vaguely": 9176,
      "simplest": 9177,
      "occasionally": 9178,
      "picnickers": 9179,
      "neighbors": 9180,
      "contemplating": 9181,
      "conspicuousness": 9182,
      "Deck": 9183,
      "December": 9184,
      "Move": 9185,
      "Mosaic": 9186,
      "Sometime": 9187,
      "Without": 9188,
      "bases": 9189,
      "basket": 9190,
      "baskets": 9191,
      "ballroom": 9192,
      "braces": 9193,
      "blessing": 9194,
      "congrat": 9195,
      "damn": 9196,
      "damp": 9197,
      "damper": 9198,
      "damps": 9199,
      "damaged": 9200,
      "diffident": 9201,
      "jeer": 9202,
      "jeers": 9203,
      "jeering": 9204,
      "jews": 9205,
      "morose": 9206,
      "moods": 9207,
      "moody": 9208,
      "odd": 9209,
      "odor": 9210,
      "purple": 9211,
      "purloined": 9212,
      "pantalo": 9213,
      "raining": 9214,
      "tumbled": 9215,
      "tumblings": 9216,
      "tumblebug": 9217,
      "tiptoed": 9218,
      "vacancy": 9219,
      "wakefulness": 9220,
      "hesitation": 9221,
      "hesitated": 9222,
      "inquired": 9223,
      "inquiries": 9224,
      "reaching": 9225,
      "thinned": 9226,
      "envying": 9227,
      "belonged": 9228,
      "belonging": 9229,
      "belongings": 9230,
      "changes": 9231,
      "weedgrown": 9232,
      "whacks": 9233,
      "sailing": 9234,
      "robbing": 9235,
      "sorely": 9236,
      "shelf": 9237,
      "sheltered": 9238,
      "sheltering": 9239,
      "Hellum": 9240,
      "depth": 9241,
      "depend": 9242,
      "depended": 9243,
      "hampered": 9244,
      "astonish": 9245,
      "extended": 9246,
      "grassblade": 9247,
      "blowout": 9248,
      "glorying": 9249,
      "greenwood": 9250,
      "empire": 9251,
      "anguished": 9252,
      "scraped": 9253,
      "scraping": 9254,
      "scrambled": 9255,
      "profaned": 9256,
      "profanity": 9257,
      "professing": 9258,
      "storms": 9259,
      "thankfully": 9260,
      "thankfullest": 9261,
      "happening": 9262,
      "happenings": 9263,
      "desert": 9264,
      "deserving": 9265,
      "drinking": 9266,
      "drunkard": 9267,
      "observers": 9268,
      "occupying": 9269,
      "divine": 9270,
      "divined": 9271,
      "symmetri": 9272,
      "picturesque": 9273,
      "imaginations": 9274,
      "shuddering": 9275,
      "proudly": 9276,
      "exercising": 9277,
      "Robinson": 9278,
      "Misgivings": 9279,
      "Mayn": 9280,
      "Unknown": 9281,
[...]
